<unk>	0
<s>	0
</s>	0
▁i	-0
▁t	-1
▁a	-2
▁f	-3
el	-4
in	-5
▁th	-6
▁s	-7
▁w	-8
▁fe	-9
▁feel	-10
ing	-11
▁m	-12
re	-13
▁b	-14
▁o	-15
nd	-16
▁h	-17
er	-18
at	-19
▁the	-20
▁to	-21
ed	-22
ou	-23
▁l	-24
▁and	-25
▁c	-26
en	-27
▁d	-28
on	-29
▁p	-30
it	-31
or	-32
an	-33
st	-34
ll	-35
▁n	-36
▁be	-37
▁g	-38
es	-39
▁of	-40
▁feeling	-41
om	-42
ve	-43
▁in	-44
▁that	-45
▁my	-46
ar	-47
is	-48
le	-49
▁ha	-50
▁e	-51
ke	-52
▁wh	-53
ut	-54
▁li	-55
as	-56
ot	-57
ow	-58
▁re	-59
▁it	-60
ay	-61
et	-62
ic	-63
ver	-64
▁u	-65
▁st	-66
se	-67
al	-68
▁im	-69
gh	-70
▁like	-71
▁so	-72
ly	-73
ent	-74
▁on	-75
▁for	-76
▁me	-77
▁y	-78
ld	-79
id	-80
▁am	-81
all	-82
ith	-83
im	-84
▁is	-85
▁was	-86
ac	-87
▁have	-88
▁r	-89
▁with	-90
▁but	-91
ion	-92
▁j	-93
▁ab	-94
ad	-95
out	-96
ant	-97
▁this	-98
▁not	-99
▁an	-100
▁as	-101
ust	-102
ally	-103
ul	-104
▁you	-105
▁sh	-106
ch	-107
ri	-108
▁mo	-109
▁k	-110
ess	-111
ght	-112
▁about	-113
oo	-114
▁som	-115
▁do	-116
ould	-117
▁su	-118
▁he	-119
ill	-120
th	-121
▁we	-122
▁at	-123
pp	-124
ir	-125
very	-126
ct	-127
au	-128
▁ne	-129
op	-130
ur	-131
am	-132
▁just	-133
▁when	-134
▁al	-135
ous	-136
▁or	-137
ce	-138
art	-139
▁bec	-140
nt	-141
▁all	-142
red	-143
ain	-144
ause	-145
▁lo	-146
ful	-147
fe	-148
▁kn	-149
▁wor	-150
ight	-151
▁go	-152
▁because	-153
▁more	-154
▁com	-155
ro	-156
ate	-157
ab	-158
▁ch	-159
▁con	-160
one	-161
▁can	-162
elf	-163
▁up	-164
▁ex	-165
ter	-166
▁de	-167
res	-168
▁se	-169
▁know	-170
▁out	-171
▁ma	-172
▁some	-173
sed	-174
▁tim	-175
▁fr	-176
▁get	-177
▁tr	-178
king	-179
▁really	-180
ated	-181
ort	-182
▁un	-183
ers	-184
itt	-185
ely	-186
▁are	-187
▁v	-188
ive	-189
il	-190
▁by	-191
ge	-192
self	-193
▁don	-194
ind	-195
▁very	-196
ell	-197
▁been	-198
▁pe	-199
ough	-200
▁what	-201
▁want	-202
▁myself	-203
▁if	-204
▁le	-205
▁time	-206
▁how	-207
ast	-208
pe	-209
un	-210
hing	-211
ong	-212
ra	-213
▁any	-214
▁would	-215
ven	-216
▁will	-217
▁had	-218
▁thin	-219
ays	-220
ation	-221
▁they	-222
ittle	-223
▁little	-224
▁en	-225
▁did	-226
▁now	-227
▁somet	-228
um	-229
▁who	-230
us	-231
▁from	-232
▁peop	-233
▁being	-234
her	-235
▁po	-236
ard	-237
▁people	-238
ty	-239
▁thing	-240
▁dis	-241
end	-242
able	-243
ving	-244
▁bl	-245
▁every	-246
▁bit	-247
▁her	-248
▁int	-249
ist	-250
▁them	-251
ack	-252
em	-253
▁pre	-254
uch	-255
▁ag	-256
▁think	-257
▁one	-258
ol	-259
pt	-260
ci	-261
▁even	-262
▁over	-263
▁than	-264
▁still	-265
ound	-266
▁no	-267
ood	-268
▁ive	-269
ved	-270
ite	-271
▁pro	-272
ie	-273
▁him	-274
▁ar	-275
ep	-276
▁could	-277
▁much	-278
▁there	-279
▁life	-280
ry	-281
▁need	-282
ig	-283
ook	-284
ace	-285
▁af	-286
▁its	-287
▁pl	-288
are	-289
ure	-290
▁something	-291
▁too	-292
▁oth	-293
ish	-294
▁things	-295
▁hel	-296
▁make	-297
▁way	-298
ck	-299
▁love	-300
ag	-301
ious	-302
▁start	-303
and	-304
▁dont	-305
ass	-306
▁help	-307
ity	-308
▁fri	-309
▁em	-310
ore	-311
▁wr	-312
ile	-313
▁gr	-314
▁going	-315
day	-316
ome	-317
▁happ	-318
ich	-319
oy	-320
▁aw	-321
ose	-322
ine	-323
▁comp	-324
ear	-325
ame	-326
▁day	-327
▁rel	-328
ak	-329
thing	-330
▁cl	-331
ere	-332
nder	-333
▁say	-334
act	-335
▁see	-336
▁she	-337
▁back	-338
per	-339
▁man	-340
ake	-341
▁ad	-342
▁has	-343
▁friend	-344
▁str	-345
less	-346
▁res	-347
▁work	-348
ide	-349
▁gu	-350
▁sp	-351
▁us	-352
▁sa	-353
ud	-354
reat	-355
ting	-356
▁pret	-357
og	-358
ue	-359
▁his	-360
▁ac	-361
▁good	-362
▁part	-363
▁pr	-364
ways	-365
▁should	-366
ressed	-367
▁which	-368
▁co	-369
▁into	-370
ade	-371
▁right	-372
ick	-373
ning	-374
▁pretty	-375
▁always	-376
so	-377
▁again	-378
our	-379
▁their	-380
▁cont	-381
▁after	-382
▁act	-383
▁your	-384
ble	-385
own	-386
▁other	-387
ies	-388
ually	-389
ment	-390
▁rem	-391
wh	-392
ress	-393
▁most	-394
ft	-395
▁try	-396
▁di	-397
▁these	-398
od	-399
▁only	-400
▁feels	-401
▁year	-402
▁read	-403
▁hop	-404
▁also	-405
ff	-406
▁pers	-407
▁feelings	-408
▁id	-409
▁long	-410
▁imp	-411
iz	-412
▁sm	-413
▁thr	-414
▁then	-415
▁our	-416
ought	-417
ach	-418
▁cant	-419
▁off	-420
▁bet	-421
▁never	-422
ect	-423
▁person	-424
▁wee	-425
ber	-426
▁were	-427
az	-428
ward	-429
▁ins	-430
▁today	-431
ool	-432
ull	-433
▁kind	-434
▁look	-435
ice	-436
▁got	-437
▁app	-438
int	-439
▁supp	-440
ily	-441
ened	-442
▁around	-443
▁wo	-444
we	-445
▁here	-446
▁ke	-447
cept	-448
ip	-449
▁didnt	-450
▁spe	-451
ath	-452
▁may	-453
▁though	-454
▁sc	-455
▁down	-456
▁well	-457
ured	-458
▁those	-459
▁mis	-460
ree	-461
▁real	-462
▁tal	-463
ha	-464
▁per	-465
▁mom	-466
ions	-467
▁through	-468
▁bel	-469
ence	-470
▁where	-471
▁let	-472
▁thought	-473
▁lot	-474
▁made	-475
▁find	-476
ather	-477
▁te	-478
kes	-479
ang	-480
▁doing	-481
▁less	-482
other	-483
fort	-484
▁stu	-485
wn	-486
ult	-487
▁des	-488
▁new	-489
▁sin	-490
▁week	-491
▁sl	-492
▁someone	-493
▁heart	-494
▁conf	-495
os	-496
ied	-497
▁gl	-498
▁end	-499
▁fa	-500
elt	-501
▁having	-502
uite	-503
▁happy	-504
▁many	-505
fore	-506
▁br	-507
age	-508
▁home	-509
▁felt	-510
▁makes	-511
ild	-512
▁friends	-513
ten	-514
ves	-515
▁ter	-516
tt	-517
▁why	-518
pl	-519
pect	-520
vent	-521
▁anything	-522
com	-523
ked	-524
▁under	-525
▁sure	-526
▁dist	-527
▁days	-528
oth	-529
ange	-530
▁last	-531
ens	-532
▁before	-533
ired	-534
▁left	-535
▁enough	-536
▁accept	-537
▁since	-538
ttp	-539
med	-540
▁http	-541
ert	-542
▁hope	-543
▁tw	-544
▁own	-545
▁take	-546
ged	-547
▁tell	-548
get	-549
fied	-550
▁el	-551
▁post	-552
▁actually	-553
▁blog	-554
▁ro	-555
fect	-556
▁amaz	-557
▁such	-558
ance	-559
▁getting	-560
leas	-561
▁gen	-562
▁without	-563
▁world	-564
▁pos	-565
be	-566
▁dr	-567
▁sometim	-568
▁dep	-569
ations	-570
▁better	-571
ont	-572
ug	-573
▁support	-574
▁fl	-575
▁everything	-576
▁ph	-577
ular	-578
▁fam	-579
▁remem	-580
ib	-581
▁sometimes	-582
▁emot	-583
▁bad	-584
▁ang	-585
▁jo	-586
uck	-587
▁few	-588
peri	-589
▁ever	-590
▁away	-591
ited	-592
atch	-593
▁come	-594
ual	-595
▁fin	-596
cess	-597
▁fir	-598
▁moment	-599
uct	-600
▁while	-601
iting	-602
ans	-603
▁sad	-604
read	-605
▁does	-606
▁keep	-607
▁started	-608
ost	-609
ap	-610
▁cr	-611
▁remember	-612
▁gi	-613
ody	-614
▁put	-615
ness	-616
▁exc	-617
▁pain	-618
ating	-619
let	-620
▁terri	-621
▁first	-622
oc	-623
▁said	-624
ref	-625
▁cou	-626
▁able	-627
▁href	-628
ately	-629
▁dec	-630
used	-631
▁mor	-632
▁disc	-633
▁care	-634
▁ill	-635
ren	-636
▁self	-637
▁rather	-638
ict	-639
▁wonder	-640
ason	-641
ared	-642
ertain	-643
▁car	-644
▁pass	-645
▁del	-646
iv	-647
▁night	-648
rr	-649
▁swe	-650
ned	-651
▁hur	-652
irl	-653
▁hand	-654
▁gener	-655
led	-656
▁god	-657
itated	-658
▁lea	-659
▁inc	-660
▁child	-661
▁trying	-662
▁family	-663
▁sch	-664
xt	-665
▁worth	-666
▁sit	-667
ner	-668
▁list	-669
fortable	-670
ird	-671
orm	-672
▁pleas	-673
ond	-674
▁ve	-675
▁complet	-676
▁att	-677
▁beg	-678
▁hate	-679
▁might	-680
est	-681
▁girl	-682
▁wal	-683
▁seem	-684
▁times	-685
umb	-686
▁hard	-687
whel	-688
eless	-689
▁ass	-690
▁cra	-691
▁overwhel	-692
▁use	-693
▁tri	-694
ortant	-695
ionate	-696
▁hor	-697
▁give	-698
▁book	-699
▁making	-700
▁strong	-701
ump	-702
ject	-703
▁sle	-704
▁yet	-705
▁ent	-706
▁alone	-707
▁run	-708
▁same	-709
▁val	-710
▁place	-711
ready	-712
ank	-713
▁two	-714
▁already	-715
▁thank	-716
▁years	-717
▁fun	-718
▁sweet	-719
▁hurt	-720
▁rest	-721
aking	-722
ise	-723
▁others	-724
▁amazing	-725
▁emotion	-726
▁cle	-727
▁mon	-728
▁show	-729
▁sur	-730
imp	-731
▁experi	-732
▁underst	-733
▁rec	-734
ored	-735
▁toward	-736
▁bless	-737
▁ener	-738
hip	-739
usted	-740
ny	-741
▁call	-742
▁es	-743
ical	-744
▁head	-745
aught	-746
ush	-747
▁appre	-748
▁word	-749
gy	-750
▁play	-751
ys	-752
▁school	-753
app	-754
ably	-755
▁watch	-756
▁reason	-757
ered	-758
▁wanted	-759
▁weird	-760
▁ext	-761
atis	-762
▁both	-763
ory	-764
▁write	-765
▁done	-766
▁morning	-767
ffe	-768
▁overwhelmed	-769
joy	-770
▁irr	-771
▁loo	-772
cially	-773
▁hum	-774
▁another	-775
▁sleep	-776
▁nothing	-777
▁stressed	-778
▁face	-779
▁angry	-780
▁fear	-781
▁point	-782
▁enjoy	-783
▁reg	-784
cial	-785
▁everyone	-786
▁sk	-787
▁belie	-788
▁mind	-789
most	-790
gn	-791
▁wom	-792
▁understand	-793
▁completely	-794
▁often	-795
▁guess	-796
▁art	-797
ppy	-798
oved	-799
▁lost	-800
▁almost	-801
▁cons	-802
ub	-803
ense	-804
ase	-805
▁next	-806
▁inst	-807
igh	-808
▁didn	-809
▁class	-810
▁partic	-811
rent	-812
ustr	-813
ced	-814
▁loved	-815
ished	-816
▁blessed	-817
▁old	-818
▁mar	-819
▁adm	-820
▁great	-821
▁lear	-822
vel	-823
▁kid	-824
istic	-825
he	-826
etic	-827
▁thinking	-828
▁tur	-829
▁fact	-830
▁ser	-831
▁excited	-832
▁sho	-833
▁past	-834
▁strange	-835
▁posit	-836
▁went	-837
oub	-838
▁body	-839
▁wrong	-840
ized	-841
ident	-842
▁talk	-843
ater	-844
▁ind	-845
▁writing	-846
ised	-847
gic	-848
ire	-849
▁month	-850
▁once	-851
▁sy	-852
▁ear	-853
▁maybe	-854
▁accepted	-855
▁hated	-856
ering	-857
▁valu	-858
▁sor	-859
ude	-860
atisfied	-861
▁wa	-862
▁espe	-863
▁anx	-864
▁mean	-865
▁especially	-866
▁whole	-867
▁comm	-868
▁guil	-869
ces	-870
amed	-871
▁frustr	-872
▁content	-873
ret	-874
▁ho	-875
▁looking	-876
▁prod	-877
ouse	-878
▁helpless	-879
ute	-880
▁found	-881
athetic	-882
▁else	-883
vers	-884
ize	-885
▁hes	-886
▁ok	-887
▁creat	-888
ms	-889
ary	-890
▁op	-891
▁tired	-892
▁ob	-893
▁must	-894
▁ann	-895
▁lately	-896
▁particular	-897
les	-898
▁used	-899
▁ach	-900
pr	-901
▁inv	-902
▁char	-903
oud	-904
icious	-905
▁important	-906
ever	-907
▁gre	-908
▁unt	-909
▁bur	-910
▁hour	-911
ient	-912
▁job	-913
▁che	-914
▁bu	-915
ail	-916
▁perfect	-917
▁each	-918
aring	-919
▁free	-920
ream	-921
▁far	-922
ax	-923
▁ide	-924
▁passionate	-925
▁hon	-926
▁anyone	-927
▁share	-928
oint	-929
▁sort	-930
▁towards	-931
▁miss	-932
▁best	-933
▁agitated	-934
▁cal	-935
▁par	-936
▁peace	-937
▁joy	-938
▁stop	-939
ss	-940
aken	-941
▁stud	-942
gr	-943
▁sec	-944
▁press	-945
▁told	-946
▁supporting	-947
▁slight	-948
rem	-949
▁full	-950
▁ey	-951
▁suc	-952
▁prob	-953
▁until	-954
▁wasnt	-955
ia	-956
pid	-957
▁house	-958
ract	-959
▁dam	-960
ps	-961
ically	-962
▁tend	-963
ign	-964
raged	-965
uring	-966
▁det	-967
▁diffe	-968
▁emb	-969
▁inside	-970
dd	-971
▁leave	-972
▁least	-973
▁probably	-974
ew	-975
▁starting	-976
atter	-977
▁product	-978
ling	-979
▁ner	-980
▁min	-981
▁lon	-982
iness	-983
▁cold	-984
▁mess	-985
ons	-986
▁stupid	-987
▁scared	-988
▁hone	-989
▁believe	-990
▁bre	-991
▁disapp	-992
uri	-993
▁tot	-994
▁uns	-995
arent	-996
▁thats	-997
▁sorry	-998
▁inter	-999
ord	-1000
uc	-1001
▁pres	-1002
▁frustrated	-1003
uly	-1004
▁somewh	-1005
oid	-1006
antic	-1007
▁sub	-1008
▁sense	-1009
▁super	-1010
raid	-1011
vely	-1012
▁depressed	-1013
▁hot	-1014
iss	-1015
▁big	-1016
arr	-1017
▁situ	-1018
ention	-1019
▁afraid	-1020
▁fo	-1021
▁working	-1022
▁mus	-1023
ative	-1024
▁def	-1025
ained	-1026
vious	-1027
▁exp	-1028
▁honest	-1029
▁dev	-1030
aged	-1031
cious	-1032
ined	-1033
▁eas	-1034
▁words	-1035
ors	-1036
▁bab	-1037
▁tor	-1038
▁relax	-1039
▁wonderful	-1040
chy	-1041
▁stay	-1042
ible	-1043
ateful	-1044
▁bed	-1045
▁anxious	-1046
▁saying	-1047
▁slightly	-1048
▁pri	-1049
▁annoy	-1050
▁stuff	-1051
ibly	-1052
assed	-1053
▁amp	-1054
▁generous	-1055
▁truly	-1056
▁live	-1057
▁high	-1058
▁comfortable	-1059
▁emp	-1060
▁loving	-1061
eal	-1062
▁begin	-1063
pected	-1064
aut	-1065
▁trust	-1066
fic	-1067
▁become	-1068
ne	-1069
itting	-1070
▁relations	-1071
▁boy	-1072
rist	-1073
▁success	-1074
▁extrem	-1075
▁spend	-1076
▁low	-1077
▁glad	-1078
ead	-1079
▁guilty	-1080
ided	-1081
ging	-1082
▁finally	-1083
▁insp	-1084
ink	-1085
▁wish	-1086
▁coming	-1087
▁add	-1088
▁surpr	-1089
▁thankful	-1090
▁experience	-1091
ken	-1092
▁relationship	-1093
▁special	-1094
vous	-1095
▁emotional	-1096
ple	-1097
▁came	-1098
▁nervous	-1099
▁positive	-1100
▁disappoint	-1101
▁horri	-1102
▁unc	-1103
▁happen	-1104
▁confident	-1105
▁particularly	-1106
▁appreci	-1107
▁bro	-1108
▁certain	-1109
▁room	-1110
ility	-1111
▁deep	-1112
▁expl	-1113
▁kids	-1114
▁heal	-1115
▁walk	-1116
astic	-1117
uth	-1118
▁reading	-1119
▁faith	-1120
▁lonely	-1121
vie	-1122
▁bra	-1123
▁grou	-1124
▁ign	-1125
▁abs	-1126
cked	-1127
▁count	-1128
ulted	-1129
uest	-1130
▁uncom	-1131
als	-1132
▁set	-1133
▁beloved	-1134
▁calm	-1135
▁luck	-1136
▁exha	-1137
▁contin	-1138
owing	-1139
▁liked	-1140
ash	-1141
▁hear	-1142
▁cool	-1143
▁hom	-1144
▁woke	-1145
▁change	-1146
▁opt	-1147
irt	-1148
▁during	-1149
▁proud	-1150
▁war	-1151
▁weeks	-1152
ital	-1153
▁sw	-1154
▁christ	-1155
cy	-1156
▁sym	-1157
unity	-1158
▁ty	-1159
ark	-1160
▁eat	-1161
▁inf	-1162
▁food	-1163
▁pop	-1164
bed	-1165
▁children	-1166
▁ton	-1167
▁poss	-1168
▁sing	-1169
▁beaut	-1170
▁taking	-1171
▁totally	-1172
▁extremely	-1173
ier	-1174
▁parent	-1175
▁bus	-1176
sec	-1177
oring	-1178
▁instead	-1179
▁wont	-1180
not	-1181
▁fall	-1182
▁move	-1183
▁uncomfortable	-1184
▁rep	-1185
urious	-1186
ount	-1187
▁cry	-1188
▁knew	-1189
▁compl	-1190
▁fuck	-1191
▁simp	-1192
more	-1193
▁mem	-1194
▁mad	-1195
▁tort	-1196
ition	-1197
▁suff	-1198
▁different	-1199
ents	-1200
▁listen	-1201
ments	-1202
ities	-1203
ures	-1204
▁toget	-1205
ying	-1206
erm	-1207
▁safe	-1208
▁plan	-1209
▁relie	-1210
ings	-1211
mm	-1212
▁fab	-1213
▁havent	-1214
▁sent	-1215
▁anymore	-1216
▁insec	-1217
▁together	-1218
ither	-1219
gly	-1220
ried	-1221
▁usually	-1222
▁stand	-1223
na	-1224
▁decided	-1225
ix	-1226
▁embarr	-1227
ently	-1228
▁admit	-1229
▁exhausted	-1230
▁longer	-1231
ww	-1232
▁annoyed	-1233
▁ask	-1234
▁confused	-1235
▁bo	-1236
▁pun	-1237
▁disappointed	-1238
ager	-1239
▁opp	-1240
orn	-1241
▁pet	-1242
▁incred	-1243
ph	-1244
▁vi	-1245
ues	-1246
ili	-1247
▁missed	-1248
anger	-1249
▁fine	-1250
▁selfish	-1251
▁matter	-1252
▁lovely	-1253
▁creative	-1254
▁talking	-1255
ushed	-1256
▁hours	-1257
▁thoughts	-1258
antly	-1259
▁disg	-1260
av	-1261
▁story	-1262
pped	-1263
▁doesnt	-1264
▁www	-1265
atient	-1266
▁horrible	-1267
▁baby	-1268
▁priv	-1269
▁cannot	-1270
▁beat	-1271
▁months	-1272
▁situation	-1273
▁ap	-1274
▁resp	-1275
▁lucky	-1276
osed	-1277
▁unw	-1278
▁idea	-1279
▁meet	-1280
▁cur	-1281
▁imag	-1282
▁mother	-1283
olut	-1284
▁ret	-1285
ealous	-1286
▁rom	-1287
▁tortured	-1288
come	-1289
▁funny	-1290
kward	-1291
▁turn	-1292
air	-1293
gle	-1294
ween	-1295
▁jealous	-1296
▁relaxed	-1297
▁comes	-1298
ger	-1299
▁hold	-1300
▁coll	-1301
▁awkward	-1302
▁gro	-1303
▁eyes	-1304
▁energy	-1305
▁proble	-1306
vin	-1307
▁const	-1308
▁couldnt	-1309
ial	-1310
▁miser	-1311
▁pur	-1312
▁numb	-1313
▁between	-1314
der	-1315
▁break	-1316
sing	-1317
▁contro	-1318
▁defin	-1319
ellow	-1320
ensive	-1321
▁light	-1322
▁reject	-1323
ulous	-1324
full	-1325
▁dri	-1326
▁cre	-1327
▁ref	-1328
row	-1329
▁open	-1330
▁hopeless	-1331
aw	-1332
▁caring	-1333
▁norm	-1334
▁sick	-1335
▁resent	-1336
ental	-1337
▁living	-1338
▁insecure	-1339
▁defe	-1340
▁ed	-1341
olved	-1342
▁phot	-1343
▁fre	-1344
atic	-1345
▁pict	-1346
▁terrible	-1347
ester	-1348
its	-1349
ming	-1350
erest	-1351
▁dream	-1352
▁wel	-1353
▁bitter	-1354
▁knowing	-1355
▁women	-1356
▁successful	-1357
▁unha	-1358
▁close	-1359
oney	-1360
▁lau	-1361
▁somewhat	-1362
▁embarrassed	-1363
itty	-1364
▁health	-1365
▁top	-1366
▁symp	-1367
▁useless	-1368
▁surprised	-1369
▁med	-1370
nect	-1371
▁inn	-1372
▁vul	-1373
▁empty	-1374
ety	-1375
▁fut	-1376
itable	-1377
▁cute	-1378
▁event	-1379
▁homes	-1380
▁div	-1381
▁money	-1382
▁offe	-1383
▁smart	-1384
▁took	-1385
▁distract	-1386
▁ago	-1387
▁bas	-1388
fully	-1389
issed	-1390
▁sn	-1391
▁vulner	-1392
ian	-1393
▁vis	-1394
rived	-1395
▁diss	-1396
▁music	-1397
▁determ	-1398
▁regret	-1399
▁unsure	-1400
▁inspired	-1401
▁burd	-1402
▁either	-1403
▁awful	-1404
▁unhappy	-1405
▁intim	-1406
rill	-1407
▁precious	-1408
▁advent	-1409
▁ash	-1410
▁doub	-1411
uate	-1412
ouraged	-1413
▁irritated	-1414
▁mel	-1415
▁nice	-1416
▁future	-1417
side	-1418
▁song	-1419
▁kinda	-1420
▁small	-1421
▁productive	-1422
▁cause	-1423
▁seeing	-1424
▁satisfied	-1425
▁hands	-1426
▁incredibly	-1427
▁miserable	-1428
▁allow	-1429
▁danger	-1430
▁touch	-1431
▁control	-1432
▁vulnerable	-1433
dden	-1434
▁viol	-1435
▁spent	-1436
▁gent	-1437
▁convin	-1438
▁absolut	-1439
aded	-1440
▁seems	-1441
ah	-1442
▁hal	-1443
▁innoc	-1444
▁sex	-1445
otten	-1446
ories	-1447
▁cour	-1448
▁worthless	-1449
▁desp	-1450
▁side	-1451
itely	-1452
▁couple	-1453
▁glo	-1454
ented	-1455
▁isol	-1456
ellig	-1457
▁longing	-1458
▁sudden	-1459
▁absolutely	-1460
▁fool	-1461
▁given	-1462
▁iss	-1463
▁ec	-1464
orge	-1465
rect	-1466
▁gentle	-1467
▁intellig	-1468
▁bothered	-1469
ether	-1470
▁woman	-1471
▁rich	-1472
▁soon	-1473
anch	-1474
▁pissed	-1475
▁conc	-1476
▁peaceful	-1477
▁met	-1478
▁shy	-1479
bb	-1480
▁skin	-1481
▁weight	-1482
pping	-1483
▁privile	-1484
▁rude	-1485
▁friendly	-1486
▁optim	-1487
▁shitty	-1488
ates	-1489
▁determined	-1490
▁spir	-1491
▁ugly	-1492
▁relieved	-1493
har	-1494
▁fant	-1495
▁doubt	-1496
▁hopeful	-1497
▁consid	-1498
▁impressed	-1499
▁innocent	-1500
irty	-1501
▁dumb	-1502
▁useful	-1503
▁disgusted	-1504
▁second	-1505
▁terrified	-1506
edy	-1507
oice	-1508
▁hair	-1509
▁experien	-1510
▁boring	-1511
▁interest	-1512
▁watching	-1513
▁inade	-1514
▁popular	-1515
▁uncertain	-1516
how	-1517
omy	-1518
▁ashamed	-1519
▁discouraged	-1520
▁ready	-1521
▁resentful	-1522
▁began	-1523
nded	-1524
▁fail	-1525
▁phys	-1526
ower	-1527
acter	-1528
▁half	-1529
▁homesick	-1530
▁guy	-1531
▁col	-1532
▁definitely	-1533
▁irritable	-1534
▁romantic	-1535
umpy	-1536
▁along	-1537
▁distur	-1538
▁amazed	-1539
▁deal	-1540
▁rejected	-1541
▁sitting	-1542
▁dull	-1543
▁paran	-1544
▁faithful	-1545
▁running	-1546
▁alth	-1547
▁tender	-1548
▁valued	-1549
▁drained	-1550
▁wear	-1551
▁gorge	-1552
▁shocked	-1553
▁whenever	-1554
▁whate	-1555
▁threat	-1556
olog	-1557
▁fest	-1558
lic	-1559
▁ll	-1560
while	-1561
▁distracted	-1562
▁aching	-1563
▁parents	-1564
▁intimid	-1565
band	-1566
▁youre	-1567
▁isolated	-1568
▁pressured	-1569
▁z	-1570
▁strug	-1571
▁although	-1572
▁gorgeous	-1573
no	-1574
fri	-1575
▁beauti	-1576
▁dangerous	-1577
▁hus	-1578
▁pleasant	-1579
▁wake	-1580
▁acceptable	-1581
▁rushed	-1582
▁whatever	-1583
▁delicious	-1584
friend	-1585
▁heartb	-1586
▁three	-1587
▁troub	-1588
igor	-1589
▁exact	-1590
▁shak	-1591
▁reass	-1592
▁lethar	-1593
▁welcom	-1594
▁energet	-1595
▁worthwhile	-1596
▁tonight	-1597
▁pie	-1598
▁brave	-1599
▁summ	-1600
▁joyful	-1601
▁somehow	-1602
▁hesit	-1603
▁valuable	-1604
▁foll	-1605
sp	-1606
▁thrill	-1607
▁energetic	-1608
▁youn	-1609
▁respected	-1610
zy	-1611
▁character	-1612
▁defeated	-1613
▁eager	-1614
▁giving	-1615
▁curious	-1616
body	-1617
aining	-1618
▁reluct	-1619
stal	-1620
ket	-1621
▁connect	-1622
▁optimistic	-1623
▁acc	-1624
▁lethargic	-1625
▁intelligent	-1626
▁husband	-1627
▁restless	-1628
▁impatient	-1629
▁truth	-1630
▁suffering	-1631
▁sympathetic	-1632
▁bitchy	-1633
▁remind	-1634
▁sat	-1635
▁blank	-1636
▁privileged	-1637
usion	-1638
▁appreh	-1639
▁whether	-1640
▁saw	-1641
▁intimidated	-1642
▁paranoid	-1643
▁crank	-1644
▁grumpy	-1645
▁divine	-1646
▁foc	-1647
▁asked	-1648
▁sound	-1649
▁ignored	-1650
▁reluctant	-1651
▁crappy	-1652
▁convinced	-1653
omed	-1654
▁chang	-1655
▁tried	-1656
if	-1657
▁beautiful	-1658
▁gone	-1659
up	-1660
▁unl	-1661
▁needy	-1662
▁needed	-1663
▁express	-1664
▁fake	-1665
▁dirty	-1666
▁insulted	-1667
ote	-1668
ave	-1669
▁nat	-1670
▁cranky	-1671
cri	-1672
▁disturbed	-1673
▁dra	-1674
▁simply	-1675
▁apprehensive	-1676
cc	-1677
▁nostal	-1678
▁dissatisfied	-1679
ggy	-1680
ics	-1681
▁lame	-1682
▁pathetic	-1683
▁isnt	-1684
▁offended	-1685
▁broke	-1686
▁vital	-1687
▁pleased	-1688
▁honored	-1689
▁fucked	-1690
▁melanch	-1691
▁beaten	-1692
▁clever	-1693
ene	-1694
oly	-1695
▁welcomed	-1696
▁pray	-1697
kend	-1698
icate	-1699
▁cas	-1700
▁assured	-1701
▁punished	-1702
▁fright	-1703
▁wronged	-1704
▁happened	-1705
▁shaky	-1706
▁weekend	-1707
▁deprived	-1708
way	-1709
▁bring	-1710
▁foolish	-1711
▁fig	-1712
▁against	-1713
▁realize	-1714
▁yester	-1715
▁win	-1716
▁vain	-1717
▁groggy	-1718
▁forg	-1719
ks	-1720
▁greedy	-1721
▁hesitant	-1722
▁devast	-1723
▁expect	-1724
▁sincere	-1725
▁bar	-1726
▁eff	-1727
▁burdened	-1728
heart	-1729
amp	-1730
▁tre	-1731
▁abused	-1732
▁humili	-1733
▁beh	-1734
▁soci	-1735
▁wanting	-1736
▁melancholy	-1737
▁ans	-1738
▁troubled	-1739
▁ones	-1740
▁gloomy	-1741
▁smug	-1742
roken	-1743
▁thrilled	-1744
▁heartbroken	-1745
set	-1746
▁emotions	-1747
▁fantastic	-1748
▁pa	-1749
▁eating	-1750
▁opport	-1751
uous	-1752
▁mood	-1753
▁wouldnt	-1754
▁hu	-1755
mas	-1756
▁sentim	-1757
▁invigor	-1758
▁reassured	-1759
att	-1760
sel	-1761
▁short	-1762
otic	-1763
br	-1764
▁learn	-1765
▁spirit	-1766
▁breat	-1767
▁superi	-1768
▁violent	-1769
▁threatened	-1770
▁invigorated	-1771
▁mid	-1772
▁tom	-1773
▁festive	-1774
▁yesterday	-1775
▁doomed	-1776
▁rotten	-1777
▁pub	-1778
▁lous	-1779
uick	-1780
▁mellow	-1781
▁superior	-1782
▁course	-1783
▁within	-1784
▁personal	-1785
▁frightened	-1786
▁humiliated	-1787
▁sou	-1788
▁nostalgic	-1789
akes	-1790
▁lack	-1791
▁exactly	-1792
urous	-1793
▁ca	-1794
▁sun	-1795
▁lousy	-1796
▁honestly	-1797
▁devastated	-1798
▁step	-1799
▁theres	-1800
▁continue	-1801
▁oh	-1802
▁fil	-1803
▁taken	-1804
▁laugh	-1805
▁warm	-1806
▁summer	-1807
▁unimp	-1808
▁adventurous	-1809
▁retur	-1810
▁serious	-1811
▁resolved	-1812
▁ways	-1813
▁messy	-1814
▁fabulous	-1815
▁unimportant	-1816
▁ungr	-1817
▁hell	-1818
▁talented	-1819
ime	-1820
▁leg	-1821
▁envious	-1822
▁uni	-1823
▁reb	-1824
▁gra	-1825
▁unp	-1826
▁naught	-1827
▁state	-1828
▁mine	-1829
▁lead	-1830
▁shaken	-1831
▁ungrateful	-1832
▁vict	-1833
oured	-1834
▁project	-1835
▁telling	-1836
▁jaded	-1837
▁moments	-1838
ones	-1839
▁pull	-1840
▁damaged	-1841
▁naughty	-1842
aces	-1843
▁late	-1844
▁virt	-1845
iter	-1846
▁decis	-1847
▁unwel	-1848
▁forward	-1849
▁disheart	-1850
▁human	-1851
▁christmas	-1852
▁unwelcome	-1853
▁ecst	-1854
▁near	-1855
▁fearful	-1856
yle	-1857
▁girls	-1858
▁sentimental	-1859
ove	-1860
▁disheartened	-1861
▁needs	-1862
▁smile	-1863
▁direct	-1864
▁effort	-1865
▁affect	-1866
▁av	-1867
▁rid	-1868
▁mot	-1869
▁fore	-1870
▁discont	-1871
▁trusting	-1872
▁supportive	-1873
▁et	-1874
▁wasn	-1875
▁exam	-1876
▁group	-1877
▁outside	-1878
▁realized	-1879
▁using	-1880
▁eng	-1881
▁fill	-1882
▁petty	-1883
▁ecstatic	-1884
▁men	-1885
▁jour	-1886
▁regretful	-1887
▁lives	-1888
▁answ	-1889
▁water	-1890
▁pick	-1891
▁books	-1892
▁occ	-1893
▁front	-1894
▁suddenly	-1895
▁discontent	-1896
▁game	-1897
▁result	-1898
▁slow	-1899
▁behind	-1900
▁normal	-1901
▁later	-1902
▁mention	-1903
▁horny	-1904
ross	-1905
▁rece	-1906
▁grateful	-1907
▁constantly	-1908
▁hol	-1909
ively	-1910
▁power	-1911
selves	-1912
▁casual	-1913
▁pay	-1914
▁leaving	-1915
▁true	-1916
▁single	-1917
cing	-1918
▁current	-1919
▁consider	-1920
iday	-1921
orous	-1922
orrow	-1923
▁type	-1924
▁convers	-1925
▁pregn	-1926
▁clean	-1927
▁speak	-1928
▁tear	-1929
▁young	-1930
▁soul	-1931
ucking	-1932
▁delicate	-1933
▁guys	-1934
▁ut	-1935
▁main	-1936
▁beginning	-1937
▁enc	-1938
▁inde	-1939
ife	-1940
▁prom	-1941
▁upset	-1942
ike	-1943
▁called	-1944
▁honoured	-1945
▁supposed	-1946
oun	-1947
▁due	-1948
▁prof	-1949
▁wind	-1950
▁focus	-1951
yal	-1952
▁red	-1953
▁loyal	-1954
▁unloved	-1955
ices	-1956
view	-1957
▁pol	-1958
▁virtuous	-1959
free	-1960
▁waiting	-1961
▁adv	-1962
▁jud	-1963
▁sto	-1964
fortun	-1965
▁process	-1966
▁fucking	-1967
▁worry	-1968
▁rebell	-1969
▁imagine	-1970
▁da	-1971
outh	-1972
▁etc	-1973
▁however	-1974
▁air	-1975
▁carefree	-1976
itch	-1977
▁sens	-1978
▁stress	-1979
ffic	-1980
▁cor	-1981
▁fight	-1982
▁means	-1983
ele	-1984
▁descri	-1985
empt	-1986
▁unfortun	-1987
▁dark	-1988
▁says	-1989
▁ur	-1990
▁form	-1991
▁becom	-1992
▁artistic	-1993
▁wait	-1994
▁trans	-1995
▁accom	-1996
▁rebellious	-1997
▁order	-1998
▁host	-1999
▁level	-2000
▁treat	-2001
irth	-2002
▁gets	-2003
sy	-2004
▁chur	-2005
▁opportunity	-2006
miss	-2007
▁fav	-2008
▁team	-2009
▁tomorrow	-2010
ines	-2011
▁damn	-2012
allen	-2013
▁clear	-2014
▁movie	-2015
▁walking	-2016
▁incl	-2017
use	-2018
▁victim	-2019
uestion	-2020
▁sol	-2021
▁seen	-2022
▁compan	-2023
ung	-2024
▁contented	-2025
sh	-2026
ott	-2027
▁idi	-2028
▁grow	-2029
unch	-2030
▁reach	-2031
▁fair	-2032
▁challen	-2033
book	-2034
▁shit	-2035
ney	-2036
▁choo	-2037
ee	-2038
haps	-2039
▁deser	-2040
▁chance	-2041
▁compass	-2042
▁country	-2043
ising	-2044
▁perhaps	-2045
▁death	-2046
▁community	-2047
utes	-2048
▁forget	-2049
▁unpleas	-2050
▁early	-2051
▁colle	-2052
▁despite	-2053
▁birth	-2054
▁unpleasant	-2055
otect	-2056
▁pract	-2057
▁follow	-2058
▁delight	-2059
▁buy	-2060
▁recently	-2061
gan	-2062
arch	-2063
gest	-2064
▁church	-2065
▁gave	-2066
ork	-2067
itude	-2068
ayed	-2069
▁appreciative	-2070
ane	-2071
ession	-2072
▁easily	-2073
▁ant	-2074
iew	-2075
▁har	-2076
nday	-2077
▁space	-2078
illusion	-2079
▁name	-2080
▁disillusion	-2081
itle	-2082
▁view	-2083
▁father	-2084
▁comfort	-2085
rence	-2086
▁teac	-2087
▁distressed	-2088
▁yes	-2089
▁students	-2090
▁attention	-2091
ui	-2092
▁fast	-2093
▁disillusioned	-2094
▁case	-2095
▁gift	-2096
▁terrific	-2097
ster	-2098
▁emotionally	-2099
hib	-2100
▁crazy	-2101
line	-2102
▁moving	-2103
▁loss	-2104
▁putting	-2105
▁daz	-2106
▁wants	-2107
▁cut	-2108
▁comment	-2109
▁explain	-2110
▁pictures	-2111
vi	-2112
▁susp	-2113
▁except	-2114
lly	-2115
▁easy	-2116
▁dress	-2117
▁minutes	-2118
▁dad	-2119
ames	-2120
▁age	-2121
▁sist	-2122
▁mostly	-2123
▁stubb	-2124
ffect	-2125
▁frantic	-2126
▁stubborn	-2127
▁goes	-2128
ances	-2129
▁heard	-2130
▁looks	-2131
▁respons	-2132
▁glam	-2133
▁issues	-2134
▁doesn	-2135
▁problem	-2136
ism	-2137
▁shes	-2138
▁looked	-2139
▁theyre	-2140
▁neg	-2141
▁stom	-2142
▁intern	-2143
▁learning	-2144
▁prop	-2145
▁possible	-2146
▁fond	-2147
▁diffic	-2148
umph	-2149
aste	-2150
iced	-2151
▁hit	-2152
▁dazed	-2153
▁sever	-2154
▁triumph	-2155
eric	-2156
ills	-2157
▁nor	-2158
▁please	-2159
▁problems	-2160
▁din	-2161
▁sug	-2162
go	-2163
▁sim	-2164
▁kept	-2165
▁lose	-2166
▁strongly	-2167
▁entertain	-2168
▁line	-2169
▁generally	-2170
gress	-2171
▁voice	-2172
▁couldn	-2173
▁phone	-2174
▁anger	-2175
▁physically	-2176
▁pot	-2177
▁x	-2178
▁fit	-2179
ement	-2180
▁season	-2181
bly	-2182
▁brain	-2183
▁anyway	-2184
▁bene	-2185
▁style	-2186
▁trag	-2187
▁cloth	-2188
▁accompl	-2189
▁listless	-2190
▁upon	-2191
ma	-2192
form	-2193
▁effect	-2194
bs	-2195
▁hang	-2196
▁present	-2197
▁pressure	-2198
erc	-2199
▁strugg	-2200
gth	-2201
irc	-2202
▁healthy	-2203
ins	-2204
▁keen	-2205
▁unfortunate	-2206
▁sign	-2207
▁stomach	-2208
▁busy	-2209
▁okay	-2210
▁triumphant	-2211
▁everyday	-2212
▁piece	-2213
▁wed	-2214
▁entire	-2215
▁tragic	-2216
▁circ	-2217
▁won	-2218
▁listening	-2219
io	-2220
▁general	-2221
▁suspicious	-2222
epy	-2223
▁amount	-2224
▁learned	-2225
uickly	-2226
▁deeply	-2227
▁wearing	-2228
by	-2229
▁certainly	-2230
▁return	-2231
ards	-2232
▁fat	-2233
▁ev	-2234
▁lay	-2235
▁tra	-2236
▁grand	-2237
▁walked	-2238
ses	-2239
▁prep	-2240
▁apart	-2241
▁sar	-2242
▁clos	-2243
▁comments	-2244
ze	-2245
▁submiss	-2246
▁dog	-2247
▁amused	-2248
▁themselves	-2249
ishing	-2250
ape	-2251
dle	-2252
▁num	-2253
▁news	-2254
▁social	-2255
▁suppose	-2256
▁sr	-2257
▁gotten	-2258
▁finding	-2259
▁trip	-2260
▁appro	-2261
▁worried	-2262
▁dem	-2263
velop	-2264
▁exist	-2265
▁respect	-2266
idence	-2267
head	-2268
▁clothes	-2269
▁reasons	-2270
▁delighted	-2271
orse	-2272
▁city	-2273
▁kill	-2274
▁figure	-2275
eg	-2276
▁conversation	-2277
ific	-2278
right	-2279
▁losing	-2280
▁presence	-2281
▁avoid	-2282
▁americ	-2283
▁finished	-2284
ages	-2285
▁black	-2286
aughter	-2287
▁choose	-2288
▁public	-2289
▁utter	-2290
▁test	-2291
▁ir	-2292
▁crying	-2293
▁personally	-2294
▁difficult	-2295
▁asking	-2296
▁decision	-2297
▁src	-2298
▁stra	-2299
▁title	-2300
ails	-2301
lect	-2302
▁mil	-2303
▁film	-2304
▁recei	-2305
where	-2306
▁worse	-2307
▁evening	-2308
▁remorse	-2309
hibited	-2310
▁ste	-2311
▁doct	-2312
▁shouldnt	-2313
ides	-2314
▁gon	-2315
▁typ	-2316
▁prov	-2317
▁thanks	-2318
▁seriously	-2319
iety	-2320
▁lar	-2321
▁desire	-2322
▁visit	-2323
▁becoming	-2324
▁wall	-2325
ledge	-2326
▁finish	-2327
my	-2328
▁photos	-2329
▁hy	-2330
room	-2331
▁env	-2332
anna	-2333
▁beha	-2334
▁aware	-2335
▁hoping	-2336
▁happiness	-2337
▁ske	-2338
▁achie	-2339
▁posts	-2340
▁several	-2341
▁somewhere	-2342
▁lad	-2343
action	-2344
▁fully	-2345
▁inform	-2346
▁cy	-2347
▁cau	-2348
▁smo	-2349
▁submissive	-2350
rie	-2351
▁tears	-2352
▁answer	-2353
▁tar	-2354
▁happens	-2355
▁weepy	-2356
oted	-2357
▁mist	-2358
▁boyfriend	-2359
▁inhibited	-2360
▁motiv	-2361
▁grouchy	-2362
▁picture	-2363
iel	-2364
igned	-2365
▁build	-2366
▁turned	-2367
▁complac	-2368
ock	-2369
pend	-2370
▁exerc	-2371
▁gonna	-2372
rage	-2373
▁drink	-2374
▁surr	-2375
▁teach	-2376
▁sadness	-2377
▁surround	-2378
ingly	-2379
▁negle	-2380
▁college	-2381
▁mix	-2382
▁arms	-2383
▁fing	-2384
▁vide	-2385
uestions	-2386
▁neglect	-2387
▁stories	-2388
ptical	-2389
▁son	-2390
▁guilt	-2391
▁doubtful	-2392
ama	-2393
▁ra	-2394
cer	-2395
▁feet	-2396
▁party	-2397
▁blogging	-2398
▁race	-2399
▁ability	-2400
▁ended	-2401
ination	-2402
uit	-2403
▁cho	-2404
▁daily	-2405
▁develop	-2406
▁complacent	-2407
▁number	-2408
▁cele	-2409
▁attempt	-2410
▁distr	-2411
over	-2412
▁skeptical	-2413
els	-2414
resh	-2415
▁draw	-2416
▁four	-2417
▁glamorous	-2418
▁earth	-2419
▁playing	-2420
▁readers	-2421
▁company	-2422
▁fur	-2423
▁lim	-2424
▁boun	-2425
▁compassionate	-2426
lish	-2427
▁send	-2428
▁blood	-2429
▁wrote	-2430
▁white	-2431
hood	-2432
▁bey	-2433
▁assa	-2434
▁lord	-2435
▁letting	-2436
uss	-2437
ding	-2438
▁huge	-2439
▁lots	-2440
unk	-2441
▁cult	-2442
▁wife	-2443
▁loc	-2444
▁organ	-2445
▁spr	-2446
▁favor	-2447
▁worked	-2448
▁business	-2449
ants	-2450
▁extra	-2451
▁beyond	-2452
▁haven	-2453
▁ideas	-2454
▁liter	-2455
ibility	-2456
rib	-2457
▁rad	-2458
▁door	-2459
▁weak	-2460
▁allowed	-2461
ots	-2462
uiet	-2463
▁lol	-2464
▁tem	-2465
▁stun	-2466
▁reality	-2467
▁hostile	-2468
▁wondering	-2469
ric	-2470
▁depress	-2471
fit	-2472
▁fan	-2473
▁img	-2474
▁office	-2475
▁cap	-2476
▁deserve	-2477
▁opin	-2478
▁purp	-2479
elling	-2480
▁concer	-2481
iod	-2482
▁facebook	-2483
▁breath	-2484
▁dinner	-2485
▁target	-2486
ror	-2487
▁stre	-2488
▁across	-2489
ience	-2490
▁meant	-2491
medi	-2492
▁bal	-2493
▁celebr	-2494
▁period	-2495
▁utterly	-2496
ym	-2497
ars	-2498
▁maj	-2499
▁check	-2500
▁heartless	-2501
▁la	-2502
ries	-2503
ivity	-2504
▁helping	-2505
ational	-2506
▁victimized	-2507
▁forever	-2508
▁journey	-2509
▁eye	-2510
▁flo	-2511
ists	-2512
ogra	-2513
▁kick	-2514
▁create	-2515
▁text	-2516
▁sister	-2517
▁meeting	-2518
▁missing	-2519
▁remorseful	-2520
man	-2521
ural	-2522
▁push	-2523
▁auth	-2524
▁cond	-2525
▁knows	-2526
▁takes	-2527
▁immedi	-2528
▁assaulted	-2529
▁appreciate	-2530
▁awes	-2531
▁idiotic	-2532
▁whats	-2533
ction	-2534
ats	-2535
oss	-2536
unt	-2537
▁usual	-2538
▁grace	-2539
▁protect	-2540
fer	-2541
▁occas	-2542
▁negative	-2543
▁spending	-2544
aced	-2545
▁pan	-2546
▁feed	-2547
▁posting	-2548
nal	-2549
▁cent	-2550
▁ment	-2551
▁progress	-2552
▁information	-2553
▁anim	-2554
▁arent	-2555
▁stren	-2556
▁stuck	-2557
▁wanna	-2558
▁ground	-2559
▁sil	-2560
itten	-2561
▁issue	-2562
▁events	-2563
▁bag	-2564
iny	-2565
icking	-2566
▁connection	-2567
stem	-2568
▁non	-2569
▁sal	-2570
▁serv	-2571
▁gives	-2572
▁weather	-2573
▁experiences	-2574
▁bott	-2575
▁eleg	-2576
▁stunned	-2577
▁tech	-2578
▁major	-2579
acious	-2580
▁alive	-2581
gin	-2582
▁anxiety	-2583
verse	-2584
uz	-2585
work	-2586
▁grad	-2587
▁sarc	-2588
to	-2589
ogn	-2590
▁ahead	-2591
▁daughter	-2592
▁distraught	-2593
▁aff	-2594
▁throw	-2595
▁yourself	-2596
▁characters	-2597
▁obvious	-2598
▁sharing	-2599
▁apolog	-2600
▁strength	-2601
▁places	-2602
▁regard	-2603
▁slowly	-2604
▁keeping	-2605
▁happening	-2606
▁soft	-2607
▁system	-2608
▁playful	-2609
bo	-2610
land	-2611
▁cam	-2612
▁bored	-2613
▁society	-2614
▁above	-2615
▁enjoyed	-2616
▁complete	-2617
▁describe	-2618
ued	-2619
▁er	-2620
▁foot	-2621
▁jump	-2622
▁teen	-2623
▁position	-2624
▁includ	-2625
▁elegant	-2626
▁hateful	-2627
▁noticed	-2628
▁badly	-2629
uality	-2630
▁carry	-2631
▁offer	-2632
▁appear	-2633
ets	-2634
▁betr	-2635
▁kiss	-2636
▁fairly	-2637
cle	-2638
▁obs	-2639
acing	-2640
▁nature	-2641
▁die	-2642
izing	-2643
▁catch	-2644
▁odd	-2645
▁review	-2646
▁possibly	-2647
▁confidence	-2648
▁cop	-2649
▁crap	-2650
▁awesome	-2651
ges	-2652
▁mir	-2653
▁roll	-2654
▁sleeping	-2655
▁legs	-2656
▁seemed	-2657
▁gracious	-2658
▁dead	-2659
▁shamed	-2660
▁sociable	-2661
▁desper	-2662
▁online	-2663
▁var	-2664
▁drive	-2665
▁mod	-2666
▁unf	-2667
▁hung	-2668
▁proper	-2669
▁struggle	-2670
▁friendship	-2671
▁hug	-2672
▁heav	-2673
▁enjoying	-2674
▁perform	-2675
▁earl	-2676
ially	-2677
▁poor	-2678
▁bitch	-2679
▁recogn	-2680
▁strang	-2681
▁road	-2682
▁choice	-2683
▁haha	-2684
▁known	-2685
▁blamed	-2686
ule	-2687
▁den	-2688
▁laz	-2689
ouble	-2690
▁middle	-2691
▁simple	-2692
▁holiday	-2693
▁link	-2694
▁rele	-2695
▁mouth	-2696
▁wouldn	-2697
▁stopped	-2698
illy	-2699
▁imm	-2700
▁incre	-2701
▁brother	-2702
▁career	-2703
▁commun	-2704
▁dreams	-2705
▁five	-2706
▁entertained	-2707
▁land	-2708
▁rain	-2709
▁leaves	-2710
▁secret	-2711
gram	-2712
ther	-2713
iding	-2714
▁devoted	-2715
ale	-2716
ilar	-2717
time	-2718
▁lie	-2719
anted	-2720
▁cook	-2721
▁educ	-2722
▁birthday	-2723
▁gig	-2724
▁notice	-2725
ilities	-2726
uin	-2727
rove	-2728
▁spo	-2729
▁dan	-2730
▁minute	-2731
▁sarcastic	-2732
▁color	-2733
▁purpose	-2734
▁written	-2735
▁memories	-2736
▁upt	-2737
▁helped	-2738
▁pregnant	-2739
▁training	-2740
▁currently	-2741
spect	-2742
xious	-2743
▁whom	-2744
onment	-2745
ushing	-2746
▁unless	-2747
▁charming	-2748
itter	-2749
▁caught	-2750
▁situations	-2751
▁necess	-2752
▁straight	-2753
▁truthful	-2754
ume	-2755
ield	-2756
▁obno	-2757
▁jolly	-2758
▁obnoxious	-2759
▁earlier	-2760
▁reflect	-2761
▁aud	-2762
ature	-2763
▁area	-2764
▁port	-2765
▁envir	-2766
▁comput	-2767
▁ep	-2768
▁vers	-2769
▁among	-2770
bers	-2771
▁nur	-2772
ified	-2773
wards	-2774
ograph	-2775
▁program	-2776
arily	-2777
▁path	-2778
▁beauty	-2779
▁managed	-2780
▁ball	-2781
▁camp	-2782
▁uptight	-2783
▁coffe	-2784
▁travel	-2785
▁calling	-2786
▁mer	-2787
▁video	-2788
co	-2789
▁chest	-2790
▁affectionate	-2791
▁lively	-2792
▁difference	-2793
▁artic	-2794
▁behavi	-2795
▁growing	-2796
ows	-2797
▁immediately	-2798
ton	-2799
▁hist	-2800
▁techn	-2801
▁itself	-2802
▁brought	-2803
ancy	-2804
▁agg	-2805
▁paper	-2806
▁pat	-2807
▁boys	-2808
▁bouncy	-2809
▁falling	-2810
▁subject	-2811
▁knowledge	-2812
▁town	-2813
gg	-2814
aint	-2815
▁jes	-2816
vated	-2817
▁scre	-2818
▁afterno	-2819
▁broken	-2820
▁coffee	-2821
▁letter	-2822
▁failure	-2823
▁expected	-2824
ips	-2825
▁lang	-2826
▁smell	-2827
▁card	-2828
ivid	-2829
▁handle	-2830
▁computer	-2831
▁outraged	-2832
itted	-2833
▁dest	-2834
ns	-2835
▁disl	-2836
▁spot	-2837
▁regular	-2838
▁results	-2839
▁occasion	-2840
▁direction	-2841
inking	-2842
▁works	-2843
▁previous	-2844
▁terribly	-2845
cis	-2846
uil	-2847
▁stick	-2848
▁arg	-2849
▁band	-2850
▁tv	-2851
▁belong	-2852
▁mentally	-2853
▁ye	-2854
▁tas	-2855
▁aggra	-2856
▁watched	-2857
▁environment	-2858
▁box	-2859
▁hide	-2860
▁track	-2861
▁winter	-2862
▁furious	-2863
▁physical	-2864
▁ver	-2865
others	-2866
▁exercise	-2867
▁shop	-2868
ruct	-2869
▁tad	-2870
▁reci	-2871
▁smil	-2872
▁encou	-2873
▁contact	-2874
▁received	-2875
▁stronger	-2876
▁overwhelming	-2877
▁stri	-2878
▁sounds	-2879
▁attract	-2880
▁afternoon	-2881
▁isn	-2882
▁fresh	-2883
▁doctor	-2884
▁internet	-2885
▁page	-2886
▁dance	-2887
▁search	-2888
▁approach	-2889
▁upd	-2890
▁freed	-2891
▁design	-2892
▁posted	-2893
▁relationships	-2894
acy	-2895
iant	-2896
▁fix	-2897
▁bought	-2898
▁friday	-2899
▁changes	-2900
▁meaning	-2901
ik	-2902
▁repl	-2903
▁langu	-2904
ency	-2905
eth	-2906
ift	-2907
ode	-2908
ential	-2909
▁attack	-2910
▁contrib	-2911
▁helps	-2912
▁nearly	-2913
▁sunday	-2914
▁practice	-2915
andom	-2916
going	-2917
ining	-2918
▁series	-2919
▁resigned	-2920
▁lab	-2921
▁songs	-2922
itive	-2923
▁lazy	-2924
▁stage	-2925
▁passed	-2926
▁aggravated	-2927
▁throughout	-2928
▁morose	-2929
▁experienced	-2930
▁rout	-2931
und	-2932
ives	-2933
acking	-2934
▁lunch	-2935
▁ori	-2936
▁older	-2937
▁train	-2938
▁normally	-2939
ery	-2940
▁onto	-2941
▁ride	-2942
▁adult	-2943
▁taste	-2944
▁whine	-2945
▁freedom	-2946
▁student	-2947
▁flow	-2948
▁urge	-2949
▁jesus	-2950
▁talked	-2951
▁interesting	-2952
▁mass	-2953
▁blogs	-2954
▁ridic	-2955
▁changed	-2956
▁girlfriend	-2957
▁struggling	-2958
dy	-2959
▁manage	-2960
▁literally	-2961
▁profession	-2962
ony	-2963
▁lik	-2964
▁sem	-2965
▁univers	-2966
▁favorite	-2967
▁depression	-2968
▁study	-2969
▁sorrow	-2970
▁considerate	-2971
▁date	-2972
▁shows	-2973
osp	-2974
▁pack	-2975
▁polit	-2976
▁suck	-2977
▁actions	-2978
▁pen	-2979
iving	-2980
▁cover	-2981
▁entir	-2982
▁mentioned	-2983
▁suggest	-2984
▁betrayed	-2985
▁challenge	-2986
ously	-2987
▁himself	-2988
▁teacher	-2989
▁vicious	-2990
▁entirely	-2991
▁members	-2992
▁ten	-2993
▁pregnancy	-2994
▁shake	-2995
bing	-2996
ians	-2997
▁law	-2998
▁filled	-2999
▁collect	-3000
▁perfectly	-3001
▁understanding	-3002
▁gut	-3003
atisf	-3004
▁further	-3005
▁une	-3006
▁satur	-3007
▁became	-3008
▁hosp	-3009
▁round	-3010
▁discuss	-3011
▁rock	-3012
▁large	-3013
▁pieces	-3014
rief	-3015
▁alar	-3016
▁culture	-3017
▁hopefully	-3018
alled	-3019
▁term	-3020
▁parts	-3021
▁store	-3022
▁table	-3023
▁aspect	-3024
▁goal	-3025
ication	-3026
▁standing	-3027
aim	-3028
▁cat	-3029
▁est	-3030
▁role	-3031
▁email	-3032
▁shall	-3033
riage	-3034
▁died	-3035
▁neur	-3036
ises	-3037
▁glass	-3038
une	-3039
▁agree	-3040
▁individ	-3041
▁sett	-3042
▁respond	-3043
ho	-3044
▁mum	-3045
▁bull	-3046
▁attend	-3047
▁passion	-3048
ify	-3049
ased	-3050
▁vac	-3051
▁prin	-3052
ashion	-3053
▁silly	-3054
▁tight	-3055
lo	-3056
aked	-3057
▁shoes	-3058
▁teaching	-3059
▁rese	-3060
▁slut	-3061
▁willing	-3062
ution	-3063
▁energ	-3064
▁overall	-3065
ru	-3066
wise	-3067
▁bath	-3068
▁forgive	-3069
▁service	-3070
▁repressed	-3071
ulf	-3072
ison	-3073
▁aut	-3074
▁crit	-3075
▁lady	-3076
▁repe	-3077
ability	-3078
▁admired	-3079
▁goo	-3080
▁excit	-3081
▁ending	-3082
▁fashion	-3083
▁message	-3084
▁hospital	-3085
▁sched	-3086
▁gt	-3087
▁blue	-3088
▁grat	-3089
▁photo	-3090
onse	-3091
ploy	-3092
sych	-3093
▁gym	-3094
▁sooo	-3095
▁star	-3096
▁likely	-3097
▁monday	-3098
▁choices	-3099
▁eventually	-3100
▁cos	-3101
▁holding	-3102
▁workout	-3103
▁unable	-3104
▁driving	-3105
▁english	-3106
▁hearing	-3107
▁involved	-3108
▁lived	-3109
▁relig	-3110
▁obviously	-3111
▁neglectful	-3112
▁pretend	-3113
▁ridiculous	-3114
ina	-3115
light	-3116
▁thro	-3117
▁fault	-3118
▁headach	-3119
▁handsome	-3120
ems	-3121
ains	-3122
▁drop	-3123
▁force	-3124
athy	-3125
▁dig	-3126
▁speci	-3127
▁decide	-3128
▁scream	-3129
▁attitude	-3130
▁accomplish	-3131
ology	-3132
iction	-3133
▁plans	-3134
▁psych	-3135
▁enraged	-3136
▁shopping	-3137
ocol	-3138
▁indecis	-3139
▁interested	-3140
▁random	-3141
▁trouble	-3142
▁drinking	-3143
ler	-3144
▁overly	-3145
▁whiney	-3146
lex	-3147
▁dear	-3148
▁cross	-3149
▁bright	-3150
▁staying	-3151
▁individual	-3152
▁ris	-3153
ument	-3154
▁ease	-3155
▁saturday	-3156
▁therefore	-3157
▁based	-3158
▁elect	-3159
▁barely	-3160
▁married	-3161
▁neck	-3162
▁timid	-3163
▁treas	-3164
▁nights	-3165
▁response	-3166
llow	-3167
▁cup	-3168
▁hab	-3169
▁unk	-3170
▁capt	-3171
▁cust	-3172
▁inspir	-3173
▁history	-3174
▁conscious	-3175
▁pound	-3176
▁action	-3177
▁indecisive	-3178
▁mill	-3179
▁ident	-3180
▁react	-3181
▁satisf	-3182
▁similar	-3183
▁outgoing	-3184
par	-3185
leep	-3186
vert	-3187
▁basically	-3188
ball	-3189
enty	-3190
▁local	-3191
▁author	-3192
▁created	-3193
▁wedding	-3194
▁excitement	-3195
▁yeah	-3196
▁spite	-3197
▁record	-3198
▁street	-3199
uce	-3200
▁hea	-3201
▁size	-3202
▁loves	-3203
▁compet	-3204
▁natural	-3205
▁following	-3206
vest	-3207
▁ord	-3208
▁games	-3209
aching	-3210
▁hungry	-3211
▁anywhere	-3212
▁held	-3213
▁wast	-3214
rop	-3215
▁final	-3216
▁asleep	-3217
▁achieve	-3218
▁clearly	-3219
▁marriage	-3220
▁deb	-3221
▁esc	-3222
▁camer	-3223
▁moved	-3224
▁ess	-3225
▁bree	-3226
▁bother	-3227
▁patient	-3228
▁embr	-3229
▁total	-3230
▁fearless	-3231
▁deg	-3232
▁fly	-3233
▁fire	-3234
▁heat	-3235
▁lips	-3236
▁note	-3237
▁goals	-3238
▁shame	-3239
▁und	-3240
▁heavy	-3241
▁chocol	-3242
▁somebody	-3243
ett	-3244
▁ble	-3245
▁image	-3246
▁easier	-3247
▁neurotic	-3248
▁university	-3249
▁wra	-3250
▁clim	-3251
▁tiny	-3252
▁paint	-3253
▁otherwise	-3254
just	-3255
▁comb	-3256
ceed	-3257
▁green	-3258
▁mental	-3259
▁nobody	-3260
▁pained	-3261
▁sta	-3262
▁plus	-3263
▁topic	-3264
▁custom	-3265
▁peoples	-3266
▁fulf	-3267
rod	-3268
▁je	-3269
▁crow	-3270
▁allowing	-3271
▁language	-3272
▁decisions	-3273
ese	-3274
aster	-3275
▁chose	-3276
▁mater	-3277
▁ul	-3278
mber	-3279
▁fans	-3280
▁none	-3281
▁value	-3282
▁graceful	-3283
▁research	-3284
ighb	-3285
tern	-3286
▁batt	-3287
▁skills	-3288
▁spring	-3289
ior	-3290
▁cost	-3291
▁fell	-3292
▁neighb	-3293
▁classes	-3294
▁american	-3295
▁photograph	-3296
▁responsibility	-3297
now	-3298
▁bike	-3299
▁cand	-3300
▁gard	-3301
▁terms	-3302
▁heaven	-3303
▁treated	-3304
ai	-3305
por	-3306
▁mov	-3307
ching	-3308
▁shut	-3309
▁field	-3310
▁match	-3311
urs	-3312
▁rub	-3313
▁hers	-3314
▁circum	-3315
▁slutty	-3316
▁projects	-3317
▁enth	-3318
▁hurts	-3319
▁drug	-3320
▁prefer	-3321
▁twitter	-3322
asy	-3323
comm	-3324
ening	-3325
▁diet	-3326
▁sore	-3327
▁bunch	-3328
▁gover	-3329
▁movies	-3330
▁journal	-3331
lict	-3332
▁lif	-3333
▁ache	-3334
▁miles	-3335
▁artist	-3336
airs	-3337
▁fol	-3338
▁ran	-3339
▁epis	-3340
▁loud	-3341
▁floor	-3342
▁media	-3343
▁shirt	-3344
▁sorts	-3345
▁giggly	-3346
▁height	-3347
▁closer	-3348
▁confess	-3349
▁gratitude	-3350
▁interview	-3351
▁rev	-3352
▁sky	-3353
▁ther	-3354
iver	-3355
▁alb	-3356
▁rar	-3357
▁edge	-3358
▁novel	-3359
▁circumst	-3360
uff	-3361
▁ben	-3362
apped	-3363
▁sand	-3364
▁awake	-3365
▁compared	-3366
▁chocolate	-3367
▁afterwards	-3368
▁mr	-3369
▁sel	-3370
▁yog	-3371
▁pity	-3372
▁worst	-3373
▁colour	-3374
▁fellow	-3375
▁highly	-3376
▁fingers	-3377
▁sour	-3378
▁thus	-3379
ization	-3380
▁partner	-3381
▁considering	-3382
▁boo	-3383
▁coo	-3384
▁hadnt	-3385
▁advice	-3386
▁shower	-3387
▁waking	-3388
▁increas	-3389
ator	-3390
▁judge	-3391
▁balance	-3392
▁fulfill	-3393
▁showing	-3394
iff	-3395
▁cycle	-3396
▁shoot	-3397
▁belief	-3398
▁rarely	-3399
▁opinion	-3400
dom	-3401
▁mag	-3402
back	-3403
▁vag	-3404
gered	-3405
▁gods	-3406
▁origin	-3407
▁window	-3408
▁dealing	-3409
▁joh	-3410
idays	-3411
▁depend	-3412
ugh	-3413
▁mas	-3414
iliar	-3415
▁save	-3416
▁brand	-3417
▁purch	-3418
▁govern	-3419
▁played	-3420
▁improve	-3421
▁speaking	-3422
hh	-3423
▁site	-3424
onic	-3425
▁shared	-3426
▁products	-3427
▁dut	-3428
▁chat	-3429
▁dism	-3430
▁fort	-3431
atively	-3432
▁breeze	-3433
▁genuin	-3434
▁recomm	-3435
▁writer	-3436
▁creating	-3437
aa	-3438
ta	-3439
▁ice	-3440
▁outfit	-3441
▁changing	-3442
ky	-3443
inct	-3444
▁wash	-3445
▁sweat	-3446
▁third	-3447
▁version	-3448
▁experiencing	-3449
aging	-3450
▁invest	-3451
▁purs	-3452
▁efforts	-3453
▁planning	-3454
▁genuinely	-3455
▁potential	-3456
overed	-3457
▁audience	-3458
▁ine	-3459
▁cried	-3460
▁mixed	-3461
▁harder	-3462
▁hardly	-3463
▁ignore	-3464
▁strangely	-3465
uel	-3466
▁ack	-3467
▁crowd	-3468
▁grown	-3469
▁corner	-3470
▁recommend	-3471
fl	-3472
▁dun	-3473
▁sci	-3474
▁ult	-3475
▁mile	-3476
▁tran	-3477
ipping	-3478
▁inner	-3479
▁mirror	-3480
▁aband	-3481
▁keeps	-3482
▁particip	-3483
▁rob	-3484
▁sav	-3485
▁tea	-3486
▁born	-3487
▁lets	-3488
▁kitch	-3489
▁scene	-3490
▁employ	-3491
▁thinks	-3492
▁hurting	-3493
thy	-3494
rupt	-3495
▁ate	-3496
▁vol	-3497
▁warmth	-3498
▁encourage	-3499
▁six	-3500
▁flaw	-3501
▁pride	-3502
▁member	-3503
▁account	-3504
▁building	-3505
▁accomplished	-3506
ob	-3507
▁vent	-3508
▁chick	-3509
▁tough	-3510
▁acknow	-3511
▁buying	-3512
▁kitchen	-3513
▁snow	-3514
▁constant	-3515
▁shot	-3516
▁recall	-3517
▁report	-3518
▁effects	-3519
▁receive	-3520
▁painting	-3521
▁appreciated	-3522
min	-3523
gers	-3524
▁bud	-3525
ilies	-3526
urity	-3527
▁sugar	-3528
▁picked	-3529
▁recent	-3530
▁relief	-3531
▁apparent	-3532
giving	-3533
inge	-3534
▁gar	-3535
▁defect	-3536
▁holidays	-3537
▁arm	-3538
▁grab	-3539
▁album	-3540
cl	-3541
▁lift	-3542
ground	-3543
▁blame	-3544
▁memory	-3545
▁education	-3546
here	-3547
▁activ	-3548
▁commit	-3549
▁families	-3550
▁childhood	-3551
▁ju	-3552
osen	-3553
▁nap	-3554
▁club	-3555
▁meal	-3556
▁weve	-3557
▁remain	-3558
▁complain	-3559
aly	-3560
uing	-3561
wing	-3562
▁mal	-3563
▁grew	-3564
▁span	-3565
▁offic	-3566
▁turning	-3567
▁surrounded	-3568
een	-3569
ope	-3570
ipped	-3571
▁lying	-3572
▁sport	-3573
▁throat	-3574
▁reached	-3575
▁shouldn	-3576
rew	-3577
ples	-3578
ences	-3579
▁bear	-3580
▁dread	-3581
▁everybody	-3582
ley	-3583
ched	-3584
entr	-3585
ship	-3586
▁scr	-3587
▁separ	-3588
▁waste	-3589
▁forced	-3590
▁behavior	-3591
▁dry	-3592
▁fal	-3593
▁till	-3594
▁slept	-3595
▁hey	-3596
▁stat	-3597
▁tells	-3598
▁actual	-3599
▁camera	-3600
▁herself	-3601
▁promise	-3602
▁provide	-3603
oms	-3604
▁pm	-3605
fast	-3606
▁dro	-3607
iment	-3608
▁mild	-3609
▁chosen	-3610
hy	-3611
cles	-3612
▁trad	-3613
▁yoga	-3614
▁acting	-3615
▁indeed	-3616
▁alarmed	-3617
▁breathe	-3618
▁motivated	-3619
▁writ	-3620
▁consum	-3621
▁prepared	-3622
▁defective	-3623
aur	-3624
ners	-3625
▁obl	-3626
▁tool	-3627
▁claim	-3628
▁accident	-3629
▁properly	-3630
▁christian	-3631
fo	-3632
▁saf	-3633
▁sam	-3634
▁added	-3635
▁cheer	-3636
protect	-3637
▁figured	-3638
▁headache	-3639
oned	-3640
▁wit	-3641
▁wine	-3642
uently	-3643
▁shape	-3644
▁babies	-3645
▁typing	-3646
▁answers	-3647
icip	-3648
▁scen	-3649
▁couch	-3650
▁butter	-3651
▁schedule	-3652
zz	-3653
nes	-3654
vant	-3655
▁join	-3656
icated	-3657
▁finan	-3658
▁nause	-3659
▁relate	-3660
▁starts	-3661
elled	-3662
▁drag	-3663
▁init	-3664
▁images	-3665
protected	-3666
▁concentr	-3667
▁unprotected	-3668
hol	-3669
days	-3670
lend	-3671
▁jer	-3672
▁anticip	-3673
▁appoint	-3674
▁including	-3675
▁sac	-3676
▁dish	-3677
uccess	-3678
▁areas	-3679
▁folks	-3680
▁excuse	-3681
▁therap	-3682
▁various	-3683
▁teachers	-3684
ts	-3685
▁basis	-3686
▁dying	-3687
▁whose	-3688
▁stayed	-3689
▁angered	-3690
▁related	-3691
▁conflict	-3692
▁fighting	-3693
▁breakfast	-3694
▁forgotten	-3695
▁unsuccess	-3696
▁net	-3697
eness	-3698
▁arri	-3699
▁staff	-3700
▁manner	-3701
▁reminded	-3702
▁government	-3703
▁ly	-3704
▁frank	-3705
▁patter	-3706
ires	-3707
▁cared	-3708
▁twice	-3709
▁judged	-3710
▁distance	-3711
▁professional	-3712
▁hat	-3713
▁doll	-3714
▁wimp	-3715
▁exper	-3716
▁garden	-3717
▁encount	-3718
▁unsuccessful	-3719
▁park	-3720
▁perspect	-3721
▁vacation	-3722
▁energized	-3723
▁treatment	-3724
cking	-3725
▁task	-3726
▁maint	-3727
▁mount	-3728
▁oppos	-3729
▁youve	-3730
▁caused	-3731
▁client	-3732
▁opinions	-3733
▁universe	-3734
roll	-3735
uely	-3736
ision	-3737
▁pace	-3738
▁sight	-3739
▁details	-3740
▁condition	-3741
▁sensation	-3742
▁thanksgiving	-3743
▁alot	-3744
▁bird	-3745
▁dece	-3746
▁gain	-3747
▁swim	-3748
▁gifts	-3749
▁reaction	-3750
▁realised	-3751
▁sensitive	-3752
ury	-3753
▁john	-3754
▁tree	-3755
▁shift	-3756
▁stret	-3757
▁despair	-3758
▁focused	-3759
▁younger	-3760
▁studying	-3761
▁circumstances	-3762
▁cred	-3763
▁wild	-3764
ension	-3765
▁beach	-3766
▁cream	-3767
▁forgot	-3768
▁animals	-3769
▁concerned	-3770
▁connected	-3771
▁infl	-3772
▁pair	-3773
▁youll	-3774
▁radiant	-3775
▁release	-3776
▁routine	-3777
▁increasingly	-3778
ider	-3779
▁gay	-3780
▁harm	-3781
▁drunk	-3782
▁repres	-3783
▁hanging	-3784
ana	-3785
▁key	-3786
▁likes	-3787
▁prove	-3788
▁button	-3789
▁example	-3790
▁treasured	-3791
vol	-3792
iked	-3793
▁mark	-3794
▁points	-3795
▁capable	-3796
▁impress	-3797
▁signific	-3798
▁pu	-3799
▁blo	-3800
▁pin	-3801
▁swear	-3802
▁failed	-3803
▁continued	-3804
▁existence	-3805
▁frustration	-3806
rous	-3807
▁reve	-3808
itation	-3809
▁brings	-3810
▁planned	-3811
▁familiar	-3812
▁apartment	-3813
old	-3814
olve	-3815
▁board	-3816
▁breast	-3817
▁headed	-3818
▁lesson	-3819
▁arrived	-3820
▁article	-3821
▁laughing	-3822
sc	-3823
ees	-3824
▁doc	-3825
▁nut	-3826
▁wand	-3827
▁impact	-3828
▁pleasure	-3829
▁cast	-3830
▁mach	-3831
▁indul	-3832
icing	-3833
▁pump	-3834
▁belly	-3835
▁steps	-3836
▁indust	-3837
▁apologize	-3838
ium	-3839
▁hi	-3840
bered	-3841
umbled	-3842
▁cards	-3843
▁cares	-3844
▁decor	-3845
▁correct	-3846
▁disgust	-3847
ules	-3848
▁flat	-3849
▁surf	-3850
▁bottom	-3851
▁pulled	-3852
▁bringing	-3853
▁understood	-3854
▁expectations	-3855
key	-3856
wor	-3857
▁lt	-3858
ters	-3859
▁amb	-3860
▁chem	-3861
▁aside	-3862
▁advant	-3863
▁makeup	-3864
▁mission	-3865
▁perspective	-3866
ann	-3867
ended	-3868
▁false	-3869
▁recip	-3870
▁wimpy	-3871
▁common	-3872
▁degree	-3873
▁discovered	-3874
val	-3875
▁paid	-3876
▁wond	-3877
▁attach	-3878
▁finger	-3879
▁reader	-3880
▁movement	-3881
▁spiteful	-3882
▁bi	-3883
▁duty	-3884
▁stood	-3885
▁mothers	-3886
▁powerful	-3887
erv	-3888
▁ge	-3889
soci	-3890
▁block	-3891
▁depth	-3892
▁grief	-3893
▁prior	-3894
▁access	-3895
▁cancer	-3896
▁sexual	-3897
▁dismayed	-3898
▁instantly	-3899
mark	-3900
inary	-3901
mates	-3902
▁hall	-3903
itions	-3904
urally	-3905
▁guest	-3906
▁idiot	-3907
▁plain	-3908
ference	-3909
▁smooth	-3910
▁america	-3911
▁socially	-3912
▁performance	-3913
▁tag	-3914
asing	-3915
▁chap	-3916
▁burden	-3917
▁update	-3918
▁everywhere	-3919
for	-3920
▁cuz	-3921
▁flu	-3922
▁web	-3923
ption	-3924
▁core	-3925
▁screen	-3926
▁muscles	-3927
▁pushing	-3928
▁complaining	-3929
▁na	-3930
fits	-3931
ring	-3932
ront	-3933
▁whis	-3934
▁demand	-3935
▁ourselves	-3936
▁activities	-3937
▁desperately	-3938
ka	-3939
ads	-3940
▁altern	-3941
▁neither	-3942
▁mistakes	-3943
▁bill	-3944
▁jobs	-3945
▁mult	-3946
▁grade	-3947
▁favour	-3948
▁cheated	-3949
imin	-3950
ites	-3951
▁vib	-3952
▁drama	-3953
▁foods	-3954
▁freak	-3955
▁items	-3956
▁material	-3957
hile	-3958
iven	-3959
▁cro	-3960
▁unb	-3961
▁shad	-3962
▁vile	-3963
▁concept	-3964
▁embrace	-3965
▁wishing	-3966
▁independ	-3967
▁motivation	-3968
▁ultim	-3969
▁introd	-3970
▁market	-3971
▁werent	-3972
▁mistake	-3973
▁passing	-3974
▁unwanted	-3975
▁worrying	-3976
▁advantage	-3977
asp	-3978
▁len	-3979
order	-3980
▁aren	-3981
onnect	-3982
▁cloud	-3983
▁entry	-3984
▁feelin	-3985
▁imposs	-3986
▁object	-3987
▁blogger	-3988
▁writers	-3989
▁cleaning	-3990
▁opportun	-3991
▁background	-3992
▁whe	-3993
idered	-3994
▁prayer	-3995
▁consist	-3996
▁episode	-3997
▁interact	-3998
▁recognize	-3999
▁sorrowful	-4000
▁personality	-4001
cket	-4002
gery	-4003
▁gold	-4004
▁sexy	-4005
▁suffer	-4006
▁setting	-4007
▁disliked	-4008
▁adventure	-4009
port	-4010
▁hyp	-4011
▁spl	-4012
using	-4013
ensely	-4014
▁becomes	-4015
▁benevol	-4016
▁session	-4017
▁intention	-4018
▁compassion	-4019
▁rush	-4020
▁lonel	-4021
▁moder	-4022
▁opened	-4023
▁craving	-4024
▁inspiration	-4025
▁chr	-4026
aming	-4027
▁apply	-4028
▁enter	-4029
▁panic	-4030
▁temper	-4031
▁anybody	-4032
▁singing	-4033
▁function	-4034
gue	-4035
under	-4036
▁moms	-4037
coming	-4038
▁below	-4039
▁serve	-4040
▁dating	-4041
▁select	-4042
▁remembered	-4043
▁lu	-4044
ches	-4045
▁jap	-4046
phere	-4047
sides	-4048
▁mail	-4049
▁awhile	-4050
▁mainly	-4051
▁discover	-4052
▁shoulder	-4053
▁loneliness	-4054
omb	-4055
▁ou	-4056
▁bow	-4057
▁fed	-4058
style	-4059
▁bond	-4060
▁libr	-4061
▁meas	-4062
▁femin	-4063
▁sympt	-4064
▁associ	-4065
▁higher	-4066
▁paying	-4067
▁artists	-4068
▁illness	-4069
▁realise	-4070
▁annoying	-4071
▁industry	-4072
▁semester	-4073
▁spiritual	-4074
▁considered	-4075
▁opportunities	-4076
▁depart	-4077
▁freaking	-4078
▁relatively	-4079
▁necessarily	-4080
bl	-4081
asm	-4082
othing	-4083
▁lines	-4084
▁smiling	-4085
▁witness	-4086
▁accepting	-4087
oke	-4088
▁publ	-4089
▁occur	-4090
▁pounds	-4091
▁courage	-4092
▁benevolent	-4093
▁conversations	-4094
ival	-4095
▁lip	-4096
▁twe	-4097
ropri	-4098
▁thor	-4099
▁influ	-4100
▁opening	-4101
▁restaur	-4102
▁surprise	-4103
▁teenager	-4104
str	-4105
uced	-4106
zing	-4107
▁van	-4108
▁pred	-4109
▁fears	-4110
▁medic	-4111
▁oddly	-4112
▁gained	-4113
▁lessons	-4114
▁surgery	-4115
▁sne	-4116
▁trem	-4117
▁whil	-4118
▁calls	-4119
▁turns	-4120
▁suspect	-4121
▁expecting	-4122
ato	-4123
ocr	-4124
▁ya	-4125
▁cow	-4126
▁jew	-4127
▁lud	-4128
▁nic	-4129
▁sea	-4130
▁surv	-4131
▁youth	-4132
▁splend	-4133
▁desperate	-4134
cohol	-4135
▁jack	-4136
▁japan	-4137
▁google	-4138
▁plenty	-4139
▁alcohol	-4140
ibilities	-4141
▁returned	-4142
▁breathing	-4143
mn	-4144
amb	-4145
den	-4146
▁prim	-4147
▁zone	-4148
▁creep	-4149
▁kinds	-4150
▁oblig	-4151
▁trick	-4152
▁bottle	-4153
▁intense	-4154
▁specific	-4155
iest	-4156
▁alt	-4157
▁bank	-4158
▁oper	-4159
▁wood	-4160
▁displ	-4161
▁ludic	-4162
▁price	-4163
▁teeth	-4164
▁needing	-4165
▁welcome	-4166
▁incredible	-4167
vey	-4168
▁cher	-4169
▁chair	-4170
▁gotta	-4171
▁contem	-4172
▁whilst	-4173
▁exciting	-4174
agn	-4175
pet	-4176
ease	-4177
▁dar	-4178
▁pal	-4179
▁hole	-4180
oughly	-4181
▁habit	-4182
▁hasnt	-4183
osphere	-4184
▁hearts	-4185
▁marath	-4186
▁matters	-4187
▁picking	-4188
▁contract	-4189
▁prospect	-4190
ipp	-4191
cent	-4192
▁fac	-4193
▁magic	-4194
▁ought	-4195
▁spark	-4196
▁everytime	-4197
▁ludicrous	-4198
▁surprising	-4199
▁occasionally	-4200
de	-4201
ummy	-4202
▁desk	-4203
▁scri	-4204
rified	-4205
▁concl	-4206
▁pages	-4207
▁include	-4208
▁lighter	-4209
▁majority	-4210
▁political	-4211
▁satisfaction	-4212
eem	-4213
ilt	-4214
idge	-4215
▁pra	-4216
▁wid	-4217
▁dram	-4218
▁risk	-4219
▁webs	-4220
▁drawing	-4221
▁breaking	-4222
▁blessings	-4223
▁impossible	-4224
▁atm	-4225
▁los	-4226
▁suic	-4227
▁avail	-4228
▁speed	-4229
▁battle	-4230
▁deeper	-4231
▁cooking	-4232
▁painful	-4233
▁succeed	-4234
▁horribly	-4235
▁included	-4236
rics	-4237
▁hund	-4238
▁king	-4239
▁lies	-4240
▁hopes	-4241
▁reply	-4242
▁thurs	-4243
▁animal	-4244
▁closed	-4245
▁aspects	-4246
▁besides	-4247
▁appalled	-4248
▁original	-4249
▁necessary	-4250
usi	-4251
uary	-4252
uses	-4253
▁fro	-4254
▁chee	-4255
▁ends	-4256
▁sell	-4257
▁sole	-4258
▁afford	-4259
▁hundred	-4260
▁bathroom	-4261
▁rap	-4262
▁wis	-4263
▁storm	-4264
▁tempt	-4265
▁bigger	-4266
▁detail	-4267
▁facing	-4268
▁master	-4269
▁someones	-4270
▁deli	-4271
▁unkn	-4272
▁whos	-4273
▁contr	-4274
▁exams	-4275
▁switch	-4276
▁happier	-4277
load	-4278
▁dat	-4279
anced	-4280
▁fema	-4281
▁discus	-4282
▁pushed	-4283
▁source	-4284
▁frankly	-4285
▁prevent	-4286
▁vaguely	-4287
▁differently	-4288
ince	-4289
▁worn	-4290
▁pants	-4291
▁applic	-4292
▁female	-4293
▁wasted	-4294
▁address	-4295
▁dancing	-4296
▁doctors	-4297
▁followed	-4298
▁religion	-4299
▁splendid	-4300
▁celebrate	-4301
▁regardless	-4302
▁appointment	-4303
ndry	-4304
▁bod	-4305
▁led	-4306
▁abuse	-4307
▁escape	-4308
▁mildly	-4309
▁option	-4310
▁praying	-4311
▁humorous	-4312
▁naturally	-4313
▁petrified	-4314
▁regarding	-4315
▁blah	-4316
▁tues	-4317
▁valid	-4318
attered	-4319
▁faster	-4320
▁secure	-4321
entially	-4322
▁contribut	-4323
▁lifestyle	-4324
ndon	-4325
▁ban	-4326
▁bug	-4327
▁jub	-4328
▁mur	-4329
▁anti	-4330
▁pill	-4331
▁ring	-4332
▁seek	-4333
▁bound	-4334
▁circle	-4335
▁growth	-4336
▁sisters	-4337
▁marathon	-4338
vered	-4339
▁liber	-4340
▁spread	-4341
▁sending	-4342
▁apparently	-4343
▁expression	-4344
▁hub	-4345
umble	-4346
▁dogs	-4347
▁mich	-4348
▁pink	-4349
▁rant	-4350
▁unex	-4351
▁faces	-4352
▁forth	-4353
▁wound	-4354
▁dressed	-4355
▁explore	-4356
▁opposite	-4357
▁explained	-4358
▁cha	-4359
icket	-4360
overy	-4361
ulate	-4362
▁nose	-4363
▁sake	-4364
▁brown	-4365
▁solid	-4366
▁walls	-4367
itional	-4368
▁wednes	-4369
▁achieved	-4370
▁abilities	-4371
▁mi	-4372
iling	-4373
▁fish	-4374
▁laid	-4375
▁wise	-4376
▁flash	-4377
▁jeans	-4378
ulation	-4379
▁critic	-4380
▁tongue	-4381
▁dislike	-4382
▁healing	-4383
▁laundry	-4384
▁million	-4385
▁pulling	-4386
▁classroom	-4387
iled	-4388
▁gun	-4389
▁adop	-4390
▁blow	-4391
▁clar	-4392
▁cock	-4393
▁econ	-4394
▁feat	-4395
▁shar	-4396
▁loose	-4397
▁assign	-4398
▁destro	-4399
▁benefit	-4400
▁stranger	-4401
▁available	-4402
oof	-4403
▁vo	-4404
▁base	-4405
▁angel	-4406
▁skirt	-4407
▁views	-4408
▁regularly	-4409
▁bash	-4410
▁craft	-4411
▁naked	-4412
▁rules	-4413
▁resist	-4414
▁president	-4415
▁expressing	-4416
▁possibility	-4417
▁disappointment	-4418
▁gaz	-4419
board	-4420
shine	-4421
▁evil	-4422
▁font	-4423
▁tone	-4424
▁print	-4425
▁causing	-4426
▁colleag	-4427
▁bookmark	-4428
▁responsible	-4429
mon	-4430
▁mut	-4431
▁ling	-4432
▁rage	-4433
▁assum	-4434
▁levels	-4435
▁resour	-4436
▁touched	-4437
▁tuesday	-4438
▁carrying	-4439
▁thursday	-4440
asty	-4441
▁coz	-4442
▁inj	-4443
ilant	-4444
▁horm	-4445
▁lean	-4446
▁suit	-4447
▁crack	-4448
▁extent	-4449
▁london	-4450
▁safety	-4451
▁status	-4452
▁silence	-4453
▁staring	-4454
▁overcome	-4455
▁security	-4456
▁wednesday	-4457
▁collection	-4458
▁san	-4459
eling	-4460
▁hero	-4461
▁bones	-4462
▁adding	-4463
▁credit	-4464
▁script	-4465
aneously	-4466
▁enthusi	-4467
▁receiving	-4468
▁struggled	-4469
ram	-4470
omin	-4471
▁log	-4472
aries	-4473
▁emer	-4474
▁fund	-4475
▁itll	-4476
▁joke	-4477
▁seat	-4478
urance	-4479
▁dunno	-4480
▁refer	-4481
▁length	-4482
▁worthy	-4483
▁bloggers	-4484
▁symptoms	-4485
▁acknowledge	-4486
ech	-4487
oon	-4488
son	-4489
ube	-4490
adem	-4491
aper	-4492
▁wet	-4493
▁ward	-4494
incere	-4495
▁names	-4496
▁causes	-4497
▁groups	-4498
▁ladies	-4499
▁player	-4500
▁remark	-4501
▁settle	-4502
▁helpful	-4503
▁sunshine	-4504
▁sympathy	-4505
▁insincere	-4506
▁cud	-4507
▁sen	-4508
night	-4509
▁mour	-4510
▁plot	-4511
▁spin	-4512
▁tour	-4513
▁magaz	-4514
▁reveal	-4515
▁showed	-4516
▁vision	-4517
▁prepare	-4518
▁messages	-4519
ey	-4520
ases	-4521
▁cake	-4522
▁hunt	-4523
▁male	-4524
▁slip	-4525
apping	-4526
▁fever	-4527
▁sacri	-4528
▁academ	-4529
▁colors	-4530
▁maintain	-4531
any	-4532
izz	-4533
follow	-4534
▁cough	-4535
▁ignor	-4536
▁lower	-4537
▁obser	-4538
▁assume	-4539
▁taught	-4540
▁shoulders	-4541
▁strangers	-4542
▁challenges	-4543
con	-4544
▁sty	-4545
▁pure	-4546
▁burst	-4547
▁listened	-4548
▁nofollow	-4549
▁represent	-4550
uk	-4551
ugg	-4552
▁om	-4553
mate	-4554
▁ded	-4555
▁pit	-4556
apers	-4557
ousand	-4558
underst	-4559
▁planet	-4560
▁recipe	-4561
▁thousand	-4562
ted	-4563
olic	-4564
rest	-4565
▁eur	-4566
▁ing	-4567
▁lil	-4568
▁vir	-4569
ulated	-4570
verage	-4571
▁radio	-4572
▁shout	-4573
iveness	-4574
▁fortun	-4575
▁ol	-4576
▁burn	-4577
▁click	-4578
▁minor	-4579
▁stare	-4580
▁heading	-4581
▁invited	-4582
▁december	-4583
▁throwing	-4584
▁thoroughly	-4585
▁dw	-4586
▁egg	-4587
▁jan	-4588
istry	-4589
▁dare	-4590
▁sadd	-4591
▁guard	-4592
▁hiding	-4593
▁repeat	-4594
▁riding	-4595
▁homework	-4596
▁neighbor	-4597
▁screaming	-4598
▁technology	-4599
ien	-4600
▁ber	-4601
▁bum	-4602
▁owe	-4603
▁hadn	-4604
▁poet	-4605
▁begun	-4606
▁chill	-4607
▁restr	-4608
▁flying	-4609
▁refuse	-4610
▁volunt	-4611
▁leading	-4612
▁unknown	-4613
▁darkness	-4614
▁statement	-4615
▁gh	-4616
elie	-4617
▁ages	-4618
ration	-4619
▁hoped	-4620
▁announ	-4621
▁beside	-4622
▁killed	-4623
▁beating	-4624
▁trapped	-4625
▁patience	-4626
▁disconnect	-4627
nding	-4628
▁lect	-4629
▁conse	-4630
▁eight	-4631
▁perce	-4632
▁trail	-4633
▁compar	-4634
▁liking	-4635
▁jubilant	-4636
oop	-4637
▁aim	-4638
▁bub	-4639
▁via	-4640
▁butt	-4641
▁frag	-4642
▁wide	-4643
▁disag	-4644
▁nails	-4645
▁phase	-4646
▁spoke	-4647
▁stars	-4648
▁assist	-4649
▁esteem	-4650
▁humans	-4651
▁states	-4652
▁machine	-4653
▁incident	-4654
▁atmosphere	-4655
bal	-4656
▁cit	-4657
icted	-4658
▁runs	-4659
▁sucks	-4660
▁justice	-4661
▁favourite	-4662
▁creativity	-4663
ral	-4664
ares	-4665
ateg	-4666
▁phil	-4667
▁south	-4668
▁tasks	-4669
▁solemn	-4670
▁covered	-4671
▁activity	-4672
▁confront	-4673
▁flawless	-4674
▁realizing	-4675
▁combination	-4676
▁surprisingly	-4677
do	-4678
uir	-4679
▁fi	-4680
▁cous	-4681
▁dign	-4682
▁ears	-4683
▁excl	-4684
▁fren	-4685
▁sold	-4686
▁wrap	-4687
▁dropped	-4688
▁embarrass	-4689
▁exception	-4690
aps	-4691
uote	-4692
▁dav	-4693
▁meat	-4694
▁blind	-4695
▁drove	-4696
▁drugs	-4697
▁impro	-4698
▁meals	-4699
▁uncle	-4700
▁weigh	-4701
▁center	-4702
▁flight	-4703
▁burning	-4704
▁charmed	-4705
▁offered	-4706
▁players	-4707
▁reviews	-4708
▁ultimately	-4709
ox	-4710
nam	-4711
▁cris	-4712
▁scary	-4713
▁section	-4714
▁contempl	-4715
▁mornings	-4716
▁wondered	-4717
▁abandoned	-4718
▁appearance	-4719
▁math	-4720
▁pour	-4721
ashing	-4722
▁rough	-4723
▁scale	-4724
▁disres	-4725
▁goodby	-4726
▁intent	-4727
▁partly	-4728
▁flowers	-4729
▁granted	-4730
▁options	-4731
▁admitted	-4732
▁committed	-4733
▁finishing	-4734
bur	-4735
▁wave	-4736
▁bread	-4737
▁raise	-4738
ception	-4739
▁decent	-4740
▁unfair	-4741
▁chapter	-4742
▁website	-4743
▁solution	-4744
ada	-4745
mer	-4746
▁du	-4747
▁mat	-4748
▁phr	-4749
▁agre	-4750
▁deny	-4751
▁nove	-4752
▁sigh	-4753
lessly	-4754
▁obsess	-4755
▁police	-4756
▁speech	-4757
▁library	-4758
▁nowhere	-4759
▁distinct	-4760
▁misunderst	-4761
▁restaurant	-4762
esh	-4763
ssed	-4764
▁lin	-4765
▁wow	-4766
▁boss	-4767
▁pool	-4768
▁bliss	-4769
▁films	-4770
▁fruit	-4771
▁intel	-4772
▁twist	-4773
▁discom	-4774
▁insight	-4775
▁station	-4776
▁november	-4777
▁affection	-4778
▁contribute	-4779
▁friendships	-4780
▁ridiculously	-4781
cks	-4782
▁ba	-4783
▁gri	-4784
▁oil	-4785
▁ups	-4786
eared	-4787
icient	-4788
▁gradu	-4789
▁hence	-4790
▁shell	-4791
▁bashful	-4792
▁brothers	-4793
▁directly	-4794
▁medication	-4795
▁transition	-4796
ds	-4797
uls	-4798
▁mart	-4799
▁torn	-4800
advant	-4801
▁moody	-4802
▁noise	-4803
▁trend	-4804
▁adjust	-4805
▁simult	-4806
▁parties	-4807
▁medicine	-4808
▁disadvant	-4809
▁remembering	-4810
▁unfortunately	-4811
▁ath	-4812
▁jac	-4813
▁pow	-4814
▁raw	-4815
sters	-4816
▁cell	-4817
▁empt	-4818
▁grey	-4819
▁meth	-4820
▁brief	-4821
▁hyper	-4822
▁reward	-4823
▁clients	-4824
▁compare	-4825
▁disease	-4826
▁medical	-4827
▁reminds	-4828
▁seconds	-4829
▁argument	-4830
▁football	-4831
▁discussion	-4832
dra	-4833
▁nd	-4834
▁cin	-4835
▁cart	-4836
▁data	-4837
▁tack	-4838
▁chann	-4839
▁loser	-4840
▁chicken	-4841
▁greater	-4842
▁therapy	-4843
▁clothing	-4844
▁customer	-4845
▁religious	-4846
▁development	-4847
fy	-4848
pret	-4849
▁tun	-4850
▁brit	-4851
▁holy	-4852
▁trav	-4853
athers	-4854
▁autom	-4855
▁gross	-4856
▁transl	-4857
▁unkind	-4858
ropriate	-4859
▁greatly	-4860
▁document	-4861
▁intellect	-4862
ids	-4863
reg	-4864
ron	-4865
pper	-4866
ators	-4867
▁appl	-4868
▁bits	-4869
▁cath	-4870
▁craw	-4871
▁hill	-4872
▁tall	-4873
atives	-4874
▁award	-4875
▁hotel	-4876
▁smoke	-4877
▁active	-4878
▁bedroom	-4879
▁believed	-4880
▁purchase	-4881
▁admitting	-4882
▁believing	-4883
▁individuals	-4884
▁ah	-4885
▁jun	-4886
▁blan	-4887
▁firm	-4888
▁moon	-4889
▁rare	-4890
▁tele	-4891
▁mommy	-4892
▁habits	-4893
▁import	-4894
▁laying	-4895
▁lyrics	-4896
▁modern	-4897
▁savage	-4898
▁sleepy	-4899
▁tension	-4900
▁financial	-4901
▁simultaneously	-4902
af	-4903
cr	-4904
▁dy	-4905
▁aunt	-4906
▁knee	-4907
▁shed	-4908
▁lover	-4909
▁somed	-4910
▁theyve	-4911
atically	-4912
▁limited	-4913
▁surface	-4914
▁concentrate	-4915
uine	-4916
▁pag	-4917
▁unm	-4918
▁copy	-4919
▁tick	-4920
▁unre	-4921
▁user	-4922
▁empow	-4923
▁heels	-4924
▁trees	-4925
▁allows	-4926
▁cheese	-4927
▁grandm	-4928
▁lights	-4929
▁thrown	-4930
▁entered	-4931
▁volunte	-4932
▁washing	-4933
▁startled	-4934
▁department	-4935
beat	-4936
▁fle	-4937
▁ish	-4938
▁nail	-4939
▁unus	-4940
inging	-4941
▁brush	-4942
▁faced	-4943
▁subst	-4944
▁prince	-4945
▁complex	-4946
▁concern	-4947
▁leaders	-4948
▁prayers	-4949
▁anticipation	-4950
ec	-4951
acle	-4952
ived	-4953
▁bat	-4954
▁dust	-4955
▁apple	-4956
▁disci	-4957
▁north	-4958
▁steal	-4959
▁fabric	-4960
▁hatred	-4961
▁learnt	-4962
interest	-4963
▁biggest	-4964
▁destroy	-4965
▁filling	-4966
▁reaching	-4967
ii	-4968
▁eth	-4969
▁nag	-4970
▁voc	-4971
▁rely	-4972
▁eaten	-4973
▁leads	-4974
essions	-4975
▁admire	-4976
▁gather	-4977
▁hahaha	-4978
▁average	-4979
▁awfully	-4980
▁beliefs	-4981
▁developed	-4982
▁unexpected	-4983
▁communication	-4984
ov	-4985
ades	-4986
oles	-4987
▁arr	-4988
ables	-4989
▁beer	-4990
▁inev	-4991
▁prot	-4992
▁scar	-4993
▁goods	-4994
▁limit	-4995
▁former	-4996
▁myster	-4997
▁encoura	-4998
▁goodbye	-4999
▁disadvantaged	-5000
oooo	-5001
ptop	-5002
▁mac	-5003
oting	-5004
▁aint	-5005
▁jerk	-5006
▁perm	-5007
▁citiz	-5008
▁skill	-5009
▁method	-5010
▁multip	-5011
▁surely	-5012
▁twenty	-5013
▁capture	-5014
▁pattern	-5015
▁produce	-5016
▁romance	-5017
▁streets	-5018
▁wasting	-5019
▁withdra	-5020
▁choosing	-5021
▁feedback	-5022
▁goodness	-5023
▁offering	-5024
down	-5025
reci	-5026
wood	-5027
▁hed	-5028
gment	-5029
▁bare	-5030
▁bout	-5031
▁rise	-5032
▁scra	-5033
▁snap	-5034
▁cheap	-5035
▁diagn	-5036
▁notes	-5037
▁waves	-5038
▁engage	-5039
▁ticket	-5040
▁topics	-5041
▁wisdom	-5042
▁concert	-5043
▁genuine	-5044
▁parenting	-5045
▁discomfort	-5046
ara	-5047
irm	-5048
uire	-5049
▁oce	-5050
▁rej	-5051
ashed	-5052
▁vill	-5053
ivated	-5054
▁james	-5055
▁labor	-5056
▁nasty	-5057
▁range	-5058
▁extreme	-5059
▁private	-5060
▁refresh	-5061
▁workers	-5062
▁instruct	-5063
▁national	-5064
▁sexually	-5065
▁everyones	-5066
ext	-5067
ker	-5068
rum	-5069
▁ms	-5070
▁ego	-5071
▁max	-5072
▁skip	-5073
ocking	-5074
▁screw	-5075
▁shown	-5076
▁stead	-5077
▁talks	-5078
▁toler	-5079
▁hellip	-5080
▁laptop	-5081
▁poetry	-5082
▁videos	-5083
▁science	-5084
▁completed	-5085
cies	-5086
itor	-5087
iring	-5088
▁bite	-5089
▁bump	-5090
▁caut	-5091
▁coun	-5092
▁flav	-5093
▁court	-5094
vention	-5095
▁rights	-5096
▁sports	-5097
▁exhaust	-5098
▁profound	-5099
▁challenged	-5100
▁significant	-5101
rom	-5102
▁june	-5103
▁mode	-5104
▁tast	-5105
▁vote	-5106
▁pains	-5107
▁yours	-5108
▁merely	-5109
▁studio	-5110
▁behaviour	-5111
▁previously	-5112
jud	-5113
▁ham	-5114
▁disp	-5115
▁tips	-5116
▁model	-5117
▁raised	-5118
▁checked	-5119
▁fiction	-5120
▁happily	-5121
▁someday	-5122
▁deserves	-5123
▁identity	-5124
▁jealousy	-5125
▁recovery	-5126
▁sometime	-5127
ga	-5128
aud	-5129
ham	-5130
▁ow	-5131
ials	-5132
▁emo	-5133
▁hid	-5134
ading	-5135
atest	-5136
eding	-5137
▁dump	-5138
▁milk	-5139
▁vibe	-5140
▁desig	-5141
▁unwor	-5142
▁emails	-5143
▁horror	-5144
▁latest	-5145
▁nation	-5146
▁talent	-5147
▁amongst	-5148
▁blanket	-5149
▁upcoming	-5150
▁attractive	-5151
▁importance	-5152
▁hun	-5153
inese	-5154
▁basic	-5155
▁crush	-5156
▁spect	-5157
▁unapp	-5158
▁arrive	-5159
▁pocket	-5160
onscious	-5161
▁aggress	-5162
▁counter	-5163
▁laughed	-5164
▁letters	-5165
▁recipes	-5166
▁stepped	-5167
▁worries	-5168
▁awareness	-5169
▁encounter	-5170
▁participate	-5171
egr	-5172
▁ry	-5173
alog	-5174
cast	-5175
char	-5176
▁ped	-5177
uietly	-5178
▁david	-5179
▁frame	-5180
▁humor	-5181
▁knees	-5182
▁peers	-5183
▁portr	-5184
▁techni	-5185
▁chinese	-5186
▁humbled	-5187
▁measure	-5188
▁survive	-5189
▁greatest	-5190
▁mountain	-5191
▁violence	-5192
▁expressed	-5193
▁searching	-5194
▁seemingly	-5195
▁generation	-5196
▁application	-5197
zzy	-5198
▁bru	-5199
▁oct	-5200
▁shr	-5201
wered	-5202
▁fate	-5203
▁item	-5204
▁pics	-5205
▁pile	-5206
▁puts	-5207
rences	-5208
vision	-5209
▁delet	-5210
▁elses	-5211
▁moist	-5212
▁signs	-5213
▁theat	-5214
▁hating	-5215
▁element	-5216
▁exposed	-5217
▁dramatic	-5218
▁perverse	-5219
▁promised	-5220
▁saddened	-5221
▁sentence	-5222
zed	-5223
ella	-5224
pered	-5225
▁boat	-5226
▁cope	-5227
▁narr	-5228
iously	-5229
▁adopt	-5230
▁clock	-5231
▁sharp	-5232
▁suffe	-5233
olution	-5234
▁beings	-5235
▁europe	-5236
▁wishes	-5237
▁lacking	-5238
▁recover	-5239
▁focusing	-5240
▁presents	-5241
▁colleagues	-5242
osis	-5243
chool	-5244
▁angu	-5245
▁canc	-5246
▁cash	-5247
▁kore	-5248
▁sept	-5249
▁trau	-5250
▁bible	-5251
▁hubby	-5252
▁beneath	-5253
▁outcome	-5254
▁studies	-5255
▁worship	-5256
▁emptiness	-5257
▁returning	-5258
▁acceptance	-5259
bby	-5260
elly	-5261
▁pad	-5262
▁row	-5263
▁tax	-5264
▁todd	-5265
▁wore	-5266
▁brill	-5267
▁categ	-5268
▁guide	-5269
▁horse	-5270
▁nurse	-5271
▁ocean	-5272
▁adults	-5273
▁double	-5274
▁pursue	-5275
▁tempor	-5276
▁alright	-5277
▁failing	-5278
▁hitting	-5279
▁settled	-5280
▁sinking	-5281
▁attached	-5282
▁blessing	-5283
▁dreaming	-5284
▁construct	-5285
▁fulfilled	-5286
▁powerless	-5287
mar	-5288
▁ip	-5289
▁uk	-5290
away	-5291
ulty	-5292
▁cab	-5293
aints	-5294
▁bowl	-5295
▁ende	-5296
▁grie	-5297
orable	-5298
▁minim	-5299
▁obama	-5300
▁seven	-5301
▁damage	-5302
▁defend	-5303
▁excell	-5304
▁theyll	-5305
▁unsett	-5306
ological	-5307
▁anytime	-5308
▁profess	-5309
▁affected	-5310
▁comparison	-5311
▁positively	-5312
▁communicate	-5313
▁spiritually	-5314
zen	-5315
▁mc	-5316
look	-5317
▁bon	-5318
▁kat	-5319
ister	-5320
uired	-5321
▁godd	-5322
▁stir	-5323
▁manip	-5324
▁sales	-5325
▁threw	-5326
▁veget	-5327
▁width	-5328
▁explan	-5329
▁infuri	-5330
▁smiles	-5331
▁waited	-5332
▁hearted	-5333
▁moronic	-5334
▁numbers	-5335
▁suicide	-5336
▁imagined	-5337
▁instinct	-5338
▁visiting	-5339
▁attracted	-5340
▁fortunate	-5341
▁supported	-5342
▁grandmother	-5343
▁independent	-5344
cil	-5345
▁ven	-5346
arian	-5347
▁iron	-5348
▁mask	-5349
▁coach	-5350
▁enthr	-5351
▁https	-5352
▁irate	-5353
▁plate	-5354
▁campus	-5355
▁dishes	-5356
▁fallen	-5357
▁grocer	-5358
▁sewing	-5359
▁sincer	-5360
▁chances	-5361
▁cutting	-5362
▁magazine	-5363
▁reminder	-5364
▁weakness	-5365
▁expensive	-5366
nds	-5367
umn	-5368
▁awe	-5369
ament	-5370
osity	-5371
▁enem	-5372
▁rate	-5373
▁analy	-5374
▁india	-5375
▁plane	-5376
▁wheel	-5377
▁desires	-5378
▁smoking	-5379
▁attacked	-5380
▁repeated	-5381
rs	-5382
izes	-5383
otes	-5384
uded	-5385
▁fuz	-5386
▁mob	-5387
▁vom	-5388
aying	-5389
lings	-5390
▁bang	-5391
▁junk	-5392
▁piss	-5393
▁built	-5394
▁champ	-5395
▁invol	-5396
▁midst	-5397
▁snack	-5398
▁endeav	-5399
▁muscle	-5400
▁saving	-5401
▁benefits	-5402
▁pleasantly	-5403
ero	-5404
rit	-5405
udge	-5406
▁bun	-5407
▁rac	-5408
▁corn	-5409
▁rose	-5410
▁shel	-5411
▁toes	-5412
▁unne	-5413
▁yout	-5414
ements	-5415
▁heres	-5416
▁theme	-5417
▁tweet	-5418
▁advert	-5419
▁bodies	-5420
▁charge	-5421
▁nerves	-5422
▁panick	-5423
▁kicking	-5424
▁answered	-5425
▁avoiding	-5426
▁checking	-5427
▁customers	-5428
▁struggles	-5429
▁enthralled	-5430
▁pretending	-5431
▁neighborhood	-5432
▁organization	-5433
yy	-5434
mit	-5435
oll	-5436
onal	-5437
owed	-5438
▁gee	-5439
▁tex	-5440
▁tow	-5441
ender	-5442
erior	-5443
ucing	-5444
▁demon	-5445
▁mourn	-5446
▁surre	-5447
▁tools	-5448
▁daught	-5449
▁island	-5450
otivated	-5451
reciated	-5452
▁colours	-5453
▁feeding	-5454
▁tempted	-5455
ification	-5456
▁patients	-5457
▁unworthy	-5458
▁rejection	-5459
▁commitment	-5460
▁conclusion	-5461
▁experiment	-5462
fa	-5463
gia	-5464
▁ny	-5465
▁civ	-5466
▁cyn	-5467
▁sau	-5468
fting	-5469
▁decl	-5470
▁exch	-5471
▁germ	-5472
▁magn	-5473
▁meds	-5474
▁outs	-5475
▁ruin	-5476
▁sees	-5477
inting	-5478
▁awoke	-5479
▁china	-5480
▁cruel	-5481
▁drawn	-5482
▁fatig	-5483
▁convey	-5484
▁distant	-5485
▁flowing	-5486
▁glamour	-5487
▁glasses	-5488
▁replied	-5489
▁schools	-5490
▁disagree	-5491
▁multiple	-5492
▁disappear	-5493
▁television	-5494
sty	-5495
hole	-5496
udes	-5497
▁aug	-5498
▁cru	-5499
▁woe	-5500
bbing	-5501
▁acts	-5502
▁brow	-5503
▁curl	-5504
▁drow	-5505
▁heck	-5506
▁mama	-5507
▁stro	-5508
▁tang	-5509
▁unin	-5510
▁bills	-5511
▁kicks	-5512
▁thick	-5513
▁commer	-5514
▁gently	-5515
▁grandp	-5516
▁phrase	-5517
▁fitness	-5518
▁killing	-5519
▁convince	-5520
▁continues	-5521
▁daughters	-5522
▁infuriated	-5523
kin	-5524
vere	-5525
ember	-5526
▁sale	-5527
▁vibr	-5528
▁youd	-5529
soever	-5530
▁crave	-5531
▁soooo	-5532
fically	-5533
▁scenes	-5534
▁election	-5535
▁grounded	-5536
▁swimming	-5537
▁foundation	-5538
▁impression	-5539
ari	-5540
eds	-5541
▁ens	-5542
adays	-5543
cript	-5544
▁hous	-5545
▁mall	-5546
▁newb	-5547
▁york	-5548
ustral	-5549
▁incom	-5550
▁sides	-5551
▁candid	-5552
▁kicked	-5553
▁leader	-5554
▁papers	-5555
▁prejud	-5556
▁prompt	-5557
▁austral	-5558
▁carried	-5559
▁serving	-5560
▁nowadays	-5561
▁empowered	-5562
▁interests	-5563
▁interrupt	-5564
▁traveling	-5565
▁meaningful	-5566
▁whatsoever	-5567
▁challenging	-5568
uee	-5569
▁jen	-5570
▁lap	-5571
▁tug	-5572
usive	-5573
▁clin	-5574
▁farm	-5575
▁gear	-5576
▁hook	-5577
▁lung	-5578
▁nurt	-5579
▁paul	-5580
▁adore	-5581
▁candy	-5582
▁chris	-5583
▁crime	-5584
▁giant	-5585
▁grasp	-5586
▁greet	-5587
▁polic	-5588
▁accord	-5589
▁insane	-5590
▁perman	-5591
▁shorts	-5592
▁absence	-5593
▁context	-5594
▁foreign	-5595
▁hardest	-5596
▁persons	-5597
▁publish	-5598
▁tremend	-5599
▁unbelie	-5600
▁articles	-5601
▁destruct	-5602
▁financially	-5603
ups	-5604
rain	-5605
▁ele	-5606
▁sus	-5607
otion	-5608
uaint	-5609
▁clut	-5610
▁melt	-5611
▁pale	-5612
▁plat	-5613
▁disor	-5614
▁hello	-5615
▁marry	-5616
▁souls	-5617
▁hallow	-5618
▁racing	-5619
▁silent	-5620
▁struct	-5621
▁amorous	-5622
▁rushing	-5623
▁wrapped	-5624
▁addition	-5625
▁princess	-5626
▁suffered	-5627
▁neglected	-5628
▁refreshed	-5629
▁photography	-5630
alf	-5631
ops	-5632
rep	-5633
ril	-5634
▁um	-5635
uits	-5636
▁jam	-5637
▁alex	-5638
▁bast	-5639
▁guid	-5640
▁hint	-5641
▁harsh	-5642
▁river	-5643
▁sneak	-5644
▁appeal	-5645
▁french	-5646
▁punish	-5647
▁anyways	-5648
▁discipl	-5649
▁engaged	-5650
▁explode	-5651
▁nursing	-5652
▁smaller	-5653
▁feminine	-5654
▁kindness	-5655
▁secretly	-5656
▁dignified	-5657
▁september	-5658
▁disgusting	-5659
▁accomplishment	-5660
ped	-5661
rees	-5662
ucks	-5663
▁org	-5664
▁pee	-5665
▁soo	-5666
acity	-5667
itate	-5668
▁arch	-5669
▁mini	-5670
▁nick	-5671
▁sink	-5672
▁void	-5673
iments	-5674
▁ghost	-5675
▁hunger	-5676
▁openly	-5677
▁sucked	-5678
▁indulge	-5679
▁monster	-5680
▁seeking	-5681
▁youtube	-5682
▁identify	-5683
▁touching	-5684
▁amazingly	-5685
▁brilliant	-5686
▁conference	-5687
▁conflicted	-5688
▁disconnected	-5689
ba	-5690
wal	-5691
ueen	-5692
▁fog	-5693
▁envy	-5694
▁fold	-5695
▁lied	-5696
▁west	-5697
uments	-5698
▁march	-5699
▁minds	-5700
▁puppy	-5701
▁shock	-5702
▁tummy	-5703
▁integr	-5704
▁windows	-5705
▁despised	-5706
▁humanity	-5707
▁ignoring	-5708
▁ordinary	-5709
▁reactions	-5710
▁encouraging	-5711
▁importantly	-5712
▁surroundings	-5713
ica	-5714
reh	-5715
agon	-5716
uart	-5717
wich	-5718
▁ppl	-5719
▁ram	-5720
stick	-5721
▁asks	-5722
▁conv	-5723
▁honor	-5724
▁insan	-5725
▁saved	-5726
▁solve	-5727
▁sorta	-5728
▁border	-5729
▁scient	-5730
▁careful	-5731
▁empathy	-5732
▁endless	-5733
▁trusted	-5734
▁heavenly	-5735
▁described	-5736
▁competition	-5737
ini	-5738
▁jul	-5739
▁mud	-5740
▁pig	-5741
▁reh	-5742
▁ren	-5743
▁ros	-5744
bling	-5745
▁mike	-5746
▁afric	-5747
▁daddy	-5748
▁incap	-5749
▁micha	-5750
▁plant	-5751
▁types	-5752
igorous	-5753
▁misery	-5754
▁orange	-5755
▁placed	-5756
▁sooner	-5757
▁todays	-5758
▁uneasy	-5759
▁worlds	-5760
▁cookies	-5761
▁england	-5762
▁january	-5763
▁increase	-5764
▁judgment	-5765
▁relaxing	-5766
▁standard	-5767
▁stepping	-5768
▁treating	-5769
▁acknowled	-5770
▁excellent	-5771
▁published	-5772
▁explaining	-5773
▁practically	-5774
▁appreciation	-5775
gl	-5776
ado	-5777
che	-5778
eps	-5779
shit	-5780
▁hip	-5781
▁tip	-5782
▁bags	-5783
▁prem	-5784
▁antsy	-5785
▁estab	-5786
▁fuzzy	-5787
▁jokes	-5788
▁moves	-5789
itating	-5790
▁august	-5791
▁behalf	-5792
▁joined	-5793
▁visual	-5794
▁voices	-5795
▁closest	-5796
▁fantasy	-5797
▁massive	-5798
▁scratch	-5799
▁spirits	-5800
▁whoever	-5801
▁noticing	-5802
▁politics	-5803
▁inability	-5804
▁intensely	-5805
▁interpret	-5806
▁typically	-5807
▁classmates	-5808
▁compliment	-5809
dr	-5810
arn	-5811
asc	-5812
azz	-5813
ipe	-5814
rog	-5815
amps	-5816
hold	-5817
odes	-5818
osop	-5819
uent	-5820
phone	-5821
▁pizz	-5822
▁vint	-5823
▁fancy	-5824
▁shots	-5825
▁tooth	-5826
▁weren	-5827
▁basket	-5828
▁closet	-5829
▁driven	-5830
▁praise	-5831
▁periods	-5832
▁concerns	-5833
▁philosop	-5834
▁tendency	-5835
▁followers	-5836
▁immensely	-5837
▁influence	-5838
▁reminding	-5839
▁attempting	-5840
▁commercial	-5841
anda	-5842
uled	-5843
atory	-5844
olute	-5845
▁matt	-5846
▁ness	-5847
▁nine	-5848
▁trig	-5849
stairs	-5850
▁birds	-5851
▁dizzy	-5852
▁juice	-5853
urities	-5854
▁polish	-5855
▁authors	-5856
▁fathers	-5857
▁honesty	-5858
▁nagging	-5859
▁shaking	-5860
▁vintage	-5861
▁whisper	-5862
▁winning	-5863
▁laughter	-5864
▁unfriend	-5865
▁halloween	-5866
▁despairing	-5867
▁developing	-5868
▁approaching	-5869
ams	-5870
ums	-5871
▁ru	-5872
imes	-5873
▁kar	-5874
▁lbs	-5875
ormed	-5876
▁blur	-5877
▁buzz	-5878
▁lake	-5879
ternal	-5880
▁broad	-5881
▁doors	-5882
▁exhib	-5883
▁holly	-5884
▁paget	-5885
▁simpl	-5886
▁stone	-5887
▁toile	-5888
▁walks	-5889
▁handed	-5890
▁minded	-5891
▁airport	-5892
▁heavily	-5893
▁opposed	-5894
▁stretch	-5895
▁intended	-5896
▁unnecess	-5897
▁confusion	-5898
▁discussing	-5899
▁forgetting	-5900
▁celebrating	-5901
▁potentially	-5902
▁understands	-5903
▁wonderfully	-5904
▁misunderstood	-5905
▁unappreciated	-5906
▁ce	-5907
bish	-5908
▁lux	-5909
aping	-5910
etime	-5911
itary	-5912
ivers	-5913
▁bold	-5914
▁poem	-5915
▁tune	-5916
▁climb	-5917
▁intro	-5918
▁route	-5919
▁scept	-5920
mission	-5921
▁hidden	-5922
▁stream	-5923
▁dresses	-5924
▁outfits	-5925
▁creature	-5926
▁japanese	-5927
▁sandwich	-5928
▁assignment	-5929
▁encouraged	-5930
▁exercising	-5931
▁intelligence	-5932
isc	-5933
▁px	-5934
aunt	-5935
▁exh	-5936
▁mic	-5937
▁tut	-5938
ordin	-5939
▁gest	-5940
▁load	-5941
▁lock	-5942
▁pang	-5943
▁rule	-5944
▁subt	-5945
▁yell	-5946
uences	-5947
▁campa	-5948
▁drank	-5949
▁grass	-5950
▁ideal	-5951
▁breaks	-5952
▁crisis	-5953
▁engine	-5954
▁invite	-5955
▁asshole	-5956
▁inferior	-5957
▁unbeliev	-5958
▁weekends	-5959
▁pagetitle	-5960
▁imagination	-5961
▁unmotivated	-5962
▁specifically	-5963
mo	-5964
box	-5965
xic	-5966
▁iv	-5967
▁pil	-5968
▁pul	-5969
althy	-5970
arant	-5971
▁clue	-5972
▁grin	-5973
▁isra	-5974
▁july	-5975
▁accur	-5976
▁domin	-5977
▁harry	-5978
▁pizza	-5979
▁reads	-5980
▁shine	-5981
▁sites	-5982
▁tries	-5983
▁expand	-5984
▁wished	-5985
▁warning	-5986
▁dressing	-5987
▁services	-5988
▁sessions	-5989
▁highlight	-5990
▁occasions	-5991
▁responses	-5992
▁unsettled	-5993
▁resentment	-5994
afe	-5995
lin	-5996
oty	-5997
tte	-5998
▁si	-5999
ober	-6000
rier	-6001
▁bri	-6002
▁der	-6003
▁nav	-6004
▁rib	-6005
▁sib	-6006
▁chic	-6007
▁coat	-6008
▁guit	-6009
▁subs	-6010
▁unhe	-6011
▁admin	-6012
▁balls	-6013
▁cling	-6014
▁heads	-6015
▁holds	-6016
▁races	-6017
▁shade	-6018
▁survi	-6019
▁swall	-6020
▁trade	-6021
▁gender	-6022
▁intens	-6023
▁potato	-6024
▁values	-6025
▁british	-6026
▁channel	-6027
▁display	-6028
▁grocery	-6029
▁jumping	-6030
▁manager	-6031
▁whereas	-6032
▁internal	-6033
▁nauseous	-6034
▁separate	-6035
▁shooting	-6036
▁carefully	-6037
▁judgement	-6038
▁intentions	-6039
▁obligation	-6040
da	-6041
ours	-6042
ware	-6043
▁cig	-6044
▁tid	-6045
arded	-6046
xture	-6047
▁cudd	-6048
▁gaze	-6049
▁soup	-6050
▁boots	-6051
▁chaos	-6052
▁dealt	-6053
▁finds	-6054
▁flesh	-6055
▁flick	-6056
▁knock	-6057
▁marks	-6058
▁punch	-6059
▁safer	-6060
▁sheer	-6061
▁spare	-6062
▁stamp	-6063
▁thigh	-6064
▁tread	-6065
umbling	-6066
▁agreed	-6067
▁insist	-6068
▁suffoc	-6069
▁comparing	-6070
▁preparing	-6071
▁resources	-6072
▁sceptical	-6073
▁unfriendly	-6074
▁complicated	-6075
▁realization	-6076
▁insecurities	-6077
▁fb	-6078
ping	-6079
▁wip	-6080
ached	-6081
▁code	-6082
▁dick	-6083
▁dose	-6084
▁east	-6085
▁sets	-6086
▁sons	-6087
▁zero	-6088
▁lungs	-6089
▁spell	-6090
▁trips	-6091
▁bloody	-6092
▁infect	-6093
▁intend	-6094
▁jacket	-6095
▁robbed	-6096
▁abandon	-6097
▁bloated	-6098
▁fragile	-6099
▁october	-6100
▁regards	-6101
▁rubbish	-6102
▁absolute	-6103
▁bullshit	-6104
▁dropping	-6105
▁extended	-6106
▁hormones	-6107
▁mournful	-6108
▁addiction	-6109
▁providing	-6110
▁glamourous	-6111
▁explanation	-6112
▁contractions	-6113
lim	-6114
uer	-6115
▁eve	-6116
▁jim	-6117
▁syn	-6118
▁tit	-6119
▁earn	-6120
▁gall	-6121
▁yard	-6122
lement	-6123
▁boost	-6124
▁invis	-6125
▁scent	-6126
▁seren	-6127
▁instit	-6128
▁israel	-6129
▁nausea	-6130
▁terror	-6131
▁appears	-6132
▁guarant	-6133
▁theatre	-6134
▁typical	-6135
▁patterns	-6136
▁provided	-6137
▁troubles	-6138
▁associated	-6139
▁travelling	-6140
▁interaction	-6141
ya	-6142
ius	-6143
riv	-6144
uzz	-6145
▁bc	-6146
▁dre	-6147
▁wat	-6148
▁cars	-6149
▁soph	-6150
▁trim	-6151
▁verb	-6152
▁acted	-6153
▁loads	-6154
▁cheeks	-6155
▁drinks	-6156
▁flower	-6157
▁insign	-6158
▁larger	-6159
▁motion	-6160
▁offers	-6161
▁charity	-6162
▁conserv	-6163
▁deliver	-6164
▁entries	-6165
▁selling	-6166
▁centered	-6167
▁countries	-6168
▁presented	-6169
ino	-6170
put	-6171
abor	-6172
blog	-6173
ille	-6174
▁gas	-6175
▁gid	-6176
▁sno	-6177
ander	-6178
▁dess	-6179
▁entr	-6180
▁hits	-6181
▁sust	-6182
▁cinem	-6183
▁moral	-6184
▁verge	-6185
▁bummed	-6186
▁driver	-6187
▁grandf	-6188
▁jumped	-6189
▁couples	-6190
▁judging	-6191
▁michael	-6192
▁raising	-6193
▁variety	-6194
▁catching	-6195
▁counting	-6196
▁critical	-6197
▁evidence	-6198
▁heartbre	-6199
▁sticking	-6200
▁vigorous	-6201
▁organized	-6202
▁stressful	-6203
▁continuing	-6204
▁insignific	-6205
▁temperature	-6206
▁presentation	-6207
wr	-6208
apt	-6209
men	-6210
osh	-6211
▁cd	-6212
anta	-6213
list	-6214
ussy	-6215
▁fer	-6216
ifest	-6217
▁bomb	-6218
▁dude	-6219
▁flor	-6220
▁nons	-6221
▁tons	-6222
ifying	-6223
illing	-6224
▁alien	-6225
▁accomp	-6226
▁excess	-6227
▁freely	-6228
▁owners	-6229
▁remove	-6230
▁stitch	-6231
▁traged	-6232
▁wardro	-6233
▁inspire	-6234
▁visited	-6235
▁announce	-6236
▁calories	-6237
▁drowning	-6238
▁guidance	-6239
▁knitting	-6240
▁lipstick	-6241
▁companies	-6242
▁depending	-6243
▁transform	-6244
▁occasional	-6245
▁frustrating	-6246
▁surrounding	-6247
cul	-6248
ague	-6249
eral	-6250
▁pant	-6251
▁ting	-6252
▁vast	-6253
▁coast	-6254
▁legit	-6255
▁occup	-6256
▁peter	-6257
▁extend	-6258
▁medium	-6259
▁perpet	-6260
▁singap	-6261
▁steady	-6262
▁sweaty	-6263
▁toilet	-6264
▁apology	-6265
▁clarity	-6266
▁profile	-6267
▁removed	-6268
▁attempts	-6269
▁lifetime	-6270
▁manifest	-6271
▁sacrific	-6272
▁consistently	-6273
erg	-6274
ils	-6275
eter	-6276
▁ast	-6277
▁gam	-6278
▁tan	-6279
ashes	-6280
▁larg	-6281
▁owner	-6282
▁pills	-6283
▁swing	-6284
▁tests	-6285
▁athlet	-6286
▁econom	-6287
▁grades	-6288
▁prayed	-6289
▁unlike	-6290
▁compreh	-6291
▁halfway	-6292
▁involve	-6293
▁portion	-6294
▁possess	-6295
▁proceed	-6296
▁campaign	-6297
▁designer	-6298
▁hundreds	-6299
▁released	-6300
▁pinterest	-6301
▁singapore	-6302
▁exhaustion	-6303
▁meditation	-6304
▁bb	-6305
aker	-6306
▁dow	-6307
▁jon	-6308
▁pic	-6309
erous	-6310
flies	-6311
gency	-6312
orter	-6313
▁arts	-6314
▁cats	-6315
▁laws	-6316
▁mere	-6317
▁mort	-6318
▁subc	-6319
weight	-6320
▁aches	-6321
▁argue	-6322
▁bands	-6323
▁incor	-6324
▁naive	-6325
▁sunny	-6326
▁tense	-6327
▁baking	-6328
▁clouds	-6329
▁endure	-6330
▁hypocr	-6331
▁outlet	-6332
▁stores	-6333
▁wander	-6334
▁promises	-6335
▁relative	-6336
▁wardrobe	-6337
▁americans	-6338
▁enjoyable	-6339
▁appropriate	-6340
▁disrespected	-6341
▁encouragement	-6342
▁exceptionally	-6343
ki	-6344
me	-6345
of	-6346
has	-6347
uis	-6348
▁aid	-6349
▁sha	-6350
icity	-6351
neath	-6352
▁adds	-6353
▁cere	-6354
▁mary	-6355
▁toss	-6356
▁absor	-6357
▁actor	-6358
▁calif	-6359
▁cases	-6360
▁cramp	-6361
▁divor	-6362
▁hurry	-6363
▁logic	-6364
▁revel	-6365
▁begins	-6366
▁cousin	-6367
▁debate	-6368
▁easter	-6369
▁famous	-6370
▁messed	-6371
▁mobile	-6372
▁senses	-6373
▁shadow	-6374
▁spoken	-6375
▁unfold	-6376
▁yellow	-6377
▁capital	-6378
▁crossed	-6379
▁dessert	-6380
▁dollars	-6381
▁initial	-6382
▁largely	-6383
▁lecture	-6384
▁mixture	-6385
▁secrets	-6386
▁stumble	-6387
▁catholic	-6388
▁wherever	-6389
uestioning	-6390
▁effective	-6391
▁privilege	-6392
▁protected	-6393
▁therapist	-6394
▁thousands	-6395
▁aggressive	-6396
▁reasonably	-6397
▁underneath	-6398
hic	-6399
▁lj	-6400
▁xd	-6401
▁ank	-6402
▁nig	-6403
ograp	-6404
▁slee	-6405
▁sarah	-6406
▁guitar	-6407
▁margin	-6408
▁prison	-6409
▁skinny	-6410
▁authent	-6411
▁musical	-6412
▁traffic	-6413
▁californ	-6414
▁cravings	-6415
▁creation	-6416
▁ministry	-6417
▁alternate	-6418
▁arguments	-6419
▁realistic	-6420
▁officially	-6421
▁production	-6422
▁automatically	-6423
▁insignificant	-6424
abb	-6425
roc	-6426
chan	-6427
inks	-6428
▁bay	-6429
▁ell	-6430
▁ken	-6431
▁pms	-6432
▁rhy	-6433
▁toy	-6434
agers	-6435
gling	-6436
▁fits	-6437
▁zomb	-6438
▁falls	-6439
▁genre	-6440
▁mercy	-6441
▁truck	-6442
▁bridge	-6443
▁histor	-6444
▁theirs	-6445
▁united	-6446
▁circles	-6447
▁justify	-6448
▁victims	-6449
▁controll	-6450
▁deserved	-6451
▁entering	-6452
▁millions	-6453
▁transfer	-6454
▁bothering	-6455
▁movements	-6456
▁nostalgia	-6457
▁suggested	-6458
▁sufficient	-6459
▁butterflies	-6460
▁uncertainty	-6461
▁international	-6462
vas	-6463
▁bf	-6464
▁dv	-6465
ette	-6466
iece	-6467
▁dee	-6468
▁pac	-6469
▁ple	-6470
▁rum	-6471
▁tap	-6472
▁ted	-6473
▁bone	-6474
▁nutr	-6475
porate	-6476
▁lifes	-6477
▁lists	-6478
▁metal	-6479
▁weary	-6480
ogether	-6481
▁betray	-6482
▁comedy	-6483
▁passes	-6484
▁classic	-6485
▁comprom	-6486
▁degrees	-6487
▁network	-6488
▁resolve	-6489
▁retreat	-6490
▁theater	-6491
▁episodes	-6492
▁floating	-6493
▁inspiring	-6494
▁invisible	-6495
▁neighbors	-6496
▁sincerely	-6497
▁enthusiasm	-6498
▁reflection	-6499
▁continually	-6500
▁eu	-6501
ales	-6502
enced	-6503
imate	-6504
inity	-6505
stone	-6506
▁abit	-6507
▁fier	-6508
▁neut	-6509
▁rent	-6510
▁alarm	-6511
▁april	-6512
▁draft	-6513
▁flaws	-6514
▁flood	-6515
▁autumn	-6516
▁forest	-6517
▁kisses	-6518
▁nicely	-6519
▁noneth	-6520
▁ponder	-6521
▁stairs	-6522
▁economy	-6523
▁excuses	-6524
▁rolling	-6525
▁spanish	-6526
▁director	-6527
▁disorder	-6528
▁meetings	-6529
▁platform	-6530
▁selected	-6531
▁initially	-6532
▁continuous	-6533
▁celebration	-6534
ache	-6535
▁gal	-6536
▁til	-6537
▁reju	-6538
▁sket	-6539
herent	-6540
▁etern	-6541
▁indian	-6542
▁princi	-6543
▁rested	-6544
▁designs	-6545
▁joining	-6546
▁massage	-6547
▁parking	-6548
▁academic	-6549
▁ignorance	-6550
▁immediate	-6551
▁intensity	-6552
▁temporary	-6553
▁comforting	-6554
▁difficulty	-6555
▁prejudiced	-6556
▁nonetheless	-6557
▁entertainment	-6558
▁possibilities	-6559
ban	-6560
ora	-6561
urt	-6562
zer	-6563
▁ak	-6564
bage	-6565
beit	-6566
pest	-6567
road	-6568
▁ari	-6569
▁lit	-6570
▁omg	-6571
illed	-6572
▁gosp	-6573
▁savi	-6574
▁thri	-6575
▁enorm	-6576
▁giddy	-6577
▁joint	-6578
▁paris	-6579
▁risks	-6580
▁salad	-6581
▁surge	-6582
osition	-6583
▁affair	-6584
▁albeit	-6585
▁smiled	-6586
▁stands	-6587
▁weekly	-6588
▁forcing	-6589
▁handful	-6590
▁teenage	-6591
▁cheerful	-6592
▁exchange	-6593
▁festival	-6594
▁disorient	-6595
▁headaches	-6596
▁mountains	-6597
▁standards	-6598
▁altogether	-6599
▁fulfilling	-6600
▁permission	-6601
ras	-6602
alys	-6603
raph	-6604
resp	-6605
▁jog	-6606
▁ltr	-6607
▁upl	-6608
eline	-6609
▁hind	-6610
▁ship	-6611
ancing	-6612
ulting	-6613
▁binge	-6614
▁boxes	-6615
▁glimp	-6616
▁glory	-6617
▁newsp	-6618
▁plays	-6619
ionship	-6620
redient	-6621
▁actors	-6622
▁exists	-6623
▁injust	-6624
▁novels	-6625
▁purpos	-6626
▁sooooo	-6627
▁accused	-6628
▁contest	-6629
▁cynical	-6630
▁enlight	-6631
▁predict	-6632
▁rejuven	-6633
▁yelling	-6634
▁informed	-6635
▁location	-6636
▁occurred	-6637
▁photograp	-6638
▁approached	-6639
▁ingredient	-6640
▁description	-6641
▁subconscious	-6642
▁successfully	-6643
jo	-6644
boy	-6645
gar	-6646
nat	-6647
▁ps	-6648
uilt	-6649
▁dim	-6650
▁kno	-6651
▁rot	-6652
space	-6653
▁budd	-6654
▁dent	-6655
▁flip	-6656
▁inch	-6657
▁reck	-6658
▁rice	-6659
uction	-6660
▁adren	-6661
▁appet	-6662
▁overt	-6663
▁stere	-6664
▁stock	-6665
ulating	-6666
▁behave	-6667
▁resort	-6668
▁roller	-6669
▁served	-6670
▁valent	-6671
▁contain	-6672
▁grandma	-6673
▁category	-6674
▁graduate	-6675
▁midnight	-6676
▁replaced	-6677
▁companion	-6678
▁incapable	-6679
▁slightest	-6680
▁california	-6681
▁compliments	-6682
▁examination	-6683
▁traditional	-6684
mp	-6685
isy	-6686
rel	-6687
▁rd	-6688
iate	-6689
idal	-6690
mare	-6691
pers	-6692
rors	-6693
agram	-6694
anged	-6695
books	-6696
point	-6697
▁glut	-6698
▁hehe	-6699
▁hugs	-6700
▁semi	-6701
▁stal	-6702
▁unst	-6703
ifting	-6704
uition	-6705
▁blast	-6706
▁dwell	-6707
▁horiz	-6708
▁links	-6709
▁outdo	-6710
▁renew	-6711
▁schem	-6712
▁woken	-6713
▁burned	-6714
▁gospel	-6715
▁refres	-6716
▁stroll	-6717
▁struck	-6718
▁uncond	-6719
▁virgin	-6720
▁worker	-6721
▁advance	-6722
▁gaining	-6723
▁primary	-6724
▁capacity	-6725
▁chatting	-6726
▁military	-6727
▁perceive	-6728
▁stopping	-6729
▁afterward	-6730
▁flattered	-6731
▁guarantee	-6732
▁healthier	-6733
▁nightmare	-6734
▁structure	-6735
▁attraction	-6736
▁depressing	-6737
▁originally	-6738
▁recognized	-6739
fty	-6740
arer	-6741
▁ade	-6742
▁esp	-6743
▁jaw	-6744
▁roy	-6745
▁wre	-6746
oming	-6747
place	-6748
▁bell	-6749
▁digg	-6750
▁eggs	-6751
▁exec	-6752
▁inex	-6753
▁pian	-6754
▁toys	-6755
▁whim	-6756
▁expos	-6757
▁label	-6758
▁moods	-6759
▁motor	-6760
▁rhyth	-6761
▁rooms	-6762
▁stiff	-6763
▁trash	-6764
▁assess	-6765
▁cookie	-6766
▁covers	-6767
▁democr	-6768
▁doubts	-6769
▁houses	-6770
▁insult	-6771
▁packed	-6772
▁polite	-6773
▁spaces	-6774
▁tackle	-6775
▁counsel	-6776
▁feature	-6777
▁miracle	-6778
▁organic	-6779
▁torture	-6780
▁venture	-6781
▁actively	-6782
▁guessing	-6783
▁priority	-6784
▁attending	-6785
▁belonging	-6786
▁defensive	-6787
▁mentioning	-6788
▁neglecting	-6789
▁thoughtful	-6790
esy	-6791
icy	-6792
ona	-6793
oul	-6794
ula	-6795
elle	-6796
elve	-6797
▁bee	-6798
▁jav	-6799
▁bust	-6800
▁dirt	-6801
▁eval	-6802
▁intr	-6803
▁plug	-6804
▁porn	-6805
▁shoe	-6806
formed	-6807
ortion	-6808
verted	-6809
▁chuck	-6810
▁conce	-6811
▁elder	-6812
▁hates	-6813
▁roles	-6814
▁slide	-6815
▁socks	-6816
▁cigare	-6817
▁injury	-6818
▁senior	-6819
▁applied	-6820
▁refused	-6821
▁village	-6822
▁wouldve	-6823
▁partners	-6824
▁roommate	-6825
▁according	-6826
▁imagining	-6827
▁practical	-6828
▁adventures	-6829
▁directions	-6830
▁discipline	-6831
▁literature	-6832
▁contentment	-6833
▁suggestions	-6834
ml	-6835
bow	-6836
ita	-6837
vis	-6838
▁ic	-6839
fice	-6840
haha	-6841
oria	-6842
uted	-6843
▁fif	-6844
acles	-6845
tered	-6846
▁brat	-6847
▁cott	-6848
▁fasc	-6849
▁funk	-6850
▁muse	-6851
▁salt	-6852
ficial	-6853
keting	-6854
▁adapt	-6855
▁chunk	-6856
▁dates	-6857
▁facts	-6858
▁jewel	-6859
▁memor	-6860
▁parag	-6861
▁wrest	-6862
rocious	-6863
▁addict	-6864
▁awaken	-6865
▁canada	-6866
▁caress	-6867
▁centre	-6868
▁income	-6869
▁juices	-6870
▁notion	-6871
▁safely	-6872
▁string	-6873
▁unjust	-6874
ualities	-6875
▁adrenal	-6876
▁attacks	-6877
▁blowing	-6878
▁magical	-6879
▁climbing	-6880
▁giveaway	-6881
▁husbands	-6882
▁immature	-6883
▁nonsense	-6884
▁rational	-6885
▁resource	-6886
▁subjects	-6887
▁tradition	-6888
▁unhealthy	-6889
▁conditions	-6890
▁unbelievably	-6891
illa	-6892
lies	-6893
▁url	-6894
iance	-6895
urist	-6896
▁achy	-6897
▁boot	-6898
▁eyel	-6899
▁gram	-6900
▁loop	-6901
▁pess	-6902
▁sofa	-6903
uarter	-6904
▁abund	-6905
▁essay	-6906
▁stops	-6907
▁attrib	-6908
▁benign	-6909
▁ensure	-6910
▁limits	-6911
▁mature	-6912
▁stable	-6913
▁zombie	-6914
▁kissing	-6915
▁plastic	-6916
▁remains	-6917
▁unusual	-6918
▁victory	-6919
▁attended	-6920
▁citizens	-6921
▁communic	-6922
▁handling	-6923
▁severely	-6924
▁workouts	-6925
▁introduce	-6926
▁pointless	-6927
▁irrational	-6928
▁profoundly	-6929
▁decorations	-6930
▁grandfather	-6931
▁improvement	-6932
aph	-6933
nel	-6934
pes	-6935
rig	-6936
uid	-6937
care	-6938
well	-6939
▁gir	-6940
▁lou	-6941
▁mig	-6942
▁por	-6943
▁tho	-6944
enses	-6945
▁atom	-6946
▁flag	-6947
▁grav	-6948
▁knit	-6949
▁lust	-6950
tering	-6951
▁crash	-6952
▁haunt	-6953
▁repub	-6954
▁reven	-6955
▁score	-6956
▁steve	-6957
▁tends	-6958
▁vegan	-6959
ativity	-6960
▁abroad	-6961
▁calmer	-6962
▁humble	-6963
▁incons	-6964
▁layers	-6965
▁mutual	-6966
▁pessim	-6967
▁purely	-6968
▁signed	-6969
▁chasing	-6970
▁deepest	-6971
▁demands	-6972
▁fatigue	-6973
▁newborn	-6974
▁ordered	-6975
▁toddler	-6976
▁baseball	-6977
▁contrast	-6978
▁disaster	-6979
▁elements	-6980
▁improved	-6981
▁sickness	-6982
▁creatures	-6983
▁demanding	-6984
▁discussed	-6985
▁reference	-6986
▁christians	-6987
▁refreshing	-6988
▁repeatedly	-6989
▁forgiveness	-6990
▁unnecessary	-6991
ae	-6992
car	-6993
sey	-6994
eous	-6995
outs	-6996
▁ira	-6997
▁nan	-6998
▁tin	-6999
iable	-7000
▁fuel	-7001
▁pier	-7002
▁tail	-7003
▁caffe	-7004
▁downs	-7005
▁drift	-7006
▁embar	-7007
▁overd	-7008
▁patch	-7009
▁sadly	-7010
▁thumb	-7011
inating	-7012
▁canvas	-7013
▁denied	-7014
▁dialog	-7015
▁emphas	-7016
▁george	-7017
▁muslim	-7018
▁smells	-7019
▁timing	-7020
▁turkey	-7021
▁avoided	-7022
▁bastard	-7023
▁shallow	-7024
▁tragedy	-7025
▁administ	-7026
▁features	-7027
▁ignorant	-7028
▁achieving	-7029
▁downright	-7030
▁justified	-7031
▁paragraph	-7032
▁sacrifice	-7033
▁attachment	-7034
▁encountered	-7035
▁overwhelmingly	-7036
ndr	-7037
amas	-7038
aped	-7039
bert	-7040
erve	-7041
jour	-7042
tens	-7043
▁jar	-7044
alink	-7045
berry	-7046
crast	-7047
eping	-7048
▁buff	-7049
▁dawn	-7050
▁debt	-7051
▁fran	-7052
▁glor	-7053
▁laun	-7054
▁resc	-7055
▁stim	-7056
▁chase	-7057
▁downt	-7058
▁piano	-7059
▁wrist	-7060
▁budget	-7061
▁cowork	-7062
▁define	-7063
▁earned	-7064
▁korean	-7065
▁locked	-7066
▁mechan	-7067
▁poorly	-7068
▁breasts	-7069
▁cleaned	-7070
▁closely	-7071
▁fortune	-7072
▁instant	-7073
▁mindset	-7074
▁replace	-7075
▁satisfy	-7076
▁designed	-7077
▁figuring	-7078
▁procrast	-7079
▁programs	-7080
▁verbally	-7081
▁diagnosis	-7082
▁exploring	-7083
▁nutrition	-7084
▁permalink	-7085
▁perfection	-7086
ca	-7087
ago	-7088
▁rat	-7089
uotes	-7090
▁glow	-7091
▁mast	-7092
▁nest	-7093
▁rein	-7094
▁ryan	-7095
▁stab	-7096
▁tank	-7097
▁yarn	-7098
▁angst	-7099
▁babys	-7100
▁chain	-7101
▁charl	-7102
▁cheek	-7103
▁chips	-7104
▁diary	-7105
▁faint	-7106
▁patri	-7107
▁teens	-7108
▁veins	-7109
isation	-7110
▁inevit	-7111
▁silver	-7112
▁uninsp	-7113
▁exhilar	-7114
▁freaked	-7115
▁seasons	-7116
▁electric	-7117
▁evenings	-7118
▁official	-7119
▁pursuing	-7120
▁relevant	-7121
▁treasure	-7122
▁apathetic	-7123
▁australia	-7124
▁dedicated	-7125
▁partially	-7126
▁professor	-7127
▁responded	-7128
▁articulate	-7129
▁management	-7130
▁negativity	-7131
▁contributing	-7132
cs	-7133
ief	-7134
arts	-7135
▁nep	-7136
▁pam	-7137
▁tie	-7138
uence	-7139
▁info	-7140
▁puzz	-7141
ctions	-7142
▁advoc	-7143
▁chemo	-7144
▁rapid	-7145
▁sooth	-7146
▁theyd	-7147
▁traum	-7148
▁cinema	-7149
▁conven	-7150
▁daniel	-7151
▁fought	-7152
▁severe	-7153
▁tastes	-7154
▁theory	-7155
▁treats	-7156
▁twinge	-7157
▁wester	-7158
▁deliber	-7159
▁editing	-7160
▁applying	-7161
▁consumed	-7162
▁demonstr	-7163
▁intimate	-7164
▁republic	-7165
▁resident	-7166
▁alongside	-7167
▁confusing	-7168
▁destroyed	-7169
▁employees	-7170
▁secondary	-7171
▁introduced	-7172
▁rejuvenated	-7173
▁consciousness	-7174
gen	-7175
eeee	-7176
erie	-7177
gent	-7178
wife	-7179
▁isp	-7180
▁les	-7181
▁wig	-7182
agger	-7183
bbish	-7184
olite	-7185
otely	-7186
▁army	-7187
▁chip	-7188
▁furn	-7189
▁gang	-7190
▁grip	-7191
▁hasn	-7192
▁uber	-7193
athing	-7194
utions	-7195
▁hills	-7196
▁imper	-7197
▁impul	-7198
▁poems	-7199
▁sting	-7200
▁upper	-7201
▁dining	-7202
▁disney	-7203
▁guests	-7204
▁landsc	-7205
▁lifted	-7206
▁marvel	-7207
▁thread	-7208
▁adoring	-7209
▁begging	-7210
▁garbage	-7211
▁masters	-7212
▁painted	-7213
▁adoption	-7214
▁creeping	-7215
▁detached	-7216
▁insanely	-7217
▁managing	-7218
▁remotely	-7219
▁siblings	-7220
▁candidate	-7221
▁ferocious	-7222
▁wandering	-7223
▁achievement	-7224
▁independence	-7225
ja	-7226
nis	-7227
rid	-7228
ris	-7229
▁rh	-7230
aaaa	-7231
▁bul	-7232
▁era	-7233
▁itd	-7234
▁oly	-7235
▁ray	-7236
▁sed	-7237
▁sew	-7238
▁sum	-7239
▁sup	-7240
orted	-7241
▁belt	-7242
▁drew	-7243
▁euph	-7244
▁gray	-7245
▁moan	-7246
▁sins	-7247
▁tact	-7248
▁tuck	-7249
▁vegg	-7250
igning	-7251
istics	-7252
▁blues	-7253
▁canad	-7254
▁civil	-7255
▁hobby	-7256
▁honey	-7257
▁pussy	-7258
▁roots	-7259
▁scott	-7260
▁assure	-7261
▁branch	-7262
▁clinic	-7263
▁empath	-7264
▁poison	-7265
▁savior	-7266
▁speaks	-7267
▁strike	-7268
▁thighs	-7269
▁worksh	-7270
▁blogged	-7271
▁coaster	-7272
▁leather	-7273
▁lifting	-7274
▁updated	-7275
▁appetite	-7276
▁delivery	-7277
▁excluded	-7278
▁impolite	-7279
▁randomly	-7280
▁settling	-7281
▁snobbish	-7282
▁stereoty	-7283
▁survived	-7284
▁marketing	-7285
▁definition	-7286
▁perception	-7287
▁uninspired	-7288
▁connections	-7289
▁entertaining	-7290
▁tremendously	-7291
▁significantly	-7292
▁accomplishments	-7293
po	-7294
bes	-7295
ias	-7296
urd	-7297
▁yo	-7298
aren	-7299
inal	-7300
life	-7301
wear	-7302
▁ech	-7303
▁luc	-7304
▁rut	-7305
oding	-7306
stand	-7307
▁anth	-7308
▁bars	-7309
▁curi	-7310
▁obst	-7311
▁scan	-7312
▁tied	-7313
iation	-7314
inated	-7315
uation	-7316
vation	-7317
▁enemy	-7318
▁forum	-7319
▁olymp	-7320
▁pitch	-7321
▁tutor	-7322
▁dearly	-7323
▁firmly	-7324
▁rhythm	-7325
▁washed	-7326
▁dreamed	-7327
▁neutral	-7328
▁protest	-7329
▁remarks	-7330
▁appeared	-7331
▁sounding	-7332
▁compelled	-7333
▁essential	-7334
▁insurance	-7335
▁repeating	-7336
▁welcoming	-7337
▁consistent	-7338
▁motherhood	-7339
▁population	-7340
▁protective	-7341
▁publishing	-7342
▁expectation	-7343
▁ingredients	-7344
▁intervention	-7345
gs	-7346
ua	-7347
ami	-7348
off	-7349
▁ni	-7350
▁tel	-7351
▁veg	-7352
▁vit	-7353
uests	-7354
▁bake	-7355
▁cure	-7356
▁edit	-7357
▁flut	-7358
▁mate	-7359
▁tatt	-7360
ission	-7361
rivate	-7362
▁admir	-7363
▁anime	-7364
▁fraud	-7365
▁girly	-7366
▁newly	-7367
▁shops	-7368
▁split	-7369
▁spoil	-7370
▁undes	-7371
▁vague	-7372
▁depths	-7373
▁extens	-7374
▁prepar	-7375
▁rising	-7376
▁styles	-7377
▁temple	-7378
▁tracks	-7379
▁funeral	-7380
▁grabbed	-7381
▁illustr	-7382
▁mystery	-7383
▁packing	-7384
▁percent	-7385
▁politic	-7386
▁accompan	-7387
▁breastfe	-7388
▁childish	-7389
▁download	-7390
▁authority	-7391
▁isprivate	-7392
▁remaining	-7393
▁surrender	-7394
▁heartbreak	-7395
▁responding	-7396
▁disappeared	-7397
▁discussions	-7398
▁accidentally	-7399
▁enthusiastic	-7400
▁embarrassment	-7401
xx	-7402
ario	-7403
ores	-7404
▁cub	-7405
▁gle	-7406
▁lic	-7407
ality	-7408
arest	-7409
▁bush	-7410
▁lump	-7411
▁roof	-7412
▁tent	-7413
▁tops	-7414
▁uses	-7415
▁beast	-7416
▁carol	-7417
▁comic	-7418
▁holes	-7419
▁reput	-7420
▁scold	-7421
▁vehic	-7422
▁collap	-7423
▁factor	-7424
▁iphone	-7425
▁networ	-7426
▁pumped	-7427
▁rehear	-7428
▁strive	-7429
▁subtle	-7430
▁tattoo	-7431
▁thirty	-7432
▁waters	-7433
▁artwork	-7434
▁blaming	-7435
▁cherish	-7436
▁existed	-7437
▁privacy	-7438
▁touches	-7439
▁chemical	-7440
▁deciding	-7441
▁investig	-7442
▁dependent	-7443
▁separated	-7444
▁inevitable	-7445
▁leadership	-7446
▁sensations	-7447
▁alternative	-7448
▁grandparent	-7449
▁contemplating	-7450
ws	-7451
ena	-7452
ern	-7453
han	-7454
▁ox	-7455
hhhh	-7456
icit	-7457
olar	-7458
vial	-7459
▁biz	-7460
▁dou	-7461
▁haw	-7462
▁poo	-7463
▁wol	-7464
achel	-7465
eland	-7466
house	-7467
ville	-7468
▁brut	-7469
▁diab	-7470
▁duck	-7471
▁jane	-7472
▁russ	-7473
▁slap	-7474
▁agony	-7475
▁stays	-7476
ography	-7477
▁bubble	-7478
▁delete	-7479
▁denial	-7480
▁hugely	-7481
▁lovers	-7482
▁slower	-7483
▁spouse	-7484
▁cousins	-7485
▁stuffed	-7486
▁testing	-7487
▁likeable	-7488
▁outsider	-7489
▁relation	-7490
▁software	-7491
▁sweating	-7492
▁yearning	-7493
▁comforted	-7494
▁gathering	-7495
▁heartbeat	-7496
▁injustice	-7497
▁perceived	-7498
▁referring	-7499
▁distinctly	-7500
▁assignments	-7501
▁communities	-7502
▁essentially	-7503
▁contribution	-7504
▁interactions	-7505
gu	-7506
uo	-7507
▁ta	-7508
▁ts	-7509
▁zo	-7510
ford	-7511
iser	-7512
play	-7513
▁aka	-7514
▁fee	-7515
▁ink	-7516
▁sir	-7517
▁bost	-7518
▁indi	-7519
▁vamp	-7520
ndrome	-7521
▁arrog	-7522
▁drops	-7523
▁homem	-7524
▁proof	-7525
▁spont	-7526
▁affirm	-7527
▁borrow	-7528
▁cleans	-7529
▁editor	-7530
▁fourth	-7531
▁german	-7532
▁golden	-7533
▁portra	-7534
▁visits	-7535
▁woeful	-7536
ferences	-7537
▁amounts	-7538
▁bruised	-7539
▁crowded	-7540
▁divorce	-7541
▁fitting	-7542
▁addicted	-7543
▁adorable	-7544
▁discount	-7545
▁employee	-7546
▁reciproc	-7547
▁smallest	-7548
▁syndrome	-7549
▁anguished	-7550
▁cherished	-7551
▁consuming	-7552
▁decidedly	-7553
▁purchased	-7554
▁transport	-7555
▁comprehend	-7556
▁disrespect	-7557
▁reasonable	-7558
▁intellectual	-7559
nce	-7560
▁bt	-7561
iers	-7562
inis	-7563
umbl	-7564
▁dub	-7565
▁enh	-7566
▁joe	-7567
▁tub	-7568
cling	-7569
itled	-7570
iture	-7571
▁cafe	-7572
▁dads	-7573
▁guts	-7574
▁ipod	-7575
▁ital	-7576
alysis	-7577
itious	-7578
▁cheat	-7579
▁clich	-7580
▁fixed	-7581
▁graph	-7582
▁inapp	-7583
▁input	-7584
▁named	-7585
▁waist	-7586
▁wings	-7587
▁boston	-7588
▁chores	-7589
▁comple	-7590
▁cramps	-7591
▁creepy	-7592
▁cuddle	-7593
▁defeat	-7594
▁expert	-7595
▁frozen	-7596
▁goddam	-7597
▁insert	-7598
▁intrig	-7599
▁century	-7600
▁costume	-7601
▁glimpse	-7602
▁outrage	-7603
▁package	-7604
▁portray	-7605
▁revenge	-7606
▁smarter	-7607
▁trigger	-7608
abilities	-7609
▁caffeine	-7610
▁educated	-7611
▁forehead	-7612
▁instance	-7613
▁involves	-7614
▁numerous	-7615
▁gradually	-7616
▁instagram	-7617
▁obsession	-7618
▁righteous	-7619
▁unusually	-7620
▁concerning	-7621
▁hopelessly	-7622
▁practicing	-7623
▁protection	-7624
▁stretching	-7625
rey	-7626
sem	-7627
▁bob	-7628
▁hen	-7629
▁inh	-7630
▁mug	-7631
inate	-7632
uires	-7633
▁coin	-7634
▁goss	-7635
▁josh	-7636
▁remo	-7637
▁warn	-7638
stream	-7639
uctive	-7640
uggish	-7641
▁blown	-7642
▁knife	-7643
▁scare	-7644
▁unatt	-7645
oration	-7646
▁africa	-7647
▁dollar	-7648
▁drives	-7649
▁fantas	-7650
▁infert	-7651
▁rechar	-7652
▁stared	-7653
▁strict	-7654
▁supply	-7655
▁tested	-7656
▁arrange	-7657
▁creates	-7658
▁crushed	-7659
▁defense	-7660
▁desired	-7661
▁shining	-7662
▁annivers	-7663
▁balanced	-7664
▁brighter	-7665
▁consumer	-7666
▁hangover	-7667
▁pressing	-7668
▁chemistry	-7669
▁commented	-7670
▁elsewhere	-7671
▁bitterness	-7672
▁complaints	-7673
▁connecting	-7674
▁downstairs	-7675
▁inevitably	-7676
▁separation	-7677
▁thankfully	-7678
▁recognition	-7679
ih	-7680
ux	-7681
hop	-7682
lon	-7683
cake	-7684
olen	-7685
opho	-7686
▁asp	-7687
▁awa	-7688
▁bos	-7689
▁dur	-7690
▁gol	-7691
lines	-7692
▁barb	-7693
▁buck	-7694
▁gasp	-7695
▁jess	-7696
▁mush	-7697
▁ramb	-7698
▁sans	-7699
▁slim	-7700
▁thru	-7701
▁forms	-7702
▁legal	-7703
▁prote	-7704
▁scrap	-7705
▁shiny	-7706
▁stron	-7707
ascript	-7708
athered	-7709
▁cancel	-7710
▁elimin	-7711
▁feared	-7712
▁hollow	-7713
▁pencil	-7714
▁plants	-7715
▁repair	-7716
▁scheme	-7717
▁shirts	-7718
▁submit	-7719
attering	-7720
inations	-7721
▁citizen	-7722
▁closing	-7723
▁command	-7724
▁compens	-7725
▁creator	-7726
▁popping	-7727
▁texture	-7728
▁whining	-7729
▁answering	-7730
▁establish	-7731
▁infection	-7732
▁positions	-7733
▁sentences	-7734
▁trimester	-7735
▁boundaries	-7736
▁graduation	-7737
▁investment	-7738
▁punishment	-7739
▁reputation	-7740
▁statements	-7741
▁desperation	-7742
▁meaningless	-7743
▁circumstance	-7744
▁difficulties	-7745
uu	-7746
gie	-7747
iat	-7748
rim	-7749
▁vs	-7750
abby	-7751
pled	-7752
▁fet	-7753
▁kim	-7754
▁lat	-7755
▁nar	-7756
▁rit	-7757
acked	-7758
istan	-7759
ndays	-7760
▁aust	-7761
▁cert	-7762
▁cozy	-7763
▁darn	-7764
▁mont	-7765
▁murd	-7766
▁neat	-7767
▁odds	-7768
▁rust	-7769
▁unem	-7770
itudes	-7771
▁ankle	-7772
▁burnt	-7773
▁cabin	-7774
▁comfy	-7775
▁crawl	-7776
▁devil	-7777
▁rolls	-7778
▁sized	-7779
▁slave	-7780
▁wiped	-7781
▁angels	-7782
▁bounce	-7783
▁policy	-7784
▁singer	-7785
▁sticky	-7786
▁stolen	-7787
▁territ	-7788
▁bullied	-7789
▁confirm	-7790
▁hunting	-7791
▁kingdom	-7792
▁knocked	-7793
▁persist	-7794
▁assuming	-7795
▁careless	-7796
▁crawling	-7797
▁cultural	-7798
▁dialogue	-7799
▁lectures	-7800
▁loathing	-7801
▁sluggish	-7802
▁stumbled	-7803
▁updating	-7804
▁household	-7805
▁improving	-7806
▁newspaper	-7807
▁offensive	-7808
▁painfully	-7809
▁relatives	-7810
▁cautiously	-7811
▁homeschool	-7812
▁javascript	-7813
▁effectively	-7814
▁consideration	-7815
bt	-7816
ko	-7817
bid	-7818
bon	-7819
fly	-7820
ida	-7821
log	-7822
iner	-7823
uare	-7824
umes	-7825
xual	-7826
▁mcc	-7827
▁obt	-7828
cakes	-7829
ollen	-7830
vable	-7831
▁drum	-7832
▁echo	-7833
▁febr	-7834
▁obsc	-7835
▁reun	-7836
▁soak	-7837
▁solo	-7838
▁tant	-7839
alized	-7840
▁align	-7841
▁cliff	-7842
▁discl	-7843
▁drown	-7844
▁indic	-7845
▁infin	-7846
▁opted	-7847
▁pause	-7848
▁steam	-7849
▁teams	-7850
▁texas	-7851
▁willi	-7852
ustomed	-7853
▁consci	-7854
▁coping	-7855
▁genius	-7856
▁gossip	-7857
▁laughs	-7858
▁paraly	-7859
▁pillow	-7860
▁undert	-7861
ualified	-7862
▁cleanse	-7863
▁compuls	-7864
▁contrad	-7865
▁digital	-7866
▁essence	-7867
▁panicky	-7868
▁shadows	-7869
▁swollen	-7870
▁tearing	-7871
▁trained	-7872
▁twisted	-7873
▁wonders	-7874
▁betrayal	-7875
▁distress	-7876
▁dreading	-7877
▁february	-7878
▁obsessed	-7879
▁panicked	-7880
▁suicidal	-7881
▁operation	-7882
▁succeeded	-7883
▁volunteer	-7884
▁businesses	-7885
▁confronted	-7886
▁describing	-7887
▁suffocated	-7888
▁permanently	-7889
▁accomplishing	-7890
nn	-7891
ole	-7892
▁km	-7893
amin	-7894
anut	-7895
assy	-7896
hand	-7897
kers	-7898
onym	-7899
orus	-7900
stic	-7901
tail	-7902
west	-7903
word	-7904
▁atl	-7905
▁bik	-7906
▁kil	-7907
▁ugh	-7908
ueeze	-7909
▁adam	-7910
▁cuts	-7911
▁groo	-7912
▁icon	-7913
▁mand	-7914
▁nuts	-7915
▁ours	-7916
▁symb	-7917
▁trib	-7918
orters	-7919
▁grind	-7920
▁navig	-7921
▁retro	-7922
▁santa	-7923
▁sniff	-7924
▁unfam	-7925
▁veter	-7926
▁vivid	-7927
▁witty	-7928
▁absurd	-7929
▁darker	-7930
▁gluten	-7931
▁malays	-7932
▁murder	-7933
▁peanut	-7934
▁stated	-7935
▁stroke	-7936
▁boredom	-7937
▁drivers	-7938
▁logical	-7939
▁luckily	-7940
▁outlook	-7941
▁protein	-7942
▁screwed	-7943
▁sweater	-7944
▁updates	-7945
▁collabor	-7946
▁grieving	-7947
▁inclined	-7948
▁publicly	-7949
▁ultimate	-7950
▁withdraw	-7951
▁countless	-7952
▁coworkers	-7953
▁criticism	-7954
▁adrenaline	-7955
▁insecurity	-7956
▁overweight	-7957
▁satisfying	-7958
▁valentines	-7959
▁pessimistic	-7960
▁intentionally	-7961
aid	-7962
aus	-7963
ded	-7964
iot	-7965
oma	-7966
oph	-7967
ota	-7968
fall	-7969
mill	-7970
▁	-7971
e	-7972
t	-7973
i	-7974
a	-7975
o	-7976
n	-7977
s	-7978
l	-7979
r	-7980
h	-7981
d	-7982
f	-7983
m	-7984
u	-7985
g	-7986
y	-7987
c	-7988
w	-7989
p	-7990
b	-7991
v	-7992
k	-7993
j	-7994
x	-7995
z	-7996
