<unk>	0
<s>	0
</s>	0
<pad>	0
▁i	-2.49871
▁feel	-3.34719
▁and	-3.50283
▁to	-3.5703
▁the	-3.64473
▁a	-3.90749
▁feeling	-4.12627
▁that	-4.14758
▁of	-4.15842
▁my	-4.31481
▁in	-4.55243
▁it	-4.58233
▁like	-4.71585
▁so	-4.83768
▁for	-4.85836
▁im	-4.899
▁have	-4.90928
▁me	-4.91308
▁but	-4.95532
▁was	-4.97073
▁am	-5.02317
▁this	-5.02531
▁is	-5.04972
▁with	-5.05473
s	-5.09799
▁be	-5.15287
▁not	-5.15352
▁about	-5.19128
▁on	-5.32163
▁as	-5.32827
▁	-5.35013
▁you	-5.37301
▁just	-5.4157
▁at	-5.44689
▁when	-5.45036
▁or	-5.50344
▁all	-5.58663
▁because	-5.61738
▁more	-5.61913
▁do	-5.67623
▁can	-5.76119
▁t	-5.7711
▁really	-5.77389
▁up	-5.81594
▁know	-5.8487
▁by	-5.8658
▁are	-5.89087
▁very	-5.89284
ing	-5.89318
▁been	-5.89668
▁out	-5.90148
▁what	-5.9492
▁myself	-5.95078
▁time	-5.95805
▁if	-5.96212
▁how	-6.02267
▁get	-6.04508
▁little	-6.06865
▁will	-6.07283
▁had	-6.07971
▁now	-6.10216
▁from	-6.10611
▁being	-6.11754
▁they	-6.11855
▁people	-6.12379
▁would	-6.13443
▁he	-6.17006
▁her	-6.2106
▁want	-6.21752
▁one	-6.24309
▁them	-6.26091
▁think	-6.26194
▁s	-6.26369
▁still	-6.27416
▁some	-6.30743
▁even	-6.31677
▁who	-6.32277
ed	-6.33075
▁ive	-6.33152
▁an	-6.34444
▁we	-6.35155
▁much	-6.35917
▁m	-6.37174
▁life	-6.37294
▁him	-6.3804
▁there	-6.39299
▁something	-6.42849
▁its	-6.42994
▁things	-6.45972
▁way	-6.46154
▁love	-6.46649
▁bit	-6.46697
▁make	-6.47888
▁dont	-6.49656
▁no	-6.53652
▁going	-6.53857
ly	-6.56277
▁than	-6.56749
▁could	-6.56894
▁too	-6.57711
▁day	-6.58773
▁go	-6.61305
▁she	-6.62078
▁back	-6.6802
▁don	-6.68294
▁has	-6.68615
▁his	-6.72355
▁need	-6.72962
▁which	-6.75432
▁into	-6.76127
▁over	-6.76245
▁pretty	-6.76953
▁always	-6.77097
▁good	-6.78613
▁right	-6.78791
▁their	-6.78968
▁see	-6.79481
▁say	-6.8359
▁other	-6.83593
▁these	-6.84244
▁only	-6.85142
▁also	-6.8539
▁your	-6.87722
▁work	-6.88313
▁after	-6.90947
▁did	-6.91011
▁cant	-6.91969
▁then	-6.91998
▁again	-6.92788
▁should	-6.93295
▁never	-6.93472
▁today	-6.93952
▁most	-6.94062
▁our	-6.94753
▁feelings	-6.97715
▁were	-6.99502
▁around	-7.00047
▁help	-7.00785
▁here	-7.01152
▁didnt	-7.02331
▁though	-7.03548
▁any	-7.04127
▁those	-7.04362
▁well	-7.04529
▁feels	-7.05249
▁down	-7.08581
▁made	-7.08963
d	-7.09693
▁where	-7.09776
▁got	-7.10356
▁someone	-7.10362
▁doing	-7.12663
▁through	-7.1473
uite	-7.16325
▁having	-7.16721
y	-7.17889
▁every	-7.17893
▁happy	-7.18548
▁many	-7.18736
▁lot	-7.20044
▁felt	-7.20715
▁home	-7.20798
▁less	-7.21943
▁why	-7.22312
▁makes	-7.22481
▁off	-7.22854
▁look	-7.23004
▁anything	-7.2366
▁find	-7.23768
▁sure	-7.24237
▁last	-7.25836
▁days	-7.26116
▁person	-7.26421
▁before	-7.26992
▁enough	-7.27621
▁kind	-7.28032
▁left	-7.2812
▁take	-7.29153
▁new	-7.31023
▁actually	-7.31124
▁http	-7.31203
▁such	-7.31907
▁getting	-7.3227
▁friends	-7.32453
▁without	-7.32883
▁own	-7.33261
▁better	-7.34759
▁world	-7.354
▁everything	-7.35652
▁sometimes	-7.36902
▁few	-7.37962
▁ever	-7.38132
▁away	-7.38274
▁come	-7.38646
▁while	-7.3984
▁started	-7.40931
▁thought	-7.42619
▁long	-7.43166
▁first	-7.44072
▁said	-7.44381
▁able	-7.45013
▁href	-7.45024
▁thing	-7.45616
▁remember	-7.45637
▁year	-7.45993
▁rather	-7.47433
▁part	-7.51415
▁start	-7.5149
▁bad	-7.51749
▁try	-7.52215
▁family	-7.53074
▁trying	-7.53154
▁week	-7.54047
▁us	-7.54095
▁tell	-7.54494
▁end	-7.55373
▁since	-7.55388
▁might	-7.57176
▁may	-7.59829
▁put	-7.5983
▁ill	-7.60075
▁times	-7.61157
▁making	-7.61527
▁keep	-7.61872
▁let	-7.63177
▁give	-7.63226
▁yet	-7.63244
▁alone	-7.63616
▁night	-7.63675
▁place	-7.64357
▁god	-7.64494
▁same	-7.64497
▁sad	-7.64675
▁two	-7.65249
▁already	-7.65662
e	-7.65732
▁years	-7.66596
▁read	-7.66914
▁re	-7.67517
▁others	-7.68217
▁heart	-7.68647
▁moment	-7.69892
▁amazing	-7.70374
▁hate	-7.70639
▁sweet	-7.71204
▁everyone	-7.72302
▁hope	-7.73235
▁write	-7.73338
▁blog	-7.73375
▁ve	-7.74028
▁wanted	-7.74307
▁done	-7.74892
▁another	-7.75125
▁overwhelmed	-7.75197
▁stressed	-7.75976
▁angry	-7.76108
▁hard	-7.7618
▁weird	-7.76418
▁nothing	-7.76518
▁school	-7.77581
▁often	-7.77777
▁id	-7.77791
▁hurt	-7.77848
▁completely	-7.77987
▁post	-7.79297
▁lost	-7.79373
▁almost	-7.79774
▁morning	-7.7986
▁next	-7.81547
▁didn	-7.82247
▁guess	-7.82822
▁loved	-7.83504
▁blessed	-7.83508
▁excited	-7.85229
▁strange	-7.85376
▁went	-7.86028
▁thinking	-7.86037
▁pain	-7.861
▁body	-7.86203
▁writing	-7.87461
▁once	-7.87795
▁maybe	-7.8803
▁accepted	-7.8845
▁hated	-7.88757
▁point	-7.89262
▁especially	-7.90263
▁mind	-7.90467
▁whole	-7.90756
▁friend	-7.91021
▁past	-7.9107
▁great	-7.91792
▁talk	-7.92163
▁looking	-7.92534
▁fact	-7.94388
▁helpless	-7.94456
▁lately	-7.94976
▁else	-7.95161
er	-7.95332
▁face	-7.95813
▁used	-7.95823
▁tired	-7.96237
▁must	-7.97307
▁passionate	-7.9747
▁anyone	-7.98131
▁understand	-7.98151
▁found	-7.98248
▁share	-7.99329
▁care	-7.99887
▁self	-8.00299
▁each	-8.00577
▁towards	-8.00971
▁important	-8.0125
▁agitated	-8.01346
▁strong	-8.02037
▁told	-8.02781
▁supporting	-8.0284
▁until	-8.02902
▁sleep	-8.02912
▁best	-8.02916
▁enjoy	-8.03307
▁real	-8.03409
▁wasnt	-8.03475
▁old	-8.03652
▁inside	-8.04314
▁free	-8.04542
▁leave	-8.0456
▁stop	-8.05045
▁book	-8.05236
▁least	-8.05567
▁probably	-8.05661
▁use	-8.0584
▁starting	-8.06615
▁cold	-8.06618
▁believe	-8.06856
▁reason	-8.07044
▁scared	-8.07105
▁girl	-8.08091
▁job	-8.08359
▁sense	-8.08496
▁far	-8.088
▁sorry	-8.08855
▁mean	-8.09182
▁stupid	-8.09629
▁frustrated	-8.09727
▁house	-8.10214
▁head	-8.10328
n	-8.11059
▁depressed	-8.11122
▁afraid	-8.12076
▁working	-8.13333
▁wonderful	-8.13935
▁words	-8.14263
▁anxious	-8.15001
▁slightly	-8.15165
▁saying	-8.1608
▁d	-8.16696
▁generous	-8.16999
▁truly	-8.17054
▁comfortable	-8.17161
▁become	-8.17219
▁amp	-8.17524
▁class	-8.18179
▁live	-8.18815
▁loving	-8.18897
▁guilty	-8.19063
▁finally	-8.19227
▁experience	-8.19299
▁positive	-8.19551
▁coming	-8.19598
▁man	-8.20221
▁emotional	-8.20266
▁came	-8.20308
▁glad	-8.20538
▁thankful	-8.20963
▁hot	-8.21281
▁special	-8.21585
▁does	-8.21684
▁woke	-8.21734
▁stuff	-8.21879
▁show	-8.2218
▁particularly	-8.22221
▁perfect	-8.2242
▁nervous	-8.22495
▁kids	-8.23192
▁lonely	-8.24042
▁reading	-8.24414
▁confident	-8.24527
▁super	-8.24684
▁change	-8.2557
▁beloved	-8.25707
▁sort	-8.25857
▁hear	-8.25969
▁admit	-8.26343
▁during	-8.26997
▁run	-8.27029
▁wish	-8.27102
▁proud	-8.27285
▁walk	-8.28342
▁cool	-8.28437
▁bed	-8.28501
▁weeks	-8.28679
▁ok	-8.28721
▁children	-8.28828
▁liked	-8.28875
▁taking	-8.2926
▁totally	-8.29335
▁extremely	-8.295
▁instead	-8.2997
▁wont	-8.3004
▁uncomfortable	-8.30091
▁knew	-8.31003
▁big	-8.31519
▁low	-8.31614
▁together	-8.33103
▁safe	-8.33511
▁room	-8.33609
▁havent	-8.3382
▁anymore	-8.3392
es	-8.33936
▁calm	-8.34595
▁usually	-8.34668
▁decided	-8.35021
▁both	-8.35271
▁exhausted	-8.35567
▁longer	-8.35717
▁annoyed	-8.35828
▁confused	-8.36081
▁disappointed	-8.36665
▁fine	-8.36809
▁eat	-8.37029
▁creative	-8.37232
▁mad	-8.37538
▁missed	-8.37538
▁content	-8.37779
t	-8.38332
▁talking	-8.3866
▁lovely	-8.38849
▁hours	-8.38916
▁baby	-8.38931
▁idea	-8.39001
▁situation	-8.39031
▁high	-8.39107
▁horrible	-8.39147
▁doesnt	-8.39231
▁www	-8.39283
▁cannot	-8.39553
▁lucky	-8.39955
▁months	-8.40012
▁thoughts	-8.40226
▁child	-8.40652
▁tortured	-8.40892
▁funny	-8.4109
▁relaxed	-8.41466
▁selfish	-8.41887
▁full	-8.42112
▁thats	-8.42161
▁ask	-8.42353
▁energy	-8.42381
▁food	-8.42391
▁couldnt	-8.42628
▁wrong	-8.42753
▁seem	-8.42803
▁between	-8.42866
▁story	-8.42933
▁women	-8.43069
▁comes	-8.43169
▁awkward	-8.44229
▁call	-8.44238
▁eyes	-8.44386
▁insecure	-8.44527
▁caring	-8.44722
▁living	-8.44885
▁miss	-8.45002
▁sit	-8.45147
▁different	-8.4522
▁mother	-8.45286
▁terrible	-8.45581
▁relationship	-8.4578
▁hand	-8.45949
▁successful	-8.46651
▁cute	-8.46797
▁somewhat	-8.47007
▁embarrassed	-8.47009
▁surprised	-8.47449
▁useless	-8.47469
te	-8.47755
▁empty	-8.4787
▁money	-8.48087
▁ago	-8.48495
▁took	-8.48804
▁unsure	-8.49768
▁awful	-8.49775
▁inspired	-8.49849
▁either	-8.49916
▁unhappy	-8.50286
▁knowing	-8.50403
▁jealous	-8.50729
▁precious	-8.50731
▁nice	-8.50798
▁future	-8.50806
▁move	-8.5095
▁couple	-8.50976
▁matter	-8.51019
▁irritated	-8.51405
▁rest	-8.5161
▁stay	-8.51653
▁productive	-8.51705
▁cause	-8.51723
a	-8.51837
▁kinda	-8.52231
▁control	-8.52373
▁satisfied	-8.52458
▁hopeless	-8.52466
▁miserable	-8.52534
▁incredib	-8.52563
▁spend	-8.52791
▁vulnerable	-8.53295
ther	-8.53435
▁spent	-8.53524
▁bitter	-8.53532
▁close	-8.53703
r	-8.53705
▁seeing	-8.54018
▁sick	-8.54204
▁wonder	-8.54432
▁smart	-8.54489
▁seems	-8.54566
▁fear	-8.54694
▁turn	-8.54927
▁woman	-8.54994
▁numb	-8.55384
▁absolutely	-8.55389
▁longing	-8.5552
▁given	-8.5553
▁worthless	-8.5599
▁rude	-8.5601
▁bothered	-8.56039
▁pissed	-8.56407
▁happen	-8.56717
▁music	-8.56852
▁peaceful	-8.57351
▁e	-8.57562
▁friendly	-8.57859
▁shy	-8.57903
▁innocent	-8.57905
▁shitty	-8.57907
▁determined	-8.57988
▁under	-8.58048
▁ugly	-8.58065
▁relieved	-8.58228
▁side	-8.58233
▁hopeful	-8.58344
▁gentle	-8.5836
▁useful	-8.58493
▁impressed	-8.58556
▁disgusted	-8.58805
▁terrified	-8.58869
▁boring	-8.59274
▁inade	-8.59385
▁guy	-8.59428
▁ashamed	-8.59436
▁discouraged	-8.59437
▁dumb	-8.59517
▁resentful	-8.59517
▁watching	-8.59541
▁began	-8.59702
▁ready	-8.59711
▁rich	-8.59895
▁definitely	-8.60174
▁irritable	-8.60251
▁wake	-8.60252
▁fun	-8.60384
▁romantic	-8.60409
ness	-8.60575
▁amazed	-8.60745
▁rejected	-8.60835
▁brave	-8.60921
▁faithful	-8.60924
▁mom	-8.60987
▁small	-8.61039
▁sitting	-8.61254
▁dull	-8.61322
uate	-8.61394
▁weight	-8.61427
▁popular	-8.61481
▁running	-8.61655
▁drained	-8.61744
▁valued	-8.6176
▁shocked	-8.61836
▁whenever	-8.6192
▁watch	-8.62004
▁homesick	-8.62217
▁three	-8.62235
▁although	-8.62236
▁distracted	-8.62245
▁aching	-8.62321
▁joyful	-8.62333
▁parents	-8.62469
▁isolated	-8.62488
▁pressured	-8.62538
▁gorgeous	-8.6257
▁whatever	-8.62581
▁pleasant	-8.62681
▁youre	-8.62798
▁ll	-8.62866
▁whe	-8.6289
▁acceptable	-8.62994
▁delicious	-8.63076
▁tender	-8.6308
▁rushed	-8.63107
▁hair	-8.63278
▁energetic	-8.63581
▁worthwhile	-8.63581
▁tonight	-8.63704
▁somehow	-8.63835
▁valuable	-8.63835
▁respected	-8.64347
▁defeated	-8.64442
▁curious	-8.64516
▁giving	-8.64519
▁intelligent	-8.64687
▁wear	-8.64773
▁optimistic	-8.6503
▁dangerous	-8.6506
▁lethargic	-8.65116
▁impatient	-8.65205
▁play	-8.65269
▁blank	-8.6537
▁soon	-8.65419
▁skin	-8.6557
▁sympathetic	-8.65633
▁suffering	-8.65693
▁reluctant	-8.65806
▁bitchy	-8.65838
▁privileged	-8.65899
▁eager	-8.6596
▁intimidated	-8.66068
▁saw	-8.66087
▁divine	-8.66153
▁paranoid	-8.66239
▁fake	-8.66327
▁grumpy	-8.66415
▁ignored	-8.66787
▁along	-8.66803
▁asked	-8.66833
▁crappy	-8.66938
▁convinced	-8.66947
▁beautiful	-8.67234
▁tried	-8.67385
▁gone	-8.67433
▁half	-8.67614
▁restless	-8.6763
▁dirty	-8.67822
▁insulted	-8.67826
▁uncertain	-8.679
▁lame	-8.67989
▁cranky	-8.68083
▁disturbed	-8.68174
▁broke	-8.68228
▁simply	-8.6826
▁needy	-8.68268
▁apprehensive	-8.68348
▁dissatisfied	-8.68614
▁hes	-8.68657
▁pathetic	-8.68703
▁offended	-8.68895
▁needed	-8.68979
▁isnt	-8.68996
▁pleased	-8.69294
▁realize	-8.69356
▁clever	-8.69419
▁honored	-8.69441
▁fucked	-8.69582
▁beaten	-8.6969
▁open	-8.69944
▁welcomed	-8.70064
▁assured	-8.70416
▁punished	-8.70418
▁vital	-8.70496
▁shaky	-8.70683
▁wronged	-8.70736
▁deprived	-8.70776
▁happened	-8.70796
▁un	-8.70808
▁hesitant	-8.70864
▁foolish	-8.70865
▁second	-8.71198
▁against	-8.712
▁husband	-8.71568
▁groggy	-8.71595
▁vain	-8.71597
▁greedy	-8.71966
▁sincere	-8.72032
i	-8.72239
▁burdened	-8.72468
▁abused	-8.7272
▁melancholy	-8.72981
▁troubled	-8.73102
▁gloomy	-8.7317
▁fantastic	-8.7326
▁thrilled	-8.73365
▁heartbroken	-8.73446
▁smug	-8.73722
▁certain	-8.74053
▁emotions	-8.74559
▁wouldnt	-8.74743
▁eating	-8.74787
▁learn	-8.74856
▁reassured	-8.7524
▁yesterday	-8.75424
▁violent	-8.75763
▁invigorated	-8.75905
▁festive	-8.75905
▁threatened	-8.75909
▁mellow	-8.76003
▁course	-8.76005
▁rotten	-8.76193
▁doomed	-8.76299
▁wanting	-8.76421
▁frightened	-8.76773
▁humiliated	-8.76774
▁summer	-8.76778
ve	-8.76801
▁nostalgic	-8.76867
▁continue	-8.77084
▁within	-8.7726
▁exactly	-8.77275
▁month	-8.77354
▁lousy	-8.7745
▁devastated	-8.77546
▁honestly	-8.77562
▁car	-8.78357
▁taken	-8.78361
▁mine	-8.78613
▁superior	-8.78617
▁adventurous	-8.79116
▁resolved	-8.7942
▁fabulous	-8.79512
▁unimportant	-8.79512
▁messy	-8.79548
▁hold	-8.79696
▁oh	-8.79792
▁weekend	-8.79834
▁talented	-8.79933
▁envious	-8.80109
▁fall	-8.80268
▁ungrateful	-8.80811
▁shaken	-8.80823
▁word	-8.80945
▁jaded	-8.81417
▁set	-8.81669
▁christmas	-8.81719
▁mood	-8.81878
▁damaged	-8.81934
▁break	-8.81993
▁naughty	-8.82026
o	-8.82204
▁telling	-8.82296
▁lack	-8.8253
▁forward	-8.82572
▁unwelcome	-8.82637
▁fearful	-8.82652
▁sentimental	-8.83152
▁support	-8.83203
▁moments	-8.83512
▁disheartened	-8.83563
▁theres	-8.84427
▁girls	-8.84493
▁group	-8.8455
▁supportive	-8.84709
▁deep	-8.84863
▁true	-8.84956
▁trusting	-8.84965
▁outside	-8.85145
in	-8.85237
▁ecstatic	-8.85336
▁realized	-8.85572
▁discontent	-8.85652
▁petty	-8.85653
al	-8.85654
▁single	-8.85671
▁cry	-8.85702
▁game	-8.8573
▁regretful	-8.85759
▁ones	-8.85961
▁type	-8.86364
▁ways	-8.86371
▁smile	-8.86495
▁front	-8.86516
▁wasn	-8.86532
▁using	-8.86591
▁hands	-8.86595
▁suddenly	-8.86765
▁behind	-8.86927
▁b	-8.87065
▁lives	-8.87089
▁later	-8.87229
▁top	-8.87388
▁grateful	-8.87463
▁horny	-8.87466
▁joy	-8.87911
▁water	-8.88088
▁constantly	-8.88369
▁needs	-8.88531
ers	-8.88609
▁casual	-8.88622
▁normal	-8.8884
▁books	-8.88935
▁leaving	-8.89306
▁due	-8.89727
▁peace	-8.90178
▁delicate	-8.90518
▁touch	-8.90611
▁stand	-8.90775
▁song	-8.91003
▁trust	-8.91067
▁listen	-8.91253
▁begin	-8.91517
▁worth	-8.91785
▁honoured	-8.92315
▁guys	-8.92325
▁supposed	-8.92369
▁called	-8.92599
▁unloved	-8.93099
l	-8.93298
▁human	-8.93428
▁virtuous	-8.93784
▁bring	-8.9411
▁young	-8.94227
▁imagine	-8.94391
▁waiting	-8.944
▁late	-8.947
▁fucking	-8.94735
▁list	-8.9495
▁etc	-8.94952
▁shit	-8.95237
▁beginning	-8.95289
ting	-8.95307
▁men	-8.95374
▁wait	-8.95413
▁however	-8.9553
▁carefree	-8.95633
▁upset	-8.95984
▁order	-8.96158
▁light	-8.96355
▁rebellious	-8.97042
▁means	-8.97662
▁loyal	-8.9775
c	-8.97806
▁damn	-8.97815
▁opportunity	-8.97993
▁tomorrow	-8.98112
▁artistic	-8.98231
▁movie	-8.9849
▁honest	-8.98855
▁chance	-8.98975
▁meet	-8.99018
▁walking	-8.99147
▁seen	-8.9946
▁short	-8.99582
▁contented	-8.99644
est	-8.99696
▁name	-9.00017
▁explain	-9.0051
▁perhaps	-9.00532
▁community	-9.00655
▁toward	-9.00971
▁deal	-9.01017
▁unpleasant	-9.01023
▁early	-9.01184
▁buy	-9.01247
▁met	-9.01452
▁says	-9.0155
▁country	-9.02137
▁boy	-9.0221
▁despi	-9.02446
▁recently	-9.03062
▁gave	-9.03403
▁soul	-9.03545
▁appreciative	-9.03895
m	-9.03963
▁u	-9.0402
▁easily	-9.04148
▁personal	-9.04251
▁father	-9.04462
▁space	-9.0453
▁state	-9.04666
▁tend	-9.04712
▁death	-9.04718
▁yes	-9.05136
▁speak	-9.05169
▁attention	-9.05174
▁case	-9.05393
▁terrific	-9.05684
▁hour	-9.05751
▁distressed	-9.05826
ll	-9.06073
▁disillusioned	-9.06073
▁students	-9.06251
▁process	-9.06763
▁dream	-9.07046
▁frantic	-9.07243
▁crazy	-9.07374
▁emotionally	-9.07452
▁moving	-9.079
▁hit	-9.0861
▁team	-9.08654
▁pictures	-9.08925
▁church	-9.08936
▁pull	-9.0905
▁easy	-9.09094
▁please	-9.09146
▁gets	-9.09236
▁minutes	-9.09331
▁focus	-9.09553
▁air	-9.09871
▁stubborn	-9.09898
▁voice	-9.10226
▁goes	-9.10321
▁heard	-9.10402
▁push	-9.10571
▁doesn	-9.10579
uestion	-9.10666
▁mostly	-9.10848
▁issues	-9.10862
▁theyre	-9.11009
▁art	-9.11194
▁step	-9.11206
▁style	-9.11229
▁possible	-9.11525
▁plan	-9.11627
▁learning	-9.11785
▁hell	-9.11894
▁looked	-9.12011
▁anger	-9.12192
▁line	-9.12193
▁dazed	-9.1235
▁sat	-9.12428
▁problem	-9.12457
▁loss	-9.12494
▁lose	-9.1266
▁phone	-9.12675
▁n	-9.12681
▁express	-9.13129
▁kept	-9.13319
▁problems	-9.13488
▁generally	-9.1373
▁strongly	-9.13746
▁looks	-9.13999
▁anyway	-9.14007
▁couldn	-9.14064
▁physically	-9.14099
▁fond	-9.14702
▁tragic	-9.14861
▁pressure	-9.14909
▁listless	-9.15153
▁c	-9.15259
▁upon	-9.15574
▁stress	-9.15801
ic	-9.15914
▁healthy	-9.15919
▁won	-9.15994
▁piece	-9.1614
▁unfortunate	-9.16287
▁busy	-9.16327
▁age	-9.16493
▁forget	-9.16507
▁triumphant	-9.16572
▁add	-9.16605
▁warm	-9.16688
▁okay	-9.16718
▁everyday	-9.16725
▁stomach	-9.17419
ue	-9.17861
▁listening	-9.17942
▁kid	-9.17981
▁suspicious	-9.1802
▁answer	-9.18137
▁shes	-9.18167
▁act	-9.18203
▁spirit	-9.1827
st	-9.18326
▁learned	-9.18587
uickly	-9.18669
▁wants	-9.18734
▁general	-9.18758
▁deeply	-9.18802
▁film	-9.189
▁trip	-9.18943
▁wearing	-9.19077
▁certainly	-9.19119
▁walked	-9.19783
▁choose	-9.19935
▁themselves	-9.20083
▁amused	-9.20084
▁level	-9.20247
▁comments	-9.20301
▁brain	-9.20555
▁suppose	-9.20599
▁entire	-9.20837
▁gotten	-9.20988
▁keen	-9.2099
▁figure	-9.21076
▁worried	-9.21131
▁title	-9.21161
▁p	-9.21214
▁conversation	-9.21303
▁finding	-9.21452
▁clothes	-9.21585
▁delighted	-9.21608
▁presence	-9.21735
▁city	-9.21756
▁losing	-9.22055
▁effort	-9.22217
▁finished	-9.22666
▁reasons	-9.23425
▁project	-9.23643
▁decision	-9.23759
▁sex	-9.23866
▁worry	-9.24068
▁personally	-9.24093
▁crying	-9.24281
▁src	-9.24361
g	-9.24581
▁worse	-9.24733
▁picture	-9.24765
▁th	-9.25018
▁asking	-9.25019
▁remind	-9.25248
▁return	-9.25503
▁desire	-9.25562
▁shouldnt	-9.25967
▁news	-9.26065
ion	-9.26438
▁seriously	-9.26464
▁finish	-9.26566
▁truth	-9.26593
▁becoming	-9.26717
▁submissive	-9.27339
▁black	-9.27481
▁several	-9.275
▁character	-9.27535
▁pay	-9.27572
▁race	-9.27574
▁happiness	-9.2766
▁hoping	-9.277
▁amount	-9.27764
▁somewhere	-9.27821
▁dark	-9.28143
▁college	-9.28143
▁fully	-9.28213
▁tears	-9.2829
h	-9.28553
▁weepy	-9.28795
▁inhibited	-9.28956
▁putt	-9.28966
▁season	-9.29063
▁grouchy	-9.29118
▁social	-9.29393
▁thank	-9.2955
▁happens	-9.29644
▁turned	-9.29824
▁k	-9.29844
▁white	-9.29989
▁evening	-9.3014
▁arms	-9.30235
▁sadness	-9.3036
▁posts	-9.30402
▁guilt	-9.30685
▁stories	-9.30767
gonna	-9.30873
▁doubtful	-9.31095
▁pick	-9.31154
▁fit	-9.31243
▁party	-9.31282
uestions	-9.31307
▁blogging	-9.31597
▁number	-9.31603
▁feet	-9.3161
▁complacent	-9.31759
▁ability	-9.31851
▁present	-9.31992
▁comment	-9.32101
▁daily	-9.32102
▁company	-9.32263
▁laugh	-9.32405
▁skeptical	-9.32768
▁allow	-9.3282
▁glamorous	-9.32938
▁ended	-9.32969
▁comfort	-9.33151
▁compassionate	-9.33279
▁wife	-9.33449
▁grow	-9.33752
▁playing	-9.33821
▁huge	-9.33955
▁wrote	-9.33959
▁dinner	-9.33959
▁difficult	-9.34046
able	-9.34066
on	-9.34074
▁office	-9.34112
▁red	-9.34218
▁health	-9.34579
▁journey	-9.3465
▁photos	-9.34863
▁sound	-9.35052
▁dad	-9.35601
▁beyond	-9.36033
▁near	-9.36141
▁respect	-9.36272
▁earth	-9.36309
▁except	-9.36373
▁power	-9.36426
le	-9.36444
▁o	-9.36573
▁allowed	-9.36933
▁boyfriend	-9.37035
▁readers	-9.37048
re	-9.37176
▁hostile	-9.37264
▁deserve	-9.37307
▁wondering	-9.37717
▁ideas	-9.37756
▁facebook	-9.378
▁worked	-9.3781
▁reality	-9.37817
▁accept	-9.37865
▁door	-9.37869
▁pass	-9.38331
▁appreciate	-9.38427
▁lord	-9.38469
▁negative	-9.38546
▁across	-9.38548
▁particular	-9.38548
▁haven	-9.38728
▁lol	-9.38954
▁utterly	-9.39073
▁heartless	-9.39295
▁img	-9.39347
▁son	-9.39488
▁public	-9.3958
▁victimized	-9.3959
▁nor	-9.39604
▁create	-9.39833
▁forever	-9.3984
▁sister	-9.39915
▁fat	-9.40229
▁reach	-9.40498
▁meeting	-9.40515
▁fast	-9.40551
b	-9.40629
▁remorseful	-9.40682
▁lots	-9.40732
▁idiotic	-9.40881
▁sun	-9.40984
▁assaulted	-9.4106
▁doubt	-9.41111
▁missing	-9.41401
▁faith	-9.41573
▁usual	-9.41661
▁visit	-9.41665
▁expect	-9.41669
it	-9.41759
▁posting	-9.41884
▁cut	-9.42182
▁issue	-9.42325
▁helping	-9.42437
▁spending	-9.42475
▁weather	-9.42528
▁information	-9.42902
▁result	-9.43456
▁connection	-9.43641
▁wanna	-9.4365
▁stuck	-9.43653
ta	-9.4386
▁arent	-9.43961
f	-9.43983
▁meant	-9.44079
▁alive	-9.44101
▁dress	-9.44185
▁events	-9.44413
▁stunned	-9.446
▁complete	-9.44775
▁society	-9.4479
▁daughter	-9.45164
▁anxiety	-9.45172
▁crap	-9.4521
▁nature	-9.45556
▁throw	-9.45636
▁distraught	-9.45748
▁yourself	-9.45946
▁ahead	-9.45989
▁form	-9.46098
▁sharing	-9.46134
▁takes	-9.46137
▁playful	-9.46192
▁experiences	-9.46459
▁happening	-9.4661
▁describe	-9.46633
▁characters	-9.46642
▁slowly	-9.46647
▁business	-9.46693
▁four	-9.46904
▁position	-9.46927
▁awesome	-9.47089
▁hateful	-9.47194
▁above	-9.473
▁eye	-9.47415
▁offer	-9.47485
▁elegant	-9.47692
▁fight	-9.47746
▁noticed	-9.47766
▁target	-9.47912
▁gives	-9.48018
▁enjoyed	-9.48052
▁keeping	-9.48276
▁check	-9.48432
▁drink	-9.48468
▁fairly	-9.48755
▁badly	-9.48891
▁confidence	-9.49274
▁possibly	-9.4929
▁f	-9.49323
▁breath	-9.49463
or	-9.49872
▁clean	-9.49874
▁gracious	-9.50075
▁places	-9.50165
▁legs	-9.50351
▁gift	-9.50527
▁seemed	-9.50608
▁struggle	-9.50622
▁sociable	-9.5068
▁shamed	-9.50731
▁large	-9.50863
▁online	-9.51061
▁sleeping	-9.51077
▁aware	-9.51236
▁die	-9.51441
▁simple	-9.5184
▁choice	-9.51856
▁middle	-9.51901
▁emotion	-9.5191
▁holiday	-9.52139
▁clear	-9.52292
▁five	-9.52526
▁blamed	-9.52593
▁mouth	-9.52734
▁treat	-9.52783
▁stopped	-9.53143
▁career	-9.53337
▁follow	-9.53472
▁whom	-9.53554
th	-9.53648
▁drive	-9.5375
p	-9.53829
▁star	-9.5398
▁wouldn	-9.53994
▁entertained	-9.53996
▁w	-9.53997
▁birthday	-9.54014
▁known	-9.54102
▁extra	-9.54362
▁devoted	-9.54399
en	-9.54401
▁minute	-9.54436
▁mention	-9.54571
▁dreams	-9.54692
us	-9.54737
▁blood	-9.54738
▁training	-9.54992
▁sarcastic	-9.55019
as	-9.55068
▁color	-9.55082
▁lie	-9.55094
▁v	-9.55615
▁purpose	-9.55633
▁written	-9.55663
less	-9.55676
▁mess	-9.55774
▁memories	-9.55868
▁pregnant	-9.56081
▁charming	-9.56104
▁brother	-9.56142
▁currently	-9.56213
▁unless	-9.56311
▁caught	-9.56509
ies	-9.5659
w	-9.56707
▁dance	-9.56723
▁leaves	-9.56802
▁truthful	-9.56812
▁pray	-9.56873
▁obnoxious	-9.57154
▁jolly	-9.57154
▁dog	-9.57237
▁earlier	-9.5737
▁video	-9.57416
▁avoid	-9.57421
▁slow	-9.57426
▁fuck	-9.57534
▁area	-9.57768
▁beauty	-9.57803
▁affectionate	-9.57804
▁managed	-9.58296
▁helped	-9.58384
▁situations	-9.58407
▁uptight	-9.58457
▁coffee	-9.58895
▁difference	-9.58972
▁g	-9.59004
▁calling	-9.59102
▁computer	-9.59115
▁system	-9.59192
▁bored	-9.59343
▁event	-9.5947
▁handle	-9.59542
▁notice	-9.59971
▁view	-9.60018
▁lively	-9.60131
▁growing	-9.60134
▁immediately	-9.60247
▁brought	-9.60444
▁chest	-9.60453
▁itself	-9.60506
an	-9.60814
▁consider	-9.60872
▁bouncy	-9.60902
▁page	-9.61012
▁attempt	-9.61027
▁r	-9.61144
▁town	-9.61175
▁failure	-9.61207
▁practice	-9.61212
▁de	-9.61322
▁count	-9.61399
▁falling	-9.61508
▁afternoon	-9.61565
▁odd	-9.61686
▁broken	-9.61869
▁boys	-9.61942
▁expected	-9.62008
▁current	-9.62103
x	-9.6246
▁friday	-9.62471
▁outraged	-9.62477
ie	-9.62739
uiet	-9.63016
▁knows	-9.63103
▁terribly	-9.63156
u	-9.63183
▁period	-9.63261
▁whats	-9.63536
▁results	-9.63636
▁lett	-9.63806
▁internet	-9.63846
▁exercise	-9.63871
▁lead	-9.63874
man	-9.63912
▁path	-9.64313
▁mentally	-9.64402
▁date	-9.64415
▁tv	-9.64598
▁furious	-9.64773
▁bitch	-9.64834
▁link	-9.64969
▁watched	-9.65037
▁mix	-9.65103
▁strength	-9.65201
▁apart	-9.65346
▁doctor	-9.6538
z	-9.65385
▁direction	-9.65408
▁overwhelming	-9.65501
▁received	-9.6553
▁poor	-9.65573
▁road	-9.65593
▁tad	-9.65594
▁stronger	-9.6565
▁sounds	-9.66502
k	-9.6666
▁kiss	-9.66695
▁urge	-9.66786
▁bought	-9.6689
▁physical	-9.6722
▁stage	-9.67268
▁ex	-9.6728
▁sunday	-9.67502
▁paper	-9.67743
▁straight	-9.67756
▁posted	-9.67815
▁taste	-9.6791
▁text	-9.67975
▁morose	-9.68087
▁series	-9.68087
▁hide	-9.68173
▁nearly	-9.68279
▁resigned	-9.68334
▁lazy	-9.6857
▁relationships	-9.68617
▁spot	-9.68716
▁aggravated	-9.68811
▁knowledge	-9.68819
▁throughout	-9.68837
▁fill	-9.68864
▁passed	-9.69052
▁isn	-9.69157
▁ride	-9.69242
▁jesus	-9.69297
▁changes	-9.69304
▁songs	-9.69357
▁experienced	-9.69422
ling	-9.69423
▁student	-9.69447
▁weak	-9.69528
▁interesting	-9.69534
▁depression	-9.69542
▁stick	-9.69555
▁older	-9.69967
▁normally	-9.70102
▁favorite	-9.70185
▁winter	-9.70206
▁onto	-9.70335
▁catch	-9.70456
▁struggling	-9.70522
▁send	-9.70555
▁fab	-9.70615
ally	-9.70705
▁literally	-9.70777
▁changed	-9.70873
▁progress	-9.70907
▁study	-9.70993
▁wind	-9.71017
▁considerate	-9.71268
▁talked	-9.71335
▁challenge	-9.71353
▁shake	-9.714
▁fan	-9.71429
uality	-9.71734
▁store	-9.71768
▁culture	-9.71944
▁teacher	-9.72219
▁non	-9.72264
▁mentioned	-9.72476
▁further	-9.72518
▁actions	-9.72528
▁betrayed	-9.72531
▁decide	-9.72759
▁vicious	-9.72767
▁dead	-9.72767
▁himself	-9.72778
▁regret	-9.72902
▁entirely	-9.73003
▁rel	-9.7324
▁pregnancy	-9.73526
▁environment	-9.73734
▁st	-9.73951
▁shows	-9.74129
▁filled	-9.74223
▁blogs	-9.74256
▁pre	-9.7428
▁understanding	-9.74354
▁became	-9.74548
▁perfectly	-9.74678
▁co	-9.74796
▁lunch	-9.74803
▁works	-9.74826
▁freedom	-9.74996
▁smell	-9.75402
▁email	-9.75517
▁role	-9.7552
▁heat	-9.7553
▁goal	-9.75606
▁hopefully	-9.75782
▁j	-9.75879
▁standing	-9.75963
▁photo	-9.76051
ity	-9.76064
▁pieces	-9.76117
▁track	-9.76403
▁died	-9.76526
▁ease	-9.76625
▁helps	-9.76768
▁win	-9.7677
▁ending	-9.76777
▁hang	-9.77098
▁uni	-9.77216
▁message	-9.77289
▁local	-9.77507
▁forgive	-9.77629
▁thanks	-9.77847
▁language	-9.77889
▁service	-9.77891
▁bus	-9.77994
▁silly	-9.78209
▁shoes	-9.78341
▁x	-9.78376
▁agree	-9.78632
▁teaching	-9.78718
▁shop	-9.78751
v	-9.78754
▁lady	-9.78761
▁overall	-9.79196
▁repressed	-9.79549
▁saturday	-9.79549
▁ground	-9.79616
▁admired	-9.79851
▁trouble	-9.80237
▁monday	-9.80321
▁test	-9.80602
▁blue	-9.80771
▁eventually	-9.80918
▁gt	-9.81089
▁holding	-9.81118
▁parts	-9.81167
▁members	-9.81367
▁english	-9.81457
▁driving	-9.81457
▁handsome	-9.81462
▁unable	-9.81483
▁involved	-9.81486
▁table	-9.81495
▁choices	-9.81516
▁neglectful	-9.81733
▁obviously	-9.81792
▁ridiculous	-9.82011
▁lived	-9.82152
▁attitude	-9.82276
▁gym	-9.82286
▁serious	-9.82404
▁rain	-9.82523
▁marriage	-9.82563
▁contact	-9.82634
▁hearing	-9.82768
▁lay	-9.82916
▁park	-9.83043
▁subject	-9.83071
▁enraged	-9.83121
▁shopping	-9.83123
▁interested	-9.83578
▁soft	-9.83719
▁force	-9.839
▁girlfriend	-9.83946
▁whiney	-9.83977
▁bag	-9.83988
▁interest	-9.84062
▁drinking	-9.84074
▁plans	-9.84317
▁response	-9.84515
▁indecisive	-9.84529
▁therefore	-9.84529
ment	-9.84787
▁main	-9.84808
▁married	-9.84826
▁based	-9.84842
▁barely	-9.84862
▁timid	-9.85099
▁staying	-9.85286
ne	-9.85336
▁action	-9.85365
▁history	-9.85396
▁fre	-9.8574
▁bike	-9.85896
▁size	-9.85944
▁excitement	-9.85958
▁similar	-9.85961
▁outgoing	-9.86001
▁wedding	-9.86029
▁la	-9.86176
▁hospital	-9.8624
▁basically	-9.86249
▁street	-9.86257
▁join	-9.86271
▁created	-9.86667
▁sudden	-9.86685
▁cat	-9.86803
▁yeah	-9.86861
▁natural	-9.86975
▁overly	-9.87048
▁card	-9.87148
▁final	-9.87222
▁following	-9.87502
▁anywhere	-9.877
▁hungry	-9.87702
▁term	-9.87719
▁held	-9.8775
▁success	-9.87961
▁asleep	-9.87993
▁friendship	-9.88007
ch	-9.88087
▁clearly	-9.88489
▁product	-9.88567
▁total	-9.88578
▁plus	-9.88714
▁games	-9.88732
▁moved	-9.88908
▁sent	-9.8899
▁per	-9.89005
ist	-9.89166
▁green	-9.89167
▁fault	-9.89185
▁fearless	-9.89375
▁lips	-9.89667
▁image	-9.89692
▁heavy	-9.89771
▁somebody	-9.89779
▁fresh	-9.8991
▁easier	-9.9007
▁university	-9.9007
▁neurotic	-9.90071
▁topic	-9.90079
▁goals	-9.90146
▁among	-9.90226
▁otherwise	-9.90376
▁tiny	-9.90381
▁nights	-9.9043
am	-9.90449
▁chocolate	-9.90672
▁media	-9.90786
▁willing	-9.90793
▁nobody	-9.90981
▁carry	-9.91015
▁fell	-9.91104
▁teach	-9.91237
ous	-9.91441
▁haha	-9.91533
ia	-9.91864
▁cos	-9.91897
▁floor	-9.91912
▁value	-9.92141
▁chose	-9.92163
▁pained	-9.9236
▁shower	-9.92604
▁fix	-9.92659
▁graceful	-9.92665
▁allowing	-9.92691
▁research	-9.92806
▁fail	-9.93004
▁skills	-9.9303
▁american	-9.93109
▁fire	-9.93119
▁passion	-9.93161
▁decisions	-9.93352
▁responsibility	-9.93429
▁spring	-9.93456
▁fans	-9.93532
▁classes	-9.93563
ur	-9.93569
▁treated	-9.94003
▁relax	-9.94214
▁terms	-9.94355
▁twitter	-9.94359
▁slutty	-9.94359
▁edge	-9.94408
▁fashion	-9.94798
▁breeze	-9.94987
▁artist	-9.95035
▁box	-9.95073
▁train	-9.95161
▁cover	-9.95212
▁balance	-9.9522
▁bunch	-9.95307
na	-9.95413
▁round	-9.95492
▁projects	-9.95545
ra	-9.95554
▁gratitude	-9.95619
▁advice	-9.95619
▁diet	-9.95726
▁save	-9.95887
ce	-9.95925
▁giggly	-9.95936
▁partner	-9.96006
▁miles	-9.96023
▁letter	-9.96075
▁tea	-9.96187
▁manage	-9.96203
▁none	-9.96334
▁closer	-9.96346
ry	-9.96435
ation	-9.96463
▁cycle	-9.96493
ish	-9.96551
ri	-9.96737
▁jump	-9.96805
▁movies	-9.96845
▁awake	-9.97148
▁prove	-9.97154
▁neck	-9.97541
▁compared	-9.9758
▁band	-9.97618
▁afterwards	-9.97691
nt	-9.97703
▁parent	-9.97716
uick	-9.9786
▁worst	-9.97867
▁pity	-9.97916
▁prefer	-9.98071
▁thus	-9.98213
▁dealing	-9.98263
▁ass	-9.98306
▁fingers	-9.98309
▁kick	-9.98458
▁waking	-9.98513
▁considering	-9.98586
▁hadnt	-9.9876
▁shall	-9.98842
▁ten	-9.98949
▁shame	-9.99128
▁sorts	-9.99165
▁rarely	-9.99236
▁window	-9.99244
▁tran	-9.99264
▁previous	-9.99685
▁kill	-9.99783
▁hurts	-9.99856
▁bar	-9.99995
▁ignore	-10.0007
▁ran	-10.0009
▁showing	-10.0013
▁birth	-10.0016
▁en	-10.0034
▁corner	-10.0059
▁site	-10.0062
uil	-10.0088
▁approach	-10.01
▁writer	-10.011
▁shut	-10.0111
▁played	-10.0118
▁speaking	-10.0121
▁y	-10.0122
▁mirror	-10.0124
▁outfit	-10.0126
▁review	-10.0136
▁ache	-10.014
▁sugar	-10.0141
▁creating	-10.0149
▁version	-10.0158
▁drop	-10.0159
▁shape	-10.016
▁potential	-10.0169
▁shared	-10.0178
▁products	-10.0182
▁changing	-10.0183
▁experiencing	-10.0217
▁third	-10.0217
▁program	-10.0218
ng	-10.0236
▁audience	-10.026
▁planning	-10.0285
▁search	-10.0291
▁genuinely	-10.0291
uit	-10.0306
▁beat	-10.0322
▁major	-10.0338
▁complain	-10.0339
ism	-10.0352
▁cried	-10.0354
▁travel	-10.0363
▁receive	-10.0372
▁rock	-10.0382
▁harder	-10.0387
▁grown	-10.0396
▁scene	-10.0398
▁mental	-10.0408
▁efforts	-10.0416
▁born	-10.0422
▁design	-10.0426
▁inner	-10.0428
▁cup	-10.0433
▁workout	-10.0438
▁sore	-10.0461
▁opinion	-10.0467
▁wall	-10.0472
▁strangely	-10.0478
▁sky	-10.0481
▁kitchen	-10.0491
▁blame	-10.0498
▁adult	-10.0503
▁dear	-10.0511
▁member	-10.0512
▁building	-10.0527
▁warmth	-10.0528
▁gods	-10.054
▁gut	-10.0547
▁accomplished	-10.0572
▁constant	-10.0582
▁flow	-10.0592
▁likely	-10.0601
▁loves	-10.0614
▁mum	-10.0629
▁throat	-10.0631
▁recall	-10.0649
to	-10.065
▁buying	-10.0675
▁appreciated	-10.0683
▁recent	-10.0688
▁relief	-10.0702
▁manner	-10.0703
▁effects	-10.0721
▁picked	-10.074
▁discuss	-10.0756
▁hurting	-10.0761
▁wine	-10.0762
▁pride	-10.0769
▁bear	-10.077
▁relate	-10.0771
ted	-10.0804
▁ha	-10.0816
▁camera	-10.0835
▁education	-10.0837
▁memory	-10.0845
▁holidays	-10.0875
▁families	-10.0881
▁childhood	-10.0882
▁six	-10.0884
▁fair	-10.0895
▁pop	-10.09
▁breathe	-10.0906
▁christ	-10.0916
▁h	-10.0935
rs	-10.0952
▁grew	-10.0954
▁surrounded	-10.0961
▁weve	-10.0984
▁draw	-10.0995
▁lying	-10.0995
▁actual	-10.1001
▁behavior	-10.1005
▁shot	-10.101
▁random	-10.1011
▁distance	-10.1019
▁reached	-10.1026
▁everybody	-10.1028
▁till	-10.1035
▁provide	-10.1049
▁field	-10.1051
▁war	-10.1053
▁shouldn	-10.1058
ary	-10.1059
ul	-10.1062
▁promise	-10.1071
▁turning	-10.1084
▁forced	-10.1089
▁ice	-10.109
▁government	-10.1101
▁slept	-10.1102
▁meal	-10.1111
▁lets	-10.1123
▁keeps	-10.1131
▁pm	-10.1134
▁yoga	-10.1139
▁herself	-10.114
▁burden	-10.1157
▁chosen	-10.1179
▁reflect	-10.118
▁indeed	-10.1212
▁motivated	-10.1214
▁alarmed	-10.1219
▁author	-10.1228
▁gain	-10.1247
▁li	-10.1249
▁defective	-10.125
▁prepared	-10.1255
▁pace	-10.1272
▁acting	-10.1284
▁fellow	-10.1287
▁properly	-10.1297
▁exam	-10.1301
▁effect	-10.1304
▁tough	-10.1312
▁schedule	-10.1334
▁foot	-10.1337
▁excuse	-10.1342
▁figured	-10.1351
ar	-10.1358
▁glass	-10.1362
▁babies	-10.1363
▁vague	-10.1363
▁typing	-10.1363
▁na	-10.1388
▁couch	-10.1401
is	-10.1412
▁added	-10.1413
▁sensation	-10.1419
ma	-10.144
▁task	-10.1464
▁snow	-10.1478
j	-10.1482
▁includ	-10.1491
▁routine	-10.1496
▁hey	-10.1507
um	-10.1514
▁answers	-10.1515
▁unprotected	-10.1516
▁hug	-10.1553
▁sign	-10.1557
uently	-10.1576
▁images	-10.1592
▁folks	-10.1605
▁shirt	-10.1616
▁loud	-10.1616
▁regular	-10.1618
▁build	-10.1624
▁unsuccessful	-10.1632
▁basis	-10.1632
▁breakfast	-10.1632
▁forgotten	-10.1632
▁staff	-10.1633
▁dying	-10.1633
▁arm	-10.1638
▁related	-10.1645
▁whose	-10.1654
▁paint	-10.1661
▁bottom	-10.1671
▁gay	-10.1676
▁bother	-10.1679
▁angered	-10.1683
▁teachers	-10.1686
▁fighting	-10.1687
▁waste	-10.1701
▁garden	-10.1703
▁motivation	-10.171
▁reminded	-10.1716
▁areas	-10.1724
▁stayed	-10.1725
▁land	-10.1726
▁drunk	-10.1748
▁twice	-10.175
▁universe	-10.175
el	-10.1753
▁judged	-10.1756
▁vacation	-10.177
▁treatment	-10.1771
▁suffer	-10.1784
▁serve	-10.179
▁belong	-10.181
▁mr	-10.1826
▁perspective	-10.1829
▁energized	-10.183
▁nap	-10.1842
▁remain	-10.1844
ant	-10.1844
▁tree	-10.185
▁con	-10.186
▁alot	-10.1887
▁cared	-10.1894
▁reaction	-10.1903
ful	-10.1908
▁forgot	-10.1909
▁sensitive	-10.1909
▁thanksgiving	-10.1909
▁apartment	-10.1911
▁caused	-10.1913
▁peoples	-10.1915
▁height	-10.1935
▁opinions	-10.1936
▁dis	-10.1938
▁ate	-10.194
▁achieve	-10.194
▁ball	-10.1949
▁details	-10.1954
▁realised	-10.196
▁headache	-10.1963
▁younger	-10.1964
▁powerful	-10.1969
▁cream	-10.1989
▁release	-10.2003
▁circumstances	-10.2004
▁pure	-10.2007
▁pair	-10.201
▁radiant	-10.203
▁studying	-10.2034
▁meaning	-10.2035
▁concerned	-10.204
▁focused	-10.2043
▁connected	-10.2048
▁interview	-10.2065
▁gifts	-10.2066
la	-10.2067
▁increasingly	-10.2073
▁animals	-10.2076
▁law	-10.2079
▁example	-10.2094
se	-10.2098
▁connect	-10.2106
▁em	-10.2147
▁existence	-10.2152
▁hanging	-10.2154
▁treasured	-10.2155
▁sing	-10.2156
▁professional	-10.2162
▁ya	-10.2163
▁button	-10.2163
▁l	-10.2176
▁frustration	-10.2176
▁risk	-10.2177
ton	-10.2178
▁false	-10.2193
▁capable	-10.2194
▁youll	-10.2216
▁note	-10.2224
ty	-10.2231
ley	-10.2231
▁failed	-10.2259
▁article	-10.2259
▁pleasure	-10.226
▁apologize	-10.2268
▁continued	-10.2271
▁lesson	-10.2278
▁planned	-10.2279
▁secret	-10.228
▁america	-10.2281
▁laughing	-10.2303
▁starts	-10.2311
▁cross	-10.2314
▁arrived	-10.2322
▁journal	-10.2329
▁album	-10.2343
▁match	-10.2355
▁impact	-10.236
▁mark	-10.2365
▁sea	-10.2382
▁screen	-10.241
ro	-10.242
▁freak	-10.2457
▁headed	-10.2471
▁belly	-10.248
▁brings	-10.2489
ually	-10.2499
▁regard	-10.2501
▁beach	-10.2512
▁degree	-10.2513
▁cards	-10.2524
▁leg	-10.2528
▁understood	-10.2529
▁common	-10.2529
▁makeup	-10.2542
▁expectations	-10.2546
▁roll	-10.2563
ah	-10.2563
▁confess	-10.2567
▁pulled	-10.2586
▁painting	-10.26
▁movement	-10.2602
▁advantage	-10.2615
▁wimpy	-10.2615
▁cancer	-10.2616
▁discovered	-10.2627
▁bringing	-10.2632
▁flat	-10.2641
▁reader	-10.2645
▁wide	-10.2647
▁steps	-10.2649
▁protect	-10.2651
▁aside	-10.2651
▁paid	-10.2658
▁spiteful	-10.2658
▁feed	-10.2684
▁finger	-10.2686
▁inspiration	-10.2689
▁bottle	-10.2695
▁dry	-10.27
▁stood	-10.2701
▁duty	-10.2701
▁plain	-10.2701
▁grade	-10.271
▁update	-10.2721
▁performance	-10.2729
▁grief	-10.2744
▁dismayed	-10.2746
▁instantly	-10.2749
▁core	-10.2754
age	-10.2757
ine	-10.2765
▁embrace	-10.2784
▁club	-10.2788
▁points	-10.2803
▁sexual	-10.2808
▁idiot	-10.2813
▁socially	-10.2826
▁everywhere	-10.2832
▁brand	-10.2856
▁drama	-10.2861
▁recognize	-10.2871
▁se	-10.2873
▁google	-10.2876
▁cuz	-10.2882
ter	-10.2883
▁maintain	-10.2902
▁muscles	-10.2908
▁complaining	-10.2912
▁activities	-10.292
▁ourselves	-10.292
▁desperately	-10.2933
▁press	-10.2933
os	-10.2945
▁conscious	-10.2949
▁neither	-10.2965
▁pushing	-10.2966
▁chat	-10.2967
▁annoying	-10.2971
ac	-10.2978
▁mid	-10.3001
▁cheated	-10.3016
▁mistakes	-10.3022
▁christian	-10.304
li	-10.3043
▁semester	-10.3054
▁bright	-10.3061
▁ac	-10.3065
▁cares	-10.3071
▁zone	-10.3072
▁mistake	-10.3083
▁blogger	-10.3088
▁encourage	-10.309
▁john	-10.3099
▁assume	-10.31
▁vile	-10.3101
▁prayer	-10.3139
▁unwanted	-10.3144
▁rid	-10.3146
▁mothers	-10.3154
▁werent	-10.3161
▁episode	-10.3177
▁worrying	-10.318
▁adventure	-10.3184
▁sight	-10.319
▁entry	-10.319
▁background	-10.3191
▁swear	-10.3209
et	-10.321
▁passing	-10.3215
▁attack	-10.3224
ated	-10.3229
▁realise	-10.3232
▁familiar	-10.3235
▁suspect	-10.3236
▁panic	-10.3236
▁sorrowful	-10.3236
▁personality	-10.3238
▁cleaning	-10.3253
▁sexy	-10.3258
▁respond	-10.3269
▁session	-10.3269
ian	-10.3272
▁writers	-10.3275
▁cook	-10.3279
▁rush	-10.3282
▁disliked	-10.329
▁individual	-10.3301
▁wishing	-10.3313
▁thinks	-10.3315
ious	-10.3316
▁items	-10.3318
▁mile	-10.332
me	-10.3351
▁pretend	-10.3375
▁shoulder	-10.3378
▁foods	-10.3416
▁compassion	-10.342
▁anybody	-10.3421
▁camp	-10.3423
▁singing	-10.3457
▁novel	-10.3457
▁opened	-10.3466
▁dating	-10.3475
▁below	-10.3475
mo	-10.3481
▁higher	-10.3492
▁claim	-10.3503
▁loneliness	-10.3514
▁awhile	-10.352
▁mainly	-10.3537
▁spiritual	-10.3547
▁jobs	-10.3555
iness	-10.3559
▁grace	-10.3561
▁industry	-10.3561
▁opportunities	-10.3561
▁teeth	-10.3562
▁aren	-10.3586
ts	-10.3594
▁dr	-10.3596
▁considered	-10.3599
▁benevolent	-10.3609
▁smiling	-10.3609
▁relatively	-10.3615
▁necessarily	-10.3615
▁board	-10.3632
▁freaking	-10.364
▁paying	-10.3643
▁artists	-10.3649
▁moms	-10.3658
▁surprise	-10.3685
▁teenager	-10.3695
ate	-10.3709
▁pounds	-10.3728
▁accepting	-10.373
▁ear	-10.3742
▁surgery	-10.3752
▁remembered	-10.3792
▁welcome	-10.3792
▁block	-10.3821
▁gained	-10.3823
▁becomes	-10.3842
▁anti	-10.3843
▁opening	-10.3851
▁enter	-10.3856
▁lines	-10.386
▁lessons	-10.3872
▁hole	-10.3882
▁desperate	-10.3884
▁account	-10.3886
▁conversations	-10.3891
▁speed	-10.3898
▁expecting	-10.3922
▁bath	-10.3928
▁price	-10.3928
les	-10.3934
▁whil	-10.3935
▁plenty	-10.3947
▁wash	-10.3974
▁intense	-10.3982
▁benefit	-10.3987
ad	-10.3995
▁specific	-10.3996
▁returned	-10.4003
▁breathing	-10.4015
▁incredible	-10.4026
▁loose	-10.4034
ee	-10.4078
ent	-10.4084
▁improve	-10.4087
▁record	-10.4091
▁exciting	-10.4095
▁desk	-10.4096
▁joke	-10.4141
▁ludicrous	-10.4145
▁marathon	-10.4145
▁hasnt	-10.4166
▁pro	-10.4178
co	-10.4184
▁include	-10.4185
▁celebrate	-10.4187
▁slip	-10.4188
▁ought	-10.4196
▁turns	-10.4199
▁everytime	-10.4201
▁occasionally	-10.4203
▁lighter	-10.4215
ha	-10.4216
no	-10.4224
▁picking	-10.4229
▁political	-10.4232
▁painful	-10.4235
▁fed	-10.4242
▁satisfaction	-10.4246
▁tongue	-10.4246
▁majority	-10.4247
▁calls	-10.4261
▁bet	-10.4265
▁abuse	-10.4267
▁illness	-10.4275
▁drawing	-10.4276
▁appear	-10.4294
▁impossible	-10.4297
▁lifestyle	-10.4298
▁pour	-10.4302
▁market	-10.4313
land	-10.4323
▁seat	-10.4323
▁nose	-10.4332
▁blessings	-10.4334
be	-10.434
▁animal	-10.4341
▁horribly	-10.4348
ti	-10.4357
▁deeper	-10.4365
ut	-10.4374
▁pages	-10.4378
▁cooking	-10.4379
▁included	-10.438
il	-10.4389
▁secure	-10.4391
▁appalled	-10.4399
▁necessary	-10.4399
▁deny	-10.4402
▁reply	-10.4402
▁fears	-10.4405
arious	-10.4407
▁shoot	-10.4417
ive	-10.4432
▁judge	-10.4433
▁breaking	-10.4435
▁detail	-10.4444
▁besides	-10.4449
▁bathroom	-10.4451
▁switch	-10.4452
▁closed	-10.4454
▁battle	-10.4455
▁recommend	-10.4456
▁aspects	-10.4457
▁material	-10.4462
led	-10.4494
▁escape	-10.4494
▁dislike	-10.4496
ga	-10.4496
▁source	-10.4496
▁lower	-10.4497
▁pack	-10.4501
▁facing	-10.4503
▁bigger	-10.4504
uest	-10.4527
▁matters	-10.4543
▁circle	-10.4548
▁lies	-10.4551
▁happier	-10.4555
▁opposite	-10.4555
▁sake	-10.456
▁aspect	-10.4584
▁heaven	-10.4586
▁patient	-10.4588
▁original	-10.4592
un	-10.4595
▁religion	-10.46
▁female	-10.4601
▁victim	-10.4601
▁appointment	-10.4601
▁prevent	-10.4607
▁frankly	-10.4612
▁web	-10.4624
▁tight	-10.4627
▁exams	-10.4636
ci	-10.4637
▁thursday	-10.466
▁splendid	-10.466
▁dancing	-10.466
▁regardless	-10.4661
▁pants	-10.4673
▁worn	-10.4687
▁followed	-10.4705
▁report	-10.471
▁differently	-10.4712
▁petrified	-10.4712
▁silence	-10.4712
▁humorous	-10.4713
▁mildly	-10.4718
do	-10.4719
▁feelin	-10.472
▁faster	-10.4726
▁chair	-10.473
▁naturally	-10.4738
▁regarding	-10.4747
▁suit	-10.4748
da	-10.4753
▁phase	-10.4766
by	-10.4766
▁attend	-10.4773
▁wasted	-10.4773
▁praying	-10.4781
▁doctors	-10.4792
▁blah	-10.4795
▁crowd	-10.4798
▁expression	-10.4818
▁rough	-10.482
▁setting	-10.4821
▁growth	-10.4821
▁practical	-10.483
▁react	-10.483
▁blow	-10.4837
▁da	-10.4851
▁fish	-10.4855
▁seek	-10.4861
▁wise	-10.4864
▁tuesday	-10.4873
▁owe	-10.4879
▁apparently	-10.488
▁insane	-10.4927
▁sending	-10.4933
▁healing	-10.4946
▁dressed	-10.4978
▁wednesday	-10.4981
▁overcome	-10.4981
▁plot	-10.4981
▁bookmark	-10.4982
▁abilities	-10.4982
▁sisters	-10.4992
▁achieved	-10.4992
▁radio	-10.4993
▁pen	-10.5004
▁scream	-10.5004
▁explained	-10.5006
▁refuse	-10.5028
▁prepare	-10.5028
▁laundry	-10.5036
▁laid	-10.5036
▁jeans	-10.5047
▁stranger	-10.5061
▁walls	-10.5073
▁dogs	-10.5086
ke	-10.5087
▁available	-10.5091
▁lift	-10.51
line	-10.5104
▁rage	-10.5107
▁suck	-10.5112
sh	-10.5127
▁disappointment	-10.5143
▁evil	-10.5146
▁planet	-10.5155
up	-10.5165
▁regularly	-10.5166
▁needing	-10.5188
▁credit	-10.52
▁possibility	-10.5202
▁president	-10.5202
▁naked	-10.5205
▁exist	-10.521
▁shift	-10.5213
▁cast	-10.5232
▁rules	-10.5244
▁accident	-10.5254
▁london	-10.5258
▁responsible	-10.5258
▁causing	-10.5258
▁font	-10.5258
▁spread	-10.5258
▁extent	-10.5261
▁repeat	-10.5268
▁led	-10.5272
ence	-10.5287
▁views	-10.5293
▁proper	-10.5301
▁hopes	-10.5302
▁collection	-10.5312
▁expressing	-10.5313
▁favourite	-10.5314
▁lil	-10.5316
▁kinds	-10.5321
▁flu	-10.5321
im	-10.5321
▁option	-10.5322
▁accomplish	-10.5324
▁habit	-10.5355
▁wild	-10.5364
▁carrying	-10.5365
▁status	-10.5368
▁cheer	-10.5369
▁stare	-10.537
▁coz	-10.537
▁security	-10.537
▁cake	-10.5372
▁safety	-10.5373
follow	-10.5379
▁key	-10.5382
▁helpful	-10.5387
▁touched	-10.5405
▁youth	-10.5422
▁wrap	-10.5425
▁receiving	-10.5427
▁dunno	-10.5428
▁pink	-10.5437
▁struggled	-10.545
▁bones	-10.5458
▁curl	-10.5459
▁center	-10.5468
▁storm	-10.5486
▁symptoms	-10.5494
▁player	-10.5506
▁hearts	-10.552
▁colour	-10.5522
▁worthy	-10.5524
▁correct	-10.5524
▁levels	-10.5536
▁wet	-10.554
▁vision	-10.554
▁ends	-10.5541
▁insincere	-10.5542
▁sympathy	-10.5542
▁sunshine	-10.5542
▁ladies	-10.5542
▁bloggers	-10.5559
▁punch	-10.5563
ier	-10.5592
▁magic	-10.5595
▁dare	-10.5596
▁courage	-10.5598
▁afford	-10.5599
▁capture	-10.5608
ol	-10.5608
▁explore	-10.5639
▁settle	-10.5647
▁combination	-10.5658
▁jerk	-10.5658
▁million	-10.5659
▁sam	-10.5672
▁faces	-10.5681
ized	-10.5683
▁tone	-10.57
▁raise	-10.5708
▁taught	-10.5716
son	-10.5728
▁messages	-10.5728
▁fly	-10.5734
▁climb	-10.5748
▁boss	-10.5774
▁police	-10.5775
▁machine	-10.5775
▁burst	-10.5776
▁recipe	-10.5776
▁via	-10.5784
▁showed	-10.5785
▁strangers	-10.5785
he	-10.5798
▁colors	-10.582
▁names	-10.5821
▁luck	-10.5826
and	-10.5831
▁disease	-10.5834
▁defend	-10.5834
▁decent	-10.5834
▁solid	-10.5834
ance	-10.5836
▁bank	-10.5837
▁shoulders	-10.5843
▁challenges	-10.5854
▁groups	-10.5867
▁listened	-10.587
▁mission	-10.587
▁wave	-10.589
▁spoke	-10.5891
▁december	-10.5894
▁shout	-10.5894
▁male	-10.5897
▁ba	-10.5924
▁condition	-10.5937
▁print	-10.5937
▁master	-10.5943
▁conse	-10.5954
▁thoroughly	-10.5955
▁invited	-10.5959
▁screaming	-10.5984
▁causes	-10.5996
ey	-10.6
▁technology	-10.6014
▁surface	-10.6014
▁transition	-10.6014
▁sorrow	-10.6014
▁var	-10.6018
▁statement	-10.6018
▁hiding	-10.6019
▁homework	-10.6019
▁sweat	-10.603
▁sell	-10.6032
▁throwing	-10.604
▁smoke	-10.6043
▁riding	-10.6051
▁patience	-10.6074
▁unknown	-10.6074
▁begun	-10.6074
▁grey	-10.6076
▁belief	-10.6077
▁darkness	-10.6081
▁flying	-10.6103
▁beside	-10.6123
at	-10.6125
▁mail	-10.613
▁acknowledge	-10.6131
▁jubilant	-10.6135
▁trapped	-10.6135
▁gross	-10.6136
▁affection	-10.6138
tic	-10.6141
▁grab	-10.6145
▁bill	-10.6145
▁leading	-10.6147
▁shell	-10.6168
▁killed	-10.6168
▁forth	-10.6177
▁contribute	-10.6188
▁atmosphere	-10.6197
▁depth	-10.62
▁liking	-10.62
▁justice	-10.621
ba	-10.622
▁beating	-10.6223
▁heading	-10.6229
▁esteem	-10.6258
▁development	-10.626
▁burn	-10.6264
▁stars	-10.627
ff	-10.6271
lo	-10.6273
▁ne	-10.6282
▁hoped	-10.6293
▁nails	-10.631
ual	-10.6315
▁creativity	-10.6321
cy	-10.6322
▁fruit	-10.6328
▁hadn	-10.6347
ca	-10.6348
▁knock	-10.6355
▁meat	-10.6359
▁suggest	-10.6368
ard	-10.6373
▁mo	-10.6382
▁drove	-10.6383
▁solemn	-10.6383
▁flawless	-10.6383
▁activity	-10.6383
▁surprisingly	-10.6386
▁sucks	-10.6387
▁ages	-10.6388
▁scale	-10.639
▁covered	-10.6418
▁ma	-10.6419
▁extreme	-10.6443
uote	-10.6444
▁dropped	-10.6446
▁prospect	-10.645
▁classroom	-10.6451
▁cost	-10.6451
▁chicken	-10.6451
▁guest	-10.6452
▁harm	-10.6452
▁active	-10.6461
▁span	-10.6466
▁gun	-10.6469
ck	-10.6471
▁tasks	-10.6479
▁ears	-10.6482
▁fool	-10.6491
bo	-10.6505
▁alcohol	-10.6508
▁tension	-10.6509
id	-10.6513
▁charmed	-10.6514
▁appearance	-10.6514
▁section	-10.6514
▁ultimately	-10.6514
▁burning	-10.6538
▁lt	-10.6553
▁drugs	-10.6557
▁sin	-10.6565
▁offered	-10.6567
▁communication	-10.6573
▁library	-10.6573
▁scary	-10.6577
ge	-10.6578
▁humans	-10.6578
▁data	-10.6581
▁discover	-10.6583
▁players	-10.6584
▁abandoned	-10.6584
dding	-10.6599
▁states	-10.6604
▁affect	-10.6606
▁meals	-10.6613
▁loser	-10.6614
de	-10.6619
▁reviews	-10.662
▁compare	-10.6629
▁rant	-10.6637
▁goodbye	-10.6637
▁medical	-10.6638
▁committed	-10.664
▁hotel	-10.6641
▁admitted	-10.6642
▁website	-10.6643
▁chapter	-10.6643
▁solution	-10.6643
▁granted	-10.6643
ial	-10.665
▁flowers	-10.6677
▁obvious	-10.6687
▁medicine	-10.6702
▁seeming	-10.6702
▁options	-10.6704
▁restaurant	-10.6708
▁studio	-10.671
▁produce	-10.6713
▁le	-10.6714
▁develop	-10.6714
▁noise	-10.6718
▁pool	-10.6735
ably	-10.6736
▁finishing	-10.6749
▁thin	-10.6757
▁prince	-10.6757
▁tag	-10.6763
▁fever	-10.6766
▁november	-10.6766
▁nowhere	-10.6766
▁raw	-10.6767
▁grand	-10.6777
▁model	-10.6799
▁tear	-10.68
▁concept	-10.6812
▁brown	-10.6814
▁wow	-10.6834
mixed	-10.6838
▁medication	-10.6839
▁participate	-10.6841
▁frame	-10.6848
▁south	-10.6852
▁exact	-10.6884
▁runs	-10.6887
▁distinct	-10.6895
▁bashful	-10.6898
▁department	-10.6898
▁massive	-10.6905
▁directly	-10.6908
va	-10.6936
▁realiz	-10.694
▁knee	-10.6962
▁friendships	-10.6963
▁savage	-10.6964
▁discussion	-10.6974
▁mask	-10.6978
▁parties	-10.6981
▁moody	-10.7015
▁ring	-10.7021
▁unfortunately	-10.7029
▁purchase	-10.703
▁football	-10.7031
▁mommy	-10.7032
ps	-10.7035
▁customer	-10.704
▁gold	-10.704
op	-10.7044
▁ego	-10.7048
ny	-10.7049
▁range	-10.706
▁clients	-10.7067
▁brothers	-10.7079
▁films	-10.7094
▁religious	-10.7098
▁channel	-10.7098
▁therapy	-10.71
▁pet	-10.7102
▁bread	-10.7104
▁clothing	-10.7106
▁pattern	-10.7107
cing	-10.7132
▁pile	-10.7148
▁greater	-10.7154
▁encounter	-10.7156
▁access	-10.7165
▁sharp	-10.7165
▁unkind	-10.7165
▁skirt	-10.7174
▁holy	-10.7179
▁despair	-10.7206
▁believing	-10.7233
▁science	-10.7233
▁bedroom	-10.7234
▁award	-10.7238
▁fabric	-10.7243
▁speech	-10.7265
▁yell	-10.7277
▁financial	-10.7288
▁rare	-10.7288
▁modern	-10.7302
▁simultaneously	-10.7302
▁labor	-10.7302
▁lyrics	-10.7307
▁national	-10.7308
▁hence	-10.7311
▁individuals	-10.732
▁concern	-10.7336
▁north	-10.7345
▁believed	-10.7351
▁function	-10.7357
▁concentrate	-10.7362
▁laying	-10.737
▁romance	-10.7371
▁habits	-10.7373
▁milk	-10.7374
▁copy	-10.7376
▁moon	-10.738
▁someday	-10.7382
▁snap	-10.7384
▁limited	-10.7385
▁rise	-10.7386
▁heels	-10.739
▁address	-10.7392
▁sooo	-10.7396
▁greatly	-10.7398
▁tips	-10.7412
▁guide	-10.7434
time	-10.7436
▁crawl	-10.744
▁lu	-10.7444
▁bird	-10.7445
▁startled	-10.7447
▁filling	-10.745
▁thrown	-10.7451
▁apple	-10.7451
▁station	-10.7452
the	-10.7453
▁lover	-10.7457
▁nail	-10.7458
▁seconds	-10.7464
▁entered	-10.7466
▁sleepy	-10.7486
▁apply	-10.7494
mi	-10.7509
▁skip	-10.751
▁anticipation	-10.751
▁eight	-10.7511
▁mode	-10.7511
▁occasion	-10.752
▁user	-10.7521
▁argument	-10.7522
▁trees	-10.7543
men	-10.7543
▁bowl	-10.7545
▁emo	-10.7549
bi	-10.7553
sa	-10.7562
▁z	-10.7562
▁honor	-10.7563
▁commit	-10.7578
▁biggest	-10.758
▁hatred	-10.7581
▁average	-10.7581
▁double	-10.7586
▁hi	-10.7587
▁lean	-10.7597
▁learnt	-10.7598
lin	-10.7604
▁prayers	-10.7605
▁remembering	-10.762
▁mornings	-10.7627
▁admire	-10.7643
▁faced	-10.7645
▁bond	-10.7646
▁sp	-10.7648
▁nd	-10.765
▁twenty	-10.7651
▁cheese	-10.7651
▁vote	-10.7655
▁eaten	-10.7659
dy	-10.7659
▁developed	-10.7674
▁reaching	-10.7688
▁allows	-10.7693
▁seven	-10.7704
mp	-10.7707
▁genuine	-10.7709
▁pr	-10.7711
▁pit	-10.7713
▁conflict	-10.7718
▁lights	-10.7718
▁beliefs	-10.772
▁tour	-10.7721
▁disadvantaged	-10.7723
▁boat	-10.7727
▁drug	-10.7741
▁wander	-10.777
▁mama	-10.7772
▁perform	-10.7772
▁former	-10.7777
▁awfully	-10.7788
▁choosing	-10.7795
▁feedback	-10.7795
▁james	-10.7796
▁sa	-10.7802
▁angel	-10.7805
ig	-10.7817
ot	-10.7829
▁leads	-10.7833
di	-10.7844
▁charge	-10.7857
▁aint	-10.7859
▁discomfort	-10.7867
▁wisdom	-10.7867
ni	-10.7868
ize	-10.787
▁fate	-10.7873
▁display	-10.7881
▁goodness	-10.7894
lly	-10.7905
▁depend	-10.7912
ical	-10.7913
▁private	-10.7926
out	-10.7926
▁parenting	-10.7929
▁cheap	-10.7937
▁ka	-10.7939
▁waves	-10.7939
▁june	-10.794
▁david	-10.794
▁nasty	-10.794
▁ocean	-10.794
▁obama	-10.794
▁streets	-10.7942
▁techni	-10.7949
▁sexually	-10.7965
▁rate	-10.7982
▁disagree	-10.8007
▁topics	-10.801
▁pe	-10.801
▁comparison	-10.8014
▁perverse	-10.8014
▁laptop	-10.8014
▁poetry	-10.8014
▁hellip	-10.8014
▁crave	-10.8016
▁oil	-10.8024
▁flight	-10.8029
ring	-10.8035
▁workers	-10.8044
▁rely	-10.8049
▁completed	-10.8049
▁shown	-10.8053
▁click	-10.8057
▁extend	-10.8063
▁significant	-10.8074
▁photograph	-10.8077
▁survive	-10.808
▁pin	-10.8093
▁border	-10.8095
▁nurse	-10.8103
▁challenged	-10.8112
▁sports	-10.8136
▁hall	-10.8157
▁behaviour	-10.8162
▁suicide	-10.8162
▁worship	-10.8163
▁clock	-10.8163
▁length	-10.817
▁basic	-10.8178
▁generation	-10.818
▁vibe	-10.8182
▁item	-10.819
▁previously	-10.8194
▁sometime	-10.8199
go	-10.8206
▁sh	-10.8212
▁videos	-10.8223
▁wasting	-10.8235
▁attractive	-10.8236
▁talent	-10.8237
▁humor	-10.8237
▁happily	-10.8238
▁identity	-10.8238
ns	-10.8239
▁cope	-10.824
▁raised	-10.8248
▁vent	-10.8251
▁horror	-10.8254
▁element	-10.8255
▁recovery	-10.8258
▁surely	-10.8288
▁mac	-10.8305
▁damage	-10.8305
▁checked	-10.8306
▁importance	-10.8313
▁hubby	-10.8314
ure	-10.8315
▁jealousy	-10.8316
▁upcoming	-10.8317
▁latest	-10.832
▁arrive	-10.8322
▁king	-10.8332
▁row	-10.8335
po	-10.8338
▁failing	-10.8381
▁worries	-10.839
tr	-10.8391
▁bite	-10.8397
▁awareness	-10.8397
▁ho	-10.84
▁dread	-10.8406
▁application	-10.8408
▁sentence	-10.8409
▁horse	-10.8412
tra	-10.8464
▁recipes	-10.8466
▁violence	-10.8467
▁chinese	-10.8467
side	-10.8469
▁danger	-10.8471
▁laughed	-10.8471
▁humbled	-10.8475
▁emails	-10.8486
▁peers	-10.8488
▁deserves	-10.8489
uietly	-10.8514
▁searching	-10.8529
▁knees	-10.8535
▁ga	-10.8535
▁communicate	-10.8536
▁letters	-10.8538
▁awoke	-10.8544
▁giant	-10.8544
▁acceptance	-10.8545
▁dramatic	-10.8546
▁saddened	-10.8546
▁exposed	-10.8547
▁bible	-10.8547
▁promised	-10.8562
▁mountain	-10.8564
▁expressed	-10.8566
▁intention	-10.8569
▁hating	-10.8571
▁pics	-10.8573
vi	-10.8577
ag	-10.8582
▁convey	-10.8594
▁math	-10.8604
▁rose	-10.861
▁beer	-10.8613
▁involve	-10.8614
▁hill	-10.8621
▁rejection	-10.8624
▁scent	-10.8628
▁torn	-10.8628
▁dig	-10.8636
▁outcome	-10.8642
▁craving	-10.8642
▁colleagues	-10.8646
▁smooth	-10.8649
▁wishes	-10.8654
▁signs	-10.8662
▁notes	-10.867
ho	-10.868
▁whos	-10.87
▁beneath	-10.8701
▁studies	-10.8701
▁emptiness	-10.8701
▁lake	-10.8703
▁march	-10.8708
ongst	-10.8716
▁butter	-10.872
▁organization	-10.8723
▁blessing	-10.8736
▁stepp	-10.8737
▁bout	-10.8738
▁plant	-10.8755
▁counter	-10.8758
▁guard	-10.8765
▁pursue	-10.8772
▁india	-10.8772
▁alright	-10.8781
▁attached	-10.8784
▁focusing	-10.8785
▁gaze	-10.8788
▁fulfilled	-10.879
▁settled	-10.8792
▁object	-10.8792
pa	-10.88
▁sinking	-10.8808
▁foundation	-10.8808
▁shed	-10.883
▁lacking	-10.8836
▁crash	-10.884
▁returning	-10.884
▁ra	-10.8843
▁fortunate	-10.8846
▁heal	-10.8857
▁awe	-10.8858
▁jack	-10.8858
▁mini	-10.8859
▁favor	-10.886
▁chris	-10.8863
pe	-10.887
▁anytime	-10.887
ily	-10.8877
▁grandmother	-10.8881
▁phrase	-10.8882
▁affected	-10.8886
▁spiritually	-10.8886
▁yo	-10.8892
▁presents	-10.8898
▁tool	-10.89
▁adults	-10.8915
▁craft	-10.892
▁independent	-10.8927
▁hung	-10.8937
▁expensive	-10.8941
▁threw	-10.8941
▁width	-10.8941
▁river	-10.8941
▁gear	-10.8941
▁moronic	-10.8941
▁campus	-10.8942
▁dreaming	-10.895
▁attracted	-10.8951
uired	-10.8954
ow	-10.8957
▁document	-10.8963
▁magazine	-10.8964
rely	-10.8965
▁teen	-10.8973
con	-10.898
▁reminder	-10.8981
▁sales	-10.8997
▁imagined	-10.8999
▁sink	-10.9004
▁ur	-10.9017
▁dishes	-10.9024
ka	-10.9025
▁cutting	-10.9028
▁fallen	-10.9028
▁alternate	-10.9037
▁plane	-10.9038
▁sewing	-10.9038
work	-10.904
▁muscle	-10.9046
▁visiting	-10.9062
▁waited	-10.9068
▁positively	-10.907
▁supported	-10.9082
▁talks	-10.9092
ak	-10.9103
▁multiple	-10.9104
▁smoking	-10.9106
▁china	-10.9106
▁influence	-10.9127
▁tweet	-10.9128
▁attacked	-10.9136
▁brush	-10.9139
▁feeding	-10.9157
vo	-10.9169
▁sub	-10.9174
so	-10.9175
▁ro	-10.9176
▁explode	-10.9178
▁increase	-10.9179
▁adore	-10.9179
▁base	-10.9185
▁built	-10.9188
▁saving	-10.919
▁ruin	-10.9193
▁hyper	-10.9194
▁midst	-10.92
ru	-10.9205
▁spark	-10.9207
▁inspire	-10.921
ft	-10.9221
▁disgust	-10.9225
▁bra	-10.9241
▁numbers	-10.9242
▁pains	-10.9245
▁nausea	-10.927
▁distant	-10.927
▁enthralled	-10.927
▁neighborhood	-10.927
▁competition	-10.927
▁television	-10.927
▁bodies	-10.9271
▁limit	-10.9278
ud	-10.9279
▁benefits	-10.9286
▁nation	-10.9291
▁conclusion	-10.9295
▁commitment	-10.9296
▁nerves	-10.9299
▁scare	-10.9304
▁mis	-10.9307
▁bare	-10.9308
▁incident	-10.9318
▁pretending	-10.932
▁pleasantly	-10.9327
▁flash	-10.9335
▁killing	-10.934
▁kicking	-10.9341
▁customers	-10.9344
▁unworthy	-10.9354
▁tempted	-10.9354
▁swim	-10.9355
▁bi	-10.936
▁drawn	-10.9364
▁answered	-10.9373
▁avoiding	-10.9378
▁irate	-10.9385
▁checking	-10.9388
▁smiles	-10.9392
▁argue	-10.9407
▁hello	-10.9414
▁desires	-10.9414
▁del	-10.942
▁chances	-10.9423
▁jo	-10.9425
▁tools	-10.9427
▁convince	-10.9431
▁replied	-10.9439
▁soooo	-10.9439
▁colours	-10.944
▁glasses	-10.9444
ang	-10.9446
▁meaningful	-10.9448
▁patients	-10.9449
▁paul	-10.9455
▁heck	-10.9465
▁island	-10.947
▁succeed	-10.9478
▁host	-10.9479
▁shock	-10.948
▁flowing	-10.9506
▁struggles	-10.9514
ja	-10.9516
▁praise	-10.9521
▁infuriated	-10.9525
▁youtube	-10.9525
▁gently	-10.9525
▁york	-10.9525
▁orange	-10.9525
▁coat	-10.9526
▁fitness	-10.9534
per	-10.9537
▁fi	-10.9541
▁trade	-10.9543
▁election	-10.9552
▁impression	-10.9552
▁lo	-10.9554
▁meds	-10.9555
▁addition	-10.9556
▁uk	-10.9559
▁witness	-10.9566
▁wor	-10.9569
▁confront	-10.9581
▁sale	-10.9585
▁slight	-10.9586
oo	-10.9587
▁bump	-10.9593
ise	-10.9597
ite	-10.9604
▁bills	-10.9607
▁brilliant	-10.9611
▁swimming	-10.9611
▁absence	-10.9611
uer	-10.9618
▁closet	-10.9621
▁concert	-10.9638
▁disgusting	-10.9639
▁crime	-10.964
▁elses	-10.9649
▁leader	-10.9652
▁visual	-10.9666
▁grounded	-10.9668
▁cough	-10.967
▁di	-10.9673
▁chill	-10.9673
▁offering	-10.9677
▁kicks	-10.9679
▁silent	-10.9683
ating	-10.9685
▁solve	-10.9692
▁ish	-10.9693
▁challenging	-10.9698
▁nowadays	-10.9698
▁serving	-10.9698
▁whatsoever	-10.9698
hitting	-10.97
▁empowered	-10.97
▁wrappe	-10.9701
▁mike	-10.9701
▁skill	-10.9707
▁load	-10.9715
▁creep	-10.972
carried	-10.9724
▁uncle	-10.9725
▁drag	-10.973
▁nine	-10.9731
let	-10.9741
▁kicked	-10.9745
▁scenes	-10.9758
▁traveling	-10.9768
▁dust	-10.978
▁feminine	-10.9785
▁french	-10.9785
▁context	-10.9785
▁envy	-10.9786
▁mall	-10.9787
ues	-10.9788
▁daughters	-10.9789
▁rule	-10.9793
▁su	-10.9801
▁financially	-10.9804
▁app	-10.9808
▁wood	-10.9811
▁cloud	-10.9812
▁juice	-10.9815
▁hardest	-10.9817
▁plate	-10.9818
▁mass	-10.9819
▁candy	-10.9824
▁debate	-10.9835
▁pump	-10.9854
▁fiction	-10.9873
▁amorous	-10.9874
▁route	-10.9874
▁racing	-10.9874
▁stock	-10.9874
▁acts	-10.9874
▁marry	-10.9874
▁refreshed	-10.9878
▁interests	-10.988
▁hunger	-10.988
▁neglected	-10.9881
ze	-10.9883
▁photography	-10.9883
▁spite	-10.9886
▁spare	-10.9887
▁princess	-10.9887
▁measure	-10.9896
em	-10.9898
▁accomplishment	-10.9905
▁articles	-10.991
▁papers	-10.9912
▁suffered	-10.9914
▁rushing	-10.9927
▁dan	-10.9932
ach	-10.9935
▁indulge	-10.9954
▁sport	-10.9961
▁nursing	-10.9963
▁september	-10.9963
▁imagination	-10.9963
▁daddy	-10.9964
▁sw	-10.9965
▁dignified	-10.9966
▁bridge	-10.9968
▁engaged	-10.997
istic	-10.9986
▁interact	-10.9988
▁direct	-10.9989
▁secretly	-10.9994
▁conference	-10.9994
▁monster	-10.9994
▁smaller	-11.0001
▁dose	-11.001
▁gas	-11.002
▁identify	-11.0025
▁lip	-11.0034
▁kindness	-11.0039
▁soo	-11.0048
▁continues	-11.0052
▁hat	-11.0052
▁dizzy	-11.0053
▁puppy	-11.0053
▁po	-11.0055
▁cock	-11.0057
▁yard	-11.0057
▁script	-11.0057
▁realization	-11.0057
▁profile	-11.0059
right	-11.006
▁disconnected	-11.006
▁void	-11.0061
▁ppl	-11.0072
▁conflicted	-11.0076
▁sucked	-11.0083
hu	-11.0085
▁stretch	-11.0096
▁crush	-11.0096
▁shooting	-11.0102
ner	-11.0104
▁seeking	-11.0106
▁inter	-11.011
ana	-11.0127
one	-11.013
▁cell	-11.0141
ong	-11.0144
▁appreciation	-11.0144
▁encouraging	-11.0144
▁ignoring	-11.0144
▁january	-11.0144
▁ordinary	-11.0144
▁gender	-11.0144
▁addiction	-11.0146
▁powerless	-11.0146
▁remove	-11.0147
▁despised	-11.0149
▁humanity	-11.0149
▁tummy	-11.0152
▁whoever	-11.0152
▁sand	-11.0153
▁magical	-11.0168
▁theme	-11.0169
▁careful	-11.0177
▁root	-11.0177
ueen	-11.0181
▁surroundings	-11.0194
▁openly	-11.0195
▁san	-11.0213
▁shorts	-11.0216
bs	-11.0216
▁lied	-11.0223
▁aim	-11.0229
▁excellent	-11.0236
▁empathy	-11.0236
▁minor	-11.0236
ki	-11.0237
▁resentment	-11.0237
▁trick	-11.0248
▁skipp	-11.0249
hi	-11.0249
▁par	-11.0249
bu	-11.0256
▁saved	-11.026
▁heavenly	-11.0261
▁sorta	-11.027
▁standard	-11.0272
▁described	-11.0275
▁reactions	-11.0278
▁touching	-11.0281
▁souls	-11.0291
▁endless	-11.0293
▁windows	-11.0308
▁al	-11.0325
▁michael	-11.0329
▁uneasy	-11.0329
▁england	-11.0329
▁technical	-11.0329
▁misery	-11.0329
▁anyways	-11.0344
▁published	-11.0344
▁hed	-11.0358
▁stepping	-11.0362
▁sooner	-11.0366
▁dun	-11.0368
▁mere	-11.0373
▁cookies	-11.0374
▁tune	-11.0375
▁cap	-11.0381
▁peter	-11.0382
▁trusted	-11.0384
▁blind	-11.039
▁fa	-11.0403
▁separate	-11.0404
▁relaxing	-11.0411
▁exceptional	-11.0413
▁sigh	-11.0422
▁august	-11.0422
▁behalf	-11.0422
▁fantasy	-11.0422
▁antsy	-11.0422
▁fuzzy	-11.0423
▁noticing	-11.0423
▁politics	-11.0424
▁importantly	-11.0431
▁closest	-11.0435
▁typically	-11.0435
▁amazingly	-11.0442
▁classmates	-11.0445
▁intensely	-11.0449
of	-11.0459
▁joined	-11.048
ung	-11.0488
▁deliver	-11.0491
▁prior	-11.0516
▁evidence	-11.0516
▁pizza	-11.0516
▁tendency	-11.0516
▁structure	-11.0517
▁fancy	-11.0517
▁ni	-11.0521
▁immensely	-11.0523
▁driven	-11.053
▁jokes	-11.0532
▁followers	-11.0534
▁court	-11.0552
▁sides	-11.0571
▁placed	-11.0575
▁junk	-11.0587
▁concerns	-11.0597
▁birds	-11.0605
▁confusion	-11.0612
▁halloween	-11.0612
▁intelligence	-11.0612
▁vintage	-11.0612
▁shaking	-11.0612
▁nagging	-11.0612
▁winning	-11.0612
▁laughter	-11.0613
▁bags	-11.0618
mb	-11.0632
▁clue	-11.0641
▁ah	-11.0648
▁despairing	-11.065
▁stone	-11.0652
▁developing	-11.0652
▁blanket	-11.0652
▁shade	-11.0652
▁soup	-11.0654
▁shots	-11.0669
▁honesty	-11.0673
▁reminding	-11.0684
▁approaching	-11.0691
▁weren	-11.0693
responsibilities	-11.0708
▁misunderstood	-11.0708
▁unappreciated	-11.0708
▁vigorous	-11.0708
▁celebrating	-11.0708
▁japanese	-11.0708
▁airport	-11.0708
▁heavily	-11.0712
ities	-11.0715
▁bug	-11.0716
▁forgetting	-11.0716
▁intended	-11.072
▁lbs	-11.0726
▁shine	-11.0734
nability	-11.0739
▁ko	-11.0744
▁creature	-11.0746
▁assignment	-11.0746
▁poem	-11.0746
▁potentially	-11.0748
▁van	-11.0758
▁periods	-11.076
▁authors	-11.0762
▁west	-11.0773
▁tip	-11.0792
▁absolute	-11.0796
▁surround	-11.0798
▁thick	-11.0802
▁spirits	-11.0802
▁butt	-11.0802
▁exercising	-11.0805
▁stream	-11.0805
▁flesh	-11.0805
▁hidden	-11.0805
▁therapist	-11.0805
▁bullshit	-11.0805
▁toilet	-11.0805
▁trail	-11.0815
▁wheel	-11.0816
▁dresses	-11.0817
▁foreign	-11.0819
▁boost	-11.0819
▁encouraged	-11.0823
end	-11.0825
▁voices	-11.0835
▁invite	-11.0835
▁asshole	-11.0843
▁hundred	-11.0844
▁sc	-11.0847
uire	-11.0848
▁balls	-11.0849
▁types	-11.0849
▁ke	-11.0867
▁coach	-11.0873
▁aggressive	-11.0903
▁campaign	-11.0903
▁pagetitle	-11.0903
▁unmotivated	-11.0903
▁crisis	-11.0903
▁grass	-11.0903
▁drank	-11.0903
▁specifically	-11.0904
▁px	-11.0919
▁tries	-11.093
▁arts	-11.0931
ui	-11.0933
rt	-11.0934
uences	-11.0942
▁pocket	-11.0943
▁grip	-11.0943
▁er	-11.0946
over	-11.0952
▁handed	-11.0954
▁doors	-11.0959
red	-11.0962
om	-11.0963
▁outfits	-11.0976
▁wonderfully	-11.0976
▁abandon	-11.0983
uent	-11.0992
▁flower	-11.0993
▁privilege	-11.0994
▁utter	-11.0997
▁japan	-11.1002
▁cautious	-11.1002
▁nauseous	-11.1002
▁unsettled	-11.1002
▁theatre	-11.1002
▁harry	-11.1002
▁lifetime	-11.1005
▁july	-11.1012
▁warning	-11.1022
▁br	-11.1026
▁eve	-11.103
blog	-11.1035
▁obligation	-11.1043
ap	-11.1046
▁dressing	-11.1047
▁boots	-11.1048
▁manager	-11.1049
▁lap	-11.105
▁schools	-11.1056
▁fathers	-11.1057
ler	-11.1058
▁classic	-11.1062
▁asks	-11.1075
▁screw	-11.1084
▁occasions	-11.1085
▁sum	-11.1096
▁draft	-11.1102
▁grocery	-11.1102
▁remote	-11.1102
▁retreat	-11.1102
▁british	-11.1102
▁dropping	-11.1102
▁mournful	-11.1102
▁theater	-11.1105
▁spin	-11.111
▁reflection	-11.1112
▁carefully	-11.112
pp	-11.1127
▁farm	-11.1128
▁sessions	-11.1129
▁pie	-11.1137
▁minded	-11.1138
ph	-11.1157
▁sha	-11.1164
▁lit	-11.1168
ya	-11.1169
▁moves	-11.1177
▁intentions	-11.1178
min	-11.1188
▁jumping	-11.1189
▁ness	-11.1198
▁comparing	-11.1203
▁insecurities	-11.1203
▁preparing	-11.1203
▁sceptical	-11.1203
▁unfriendly	-11.1203
▁guitar	-11.1203
▁zero	-11.1203
▁chaos	-11.1203
▁complicated	-11.1205
▁responses	-11.1209
▁https	-11.121
▁sites	-11.1214
▁production	-11.1214
▁dealt	-11.1222
▁services	-11.1223
▁es	-11.1229
▁agreed	-11.1234
▁safer	-11.1235
▁resources	-11.1237
▁explanation	-11.1245
▁breast	-11.1246
▁slide	-11.1251
tta	-11.1253
▁goods	-11.1254
ons	-11.1254
▁stumble	-11.1258
▁code	-11.1276
▁brief	-11.1291
▁define	-11.1293
▁values	-11.1295
ping	-11.1301
▁complex	-11.1302
▁fragile	-11.1305
▁october	-11.1305
▁providing	-11.1305
▁trash	-11.1305
▁glamourous	-11.1305
▁robbed	-11.1305
ko	-11.1305
▁rubbish	-11.1305
▁grandma	-11.1305
▁jacket	-11.1307
▁wished	-11.1308
▁bloated	-11.1309
▁xd	-11.1312
▁hormones	-11.1314
▁lungs	-11.1315
▁contractions	-11.132
▁fo	-11.1322
▁fb	-11.1325
ir	-11.1334
▁bloody	-11.1343
▁heads	-11.135
▁interaction	-11.135
▁reward	-11.1364
▁marks	-11.1365
▁sheer	-11.1378
▁typical	-11.1394
▁unlike	-11.1394
▁occasional	-11.1396
▁ideal	-11.1408
▁truck	-11.1408
▁verge	-11.1408
▁location	-11.1408
▁cash	-11.1409
▁travelling	-11.141
▁centre	-11.1414
▁aunt	-11.1427
▁provided	-11.1431
▁trend	-11.1435
▁justify	-11.1453
▁motion	-11.1453
▁presentation	-11.1455
ned	-11.146
▁metal	-11.1463
back	-11.1463
▁mary	-11.1464
ify	-11.1465
▁publish	-11.1465
▁hip	-11.1468
▁twist	-11.1468
▁races	-11.1473
▁breaks	-11.1479
▁grasp	-11.1484
▁loads	-11.1489
▁bo	-11.1492
▁weekends	-11.1493
▁apparent	-11.1498
▁patterns	-11.1498
▁effective	-11.1499
▁engage	-11.1501
▁venture	-11.1504
▁tall	-11.1506
▁east	-11.1509
▁entries	-11.1512
▁raising	-11.1512
▁charity	-11.1512
▁countries	-11.1513
▁mc	-11.1513
▁salad	-11.1514
▁minds	-11.1515
▁massage	-11.1516
▁endure	-11.1517
▁larger	-11.1522
▁hahaha	-11.1527
▁appears	-11.1528
▁wound	-11.1541
▁centered	-11.1545
▁yours	-11.1555
▁temperature	-11.1558
▁cheeks	-11.1559
▁selling	-11.156
▁dude	-11.1562
au	-11.1566
▁driver	-11.1569
▁exchange	-11.1601
▁critical	-11.1603
▁festival	-11.1617
▁grandfather	-11.1617
▁autumn	-11.1617
▁judging	-11.1617
▁bummed	-11.1617
▁meditation	-11.1618
▁variety	-11.1618
▁steady	-11.1618
▁encouragement	-11.162
gu	-11.162
▁stressful	-11.162
▁organized	-11.1621
▁continuing	-11.1622
▁presented	-11.1624
▁vast	-11.1628
▁loop	-11.1632
▁acted	-11.1642
▁disappear	-11.1646
▁compliment	-11.1647
▁binge	-11.1664
ssociated	-11.1664
▁client	-11.1665
▁hint	-11.1671
▁jumped	-11.1676
▁alarm	-11.1678
▁washing	-11.1678
gi	-11.168
▁walks	-11.1688
▁sneak	-11.1694
▁surrounding	-11.1695
▁prompt	-11.1703
▁holds	-11.1705
▁harsh	-11.171
▁trips	-11.1718
▁cruel	-11.1724
▁frustrating	-11.1724
▁international	-11.1724
▁companies	-11.1724
▁flavor	-11.1724
▁wardrobe	-11.1724
▁guidance	-11.1724
▁spill	-11.1724
▁mutual	-11.1724
▁village	-11.1725
▁bits	-11.1728
▁woeful	-11.1728
▁knitting	-11.1729
▁catching	-11.1737
▁calories	-11.174
▁drowning	-11.1741
▁snack	-11.1744
▁lock	-11.1744
▁counting	-11.1748
▁tom	-11.1758
▁rights	-11.1759
▁hearted	-11.1761
▁rob	-11.1764
▁depending	-11.1765
▁salt	-11.1766
▁til	-11.1766
▁sons	-11.1785
▁steal	-11.1803
▁behave	-11.1823
▁scratch	-11.1823
▁hook	-11.1824
▁drinks	-11.1825
▁visited	-11.1827
▁clarity	-11.1831
▁medium	-11.1831
▁apology	-11.1831
▁giveaway	-11.1833
▁bold	-11.1837
▁flip	-11.1837
ery	-11.1839
▁removed	-11.1841
▁leap	-11.1841
▁consistently	-11.1842
▁sweaty	-11.1845
▁contain	-11.1848
▁pa	-11.1871
▁shadow	-11.1881
▁portion	-11.1882
▁semi	-11.1884
▁cars	-11.1889
fa	-11.189
▁designer	-11.1892
▁swing	-11.1893
▁offers	-11.19
▁aid	-11.1902
▁gu	-11.1905
▁delight	-11.1906
uilt	-11.1916
▁sets	-11.1919
▁unfair	-11.1924
ct	-11.1925
▁appropriate	-11.1926
▁initial	-11.1926
ning	-11.1927
▁tense	-11.1933
▁intimate	-11.194
▁pinterest	-11.194
▁exhaustion	-11.194
▁mixture	-11.194
▁halfway	-11.1942
▁partial	-11.1952
▁released	-11.1962
▁bone	-11.1967
gra	-11.1971
▁relative	-11.1978
▁rubb	-11.1983
my	-11.1986
▁ghost	-11.199
▁disorder	-11.199
▁pills	-11.1995
ions	-11.1995
▁chi	-11.1999
▁hundreds	-11.2005
pl	-11.2017
▁wi	-11.2018
▁youd	-11.2021
▁buzz	-11.2024
▁label	-11.2029
▁prayed	-11.2031
▁graduate	-11.2045
▁owner	-11.2045
▁europe	-11.2048
▁freely	-11.205
▁mobile	-11.205
▁baking	-11.205
▁famous	-11.205
▁yellow	-11.2051
▁understands	-11.2051
▁sunny	-11.2051
▁disrespected	-11.2057
▁enjoyable	-11.2071
ham	-11.2073
▁network	-11.2074
▁bat	-11.2083
ped	-11.2085
▁hits	-11.2091
opposed	-11.2095
▁sold	-11.2096
▁tons	-11.21
▁catholic	-11.2101
▁occur	-11.2102
▁cousin	-11.2102
▁bound	-11.2114
▁attempts	-11.2116
▁clouds	-11.2123
▁comp	-11.2134
way	-11.2136
▁laws	-11.2145
▁defensive	-11.2161
▁dessert	-11.2161
▁traffic	-11.2161
▁underneath	-11.2161
▁hurry	-11.2162
▁attraction	-11.2163
▁actor	-11.2164
uestioning	-11.2165
▁reasonably	-11.2166
▁reveal	-11.2168
▁wherever	-11.2169
▁lj	-11.2174
▁spoken	-11.2175
▁tests	-11.2178
▁spell	-11.2186
▁experiment	-11.2198
▁grades	-11.2201
▁dollars	-11.2201
▁protected	-11.2207
▁crossed	-11.2209
▁secrets	-11.2209
▁thousands	-11.2213
▁creation	-11.2215
izing	-11.2219
▁promises	-11.2226
▁hop	-11.2229
uel	-11.2242
▁bands	-11.2251
uare	-11.2259
▁americans	-11.2261
▁resolve	-11.2265
jo	-11.2272
▁remorse	-11.2273
▁california	-11.2273
▁insignificant	-11.2273
▁ministry	-11.2273
▁automatically	-11.2274
▁yarn	-11.2274
▁sarah	-11.2274
▁skinny	-11.2276
▁download	-11.2277
▁judgement	-11.2278
▁musical	-11.2279
▁officially	-11.2285
ls	-11.2293
▁cats	-11.2305
▁stores	-11.2311
▁cheerful	-11.2314
lu	-11.2317
▁mar	-11.2326
▁genre	-11.2328
▁director	-11.2331
▁bf	-11.2345
iv	-11.2346
▁cravings	-11.2358
▁polish	-11.2366
▁arguments	-11.2368
▁unexpected	-11.2373
▁bliss	-11.2379
▁teenage	-11.2385
▁butterflies	-11.2387
▁nostalgia	-11.2387
▁zombie	-11.2387
▁mercy	-11.2387
▁fuel	-11.2388
▁uncertainty	-11.2391
day	-11.2394
uid	-11.2396
▁digg	-11.2396
▁crack	-11.2398
▁persons	-11.24
▁knit	-11.2402
▁united	-11.2402
▁fe	-11.2409
cu	-11.2416
▁suggested	-11.242
ship	-11.2421
▁bob	-11.2421
ble	-11.2423
▁roller	-11.2426
▁aches	-11.2429
▁tackle	-11.2433
▁naive	-11.2436
▁ca	-11.2439
▁deserved	-11.244
che	-11.2441
▁entering	-11.2452
ina	-11.2458
▁bothering	-11.2469
▁gi	-11.247
▁jar	-11.2471
▁couples	-11.2471
▁method	-11.2472
▁resist	-11.2473
▁coast	-11.2482
▁inferior	-11.2501
▁economy	-11.2502
▁enthusiasm	-11.2502
▁inspiring	-11.2502
▁invisible	-11.2502
▁split	-11.2502
▁millions	-11.2502
▁alternative	-11.2502
▁continually	-11.2504
ver	-11.2506
▁op	-11.2507
▁weakness	-11.2508
▁cynical	-11.2508
▁comedy	-11.2512
ins	-11.2513
▁dish	-11.2514
▁victims	-11.2515
▁circles	-11.2516
▁passes	-11.2518
▁bay	-11.252
▁ship	-11.2523
▁floating	-11.2524
▁neighbors	-11.2535
▁movements	-11.2545
▁du	-11.2557
▁repair	-11.2558
▁celebration	-11.2559
▁pan	-11.2568
od	-11.2569
▁el	-11.2591
▁tim	-11.2593
▁pill	-11.2602
▁albe	-11.2606
thing	-11.2609
▁platform	-11.2618
▁april	-11.2618
▁flood	-11.2618
▁permission	-11.2618
▁twinge	-11.2619
▁entertainment	-11.2619
▁attachment	-11.2619
▁spanish	-11.2619
si	-11.2621
▁adds	-11.2621
▁tap	-11.2622
▁depressing	-11.2628
▁flaws	-11.263
▁kisses	-11.263
▁selected	-11.2631
▁stairs	-11.2632
▁initially	-11.2633
▁episodes	-11.2651
ron	-11.2654
▁tooth	-11.2654
▁degrees	-11.2662
▁weary	-11.2662
▁academic	-11.2676
▁rd	-11.2677
▁cases	-11.268
▁weigh	-11.2685
rid	-11.2688
▁sincerely	-11.2688
▁rolling	-11.2694
ltr	-11.2701
▁sch	-11.2706
▁vomit	-11.2708
ber	-11.2709
▁immediate	-11.2722
▁abit	-11.2735
▁ignorance	-11.2736
▁nonetheless	-11.2736
▁possibilities	-11.2736
▁temporary	-11.2736
▁intensity	-11.2736
▁prejudiced	-11.2739
▁handful	-11.2742
▁troubles	-11.2755
▁begins	-11.2756
ors	-11.2762
▁belt	-11.2762
▁omg	-11.2762
ua	-11.2763
gg	-11.2768
▁pound	-11.2769
nc	-11.2775
▁stamp	-11.2776
▁recover	-11.2777
▁tho	-11.2782
▁gal	-11.2783
ger	-11.2785
▁difficulty	-11.2789
▁fits	-11.2794
▁affair	-11.2796
▁ticket	-11.2796
▁excuses	-11.28
▁rub	-11.2803
▁cor	-11.2807
▁comforting	-11.281
▁string	-11.2815
▁egg	-11.2821
act	-11.2828
▁mu	-11.2841
▁firm	-11.2842
▁nicely	-11.2843
ip	-11.2843
▁perceive	-11.2847
▁temper	-11.2851
▁paris	-11.2853
▁altogether	-11.2855
▁glory	-11.2855
▁giddy	-11.2855
▁gospel	-11.2855
▁canvas	-11.2856
▁dick	-11.2857
▁organic	-11.2859
▁rice	-11.2867
▁je	-11.2867
▁era	-11.2868
▁fulfilling	-11.2877
▁cha	-11.2878
ens	-11.2879
▁heres	-11.2885
sion	-11.2902
▁companion	-11.2916
▁description	-11.2916
▁ward	-11.2919
▁offend	-11.293
▁standards	-11.2931
▁designs	-11.2937
▁reads	-11.2938
▁referr	-11.294
▁mountains	-11.2945
▁ensure	-11.2946
▁smiled	-11.2948
▁boo	-11.2949
▁dwell	-11.295
▁vi	-11.2953
▁internal	-11.2958
▁log	-11.296
▁thoughtful	-11.2965
▁discipline	-11.2967
ai	-11.2972
▁cinema	-11.2975
▁george	-11.2975
▁glimpse	-11.2975
▁ignorant	-11.2975
▁injustice	-11.2975
▁occurred	-11.2976
▁accused	-11.2978
▁introduce	-11.298
▁canada	-11.2984
▁boxes	-11.2985
▁blast	-11.2986
▁informed	-11.299
▁meetings	-11.3
uc	-11.3
▁trigger	-11.302
▁rested	-11.3021
▁novels	-11.3023
▁yelling	-11.3024
▁shi	-11.3026
▁risks	-11.3026
▁rational	-11.303
▁headaches	-11.3031
tro	-11.3031
▁examination	-11.3038
▁approached	-11.304
▁actors	-11.3041
▁shoe	-11.3043
▁cage	-11.3044
▁adjust	-11.3047
▁moral	-11.3055
▁worlds	-11.3069
▁expand	-11.307
▁falls	-11.3071
▁portray	-11.3078
▁traditional	-11.3084
▁guarantee	-11.3089
▁max	-11.3097
▁incapable	-11.3097
▁turkey	-11.3097
▁midnight	-11.3097
▁lists	-11.3098
▁category	-11.3099
▁slightest	-11.3099
▁healthier	-11.3099
▁korean	-11.3101
▁debt	-11.3102
▁exists	-11.3104
ries	-11.3105
▁replaced	-11.3107
▁reference	-11.3112
ists	-11.3118
▁served	-11.3123
ile	-11.3134
▁pot	-11.3145
▁resort	-11.3147
▁inch	-11.3156
▁nightmare	-11.3162
▁chick	-11.3163
ualities	-11.3164
▁cookie	-11.3164
▁compliments	-11.3165
▁pig	-11.3166
▁afterward	-11.3168
▁cheat	-11.3175
▁glow	-11.3193
▁greet	-11.3193
▁bomb	-11.3209
▁successfully	-11.3218
▁sandwich	-11.3218
▁capacity	-11.3221
▁imagining	-11.3221
▁spouse	-11.3221
▁military	-11.3221
▁struck	-11.3221
▁primary	-11.3222
▁faint	-11.3223
▁funk	-11.3223
▁flattered	-11.3224
▁chatting	-11.3224
▁stopping	-11.3225
▁pinch	-11.3229
▁hero	-11.3229
▁insist	-11.3231
▁cafe	-11.3233
▁fortune	-11.3233
▁lust	-11.3236
▁torture	-11.3243
▁recognized	-11.3252
▁originally	-11.3254
▁burned	-11.3257
ku	-11.3271
▁humble	-11.3273
our	-11.3278
▁feature	-11.328
▁attending	-11.3285
▁miracle	-11.3287
▁chain	-11.3297
▁steve	-11.3298
▁gaining	-11.3313
ub	-11.3323
▁polite	-11.333
▁refer	-11.3332
▁mild	-11.3344
▁bull	-11.3345
▁slave	-11.3345
▁immature	-11.3346
▁ryan	-11.3346
▁priority	-11.3347
▁income	-11.335
▁min	-11.3353
▁stable	-11.3361
▁neglecting	-11.3362
▁belonging	-11.3374
▁ta	-11.3375
▁iron	-11.3379
▁packed	-11.3389
▁caress	-11.3407
▁eggs	-11.3408
▁hugs	-11.341
▁forest	-11.3411
▁senior	-11.3413
▁thousand	-11.3414
▁roommate	-11.3415
ok	-11.3416
▁net	-11.342
ster	-11.3447
▁bla	-11.3447
▁worker	-11.3455
der	-11.3459
▁according	-11.3464
▁weekly	-11.3465
▁dirt	-11.3467
▁applied	-11.3472
▁literature	-11.3472
▁neutral	-11.3472
▁nonsense	-11.3472
▁strive	-11.3473
py	-11.3473
▁protective	-11.3473
▁injury	-11.3474
▁vegan	-11.3475
▁contentment	-11.3483
▁cling	-11.3485
▁indian	-11.3486
▁socks	-11.3487
▁dump	-11.349
▁refused	-11.3492
▁stands	-11.3499
▁suggestions	-11.3502
▁timing	-11.3509
▁contemplat	-11.351
▁mentioning	-11.3513
▁chunk	-11.3541
▁commercial	-11.3542
▁essay	-11.3542
▁toes	-11.3542
▁senses	-11.3567
▁links	-11.3568
▁figur	-11.3576
▁blend	-11.3576
▁resent	-11.3581
▁covers	-11.3581
pr	-11.3589
▁unbelievabl	-11.3596
▁defense	-11.3601
▁plastic	-11.3601
▁silver	-11.3601
▁unhealthy	-11.3601
▁shallow	-11.3601
▁texture	-11.3602
▁wed	-11.3605
▁dawn	-11.3606
▁cure	-11.3623
▁gathering	-11.3624
chasing	-11.3636
▁mat	-11.3655
▁matt	-11.366
▁climbing	-11.3661
▁blowing	-11.3667
▁disaster	-11.3671
▁insight	-11.3672
▁improvement	-11.3673
▁articulate	-11.3674
house	-11.3683
▁juices	-11.3686
▁col	-11.3698
▁ol	-11.37
▁appeal	-11.3703
▁com	-11.3703
▁irrational	-11.3716
▁unusual	-11.3716
▁fatigue	-11.3722
▁mature	-11.3722
▁sees	-11.3725
▁chase	-11.3725
▁conditions	-11.3727
▁boot	-11.3729
▁definition	-11.373
▁benign	-11.3731
▁victory	-11.3731
▁toys	-11.3741
▁profoundly	-11.3741
▁handling	-11.3742
▁severely	-11.3744
▁decorations	-11.3746
▁adventures	-11.3747
▁url	-11.3748
rk	-11.3748
▁doubts	-11.3752
▁outsider	-11.3753
▁roles	-11.3763
▁attacks	-11.3767
▁sl	-11.377
▁brat	-11.3771
▁attended	-11.3774
▁transfer	-11.3776
▁plays	-11.3784
▁ja	-11.3789
▁score	-11.3794
▁sacrifice	-11.3794
▁directions	-11.3795
▁cheek	-11.3796
ette	-11.3796
io	-11.3802
▁jane	-11.3802
▁toddler	-11.3802
▁achy	-11.3802
ab	-11.3808
▁rat	-11.3821
▁limits	-11.3822
▁sofa	-11.3829
▁bb	-11.383
▁tug	-11.3856
▁wee	-11.3856
▁melt	-11.386
▁gray	-11.3862
▁abroad	-11.3862
▁contrast	-11.3862
▁intervention	-11.3862
▁unnecessary	-11.3862
▁piano	-11.3862
▁baseball	-11.3862
▁lump	-11.3863
▁newborn	-11.3865
▁glance	-11.3865
▁exit	-11.3867
▁repeatedly	-11.3871
wa	-11.3872
▁refreshing	-11.3872
▁forgiveness	-11.3873
▁subjects	-11.3873
▁tank	-11.3879
▁improved	-11.3887
▁coaster	-11.3887
▁demanding	-11.3889
▁sickness	-11.3894
▁safely	-11.3895
▁pointless	-11.3901
▁atom	-11.3912
▁layers	-11.3914
ept	-11.3919
▁demands	-11.392
▁info	-11.3924
▁remains	-11.3924
▁discussed	-11.3929
▁signed	-11.3931
▁dates	-11.3932
▁severe	-11.3935
▁calmer	-11.3935
▁bastard	-11.3936
▁strike	-11.3936
▁creatures	-11.3942
ay	-11.3948
su	-11.3949
▁destroy	-11.395
▁workouts	-11.3954
▁rut	-11.3956
▁af	-11.3958
▁leaders	-11.396
▁elements	-11.3965
▁bang	-11.3968
▁defeat	-11.3978
▁essential	-11.3981
▁instant	-11.3981
▁civil	-11.3986
▁assure	-11.3989
▁achieving	-11.3995
▁conservative	-11.3995
▁population	-11.3995
▁tragedy	-11.3995
▁denied	-11.3995
▁operation	-11.3996
▁represent	-11.4023
▁cd	-11.4028
▁encountered	-11.4031
▁notion	-11.4032
▁promote	-11.4035
▁kit	-11.4036
▁christians	-11.4036
▁justified	-11.4038
▁volunteer	-11.4043
▁demand	-11.4044
mer	-11.405
▁features	-11.4059
▁ben	-11.4061
▁ordered	-11.4066
▁sting	-11.4068
ex	-11.4074
▁blam	-11.4079
▁intend	-11.4085
▁package	-11.4087
▁earn	-11.4088
▁moods	-11.4092
▁satisfy	-11.4103
▁avoided	-11.4107
▁warn	-11.4112
tion	-11.4125
▁diagnosis	-11.4131
▁permalink	-11.4131
▁relevant	-11.4131
▁surrender	-11.4131
▁exploring	-11.4131
ville	-11.4132
▁adoption	-11.4132
▁heartbeat	-11.4132
▁budget	-11.4133
▁management	-11.4134
▁mindset	-11.4134
▁scott	-11.4134
▁bounce	-11.4136
▁verbally	-11.4137
▁anime	-11.4138
▁earned	-11.4149
▁ju	-11.4152
▁locked	-11.4153
av	-11.4156
▁whisper	-11.4162
ms	-11.4168
▁doll	-11.4171
▁israel	-11.4176
▁upper	-11.4178
▁cop	-11.4181
▁official	-11.4194
▁treasure	-11.42
▁slap	-11.42
▁designed	-11.4201
▁professor	-11.4209
▁breasts	-11.4209
▁chips	-11.4209
ect	-11.4209
▁poorly	-11.4213
▁factor	-11.4232
▁blush	-11.4241
▁swallow	-11.4249
▁cherish	-11.425
▁cleaned	-11.4252
▁bake	-11.4253
▁entertain	-11.4255
ueeze	-11.4256
▁australia	-11.4257
▁angst	-11.426
▁singapore	-11.426
▁german	-11.426
▁bc	-11.4261
▁apathetic	-11.4268
▁contributing	-11.4268
▁negativity	-11.4268
▁pursuing	-11.4268
▁savior	-11.4268
▁honey	-11.4268
▁disney	-11.4268
▁chemo	-11.4268
▁diary	-11.4268
▁investment	-11.427
▁dedicated	-11.4273
▁assist	-11.4273
▁pat	-11.4274
▁veins	-11.4286
▁ade	-11.4292
▁smells	-11.4302
▁guessing	-11.4308
▁lecture	-11.4317
▁bum	-11.4318
▁responded	-11.4321
▁advance	-11.4334
▁clinic	-11.4345
▁lipstick	-11.4347
▁finds	-11.4354
▁grabb	-11.4357
▁invest	-11.4358
▁teens	-11.4368
▁programs	-11.4368
▁collect	-11.4373
▁heartbreak	-11.438
▁ponder	-11.4383
▁closely	-11.4384
▁wal	-11.4384
▁gar	-11.4395
uotes	-11.4397
▁tuck	-11.4403
▁enemy	-11.4406
▁fought	-11.4406
▁wreck	-11.4406
▁appetite	-11.4406
▁dvd	-11.4406
▁funeral	-11.4406
▁scheme	-11.4406
▁confusing	-11.4406
▁hollow	-11.4406
▁rejuvenated	-11.4407
▁thru	-11.4407
▁criticism	-11.4407
▁alongside	-11.441
▁basket	-11.441
▁realistic	-11.4411
▁consciousness	-11.4412
▁consumed	-11.4413
▁introduced	-11.4424
ris	-11.4425
▁destroyed	-11.4425
▁editing	-11.4431
▁tie	-11.4437
▁lee	-11.444
▁husbands	-11.4449
▁thrill	-11.4454
ore	-11.446
▁employees	-11.446
▁citizens	-11.4461
▁applying	-11.4462
▁todays	-11.4463
ised	-11.4468
▁candidate	-11.4488
▁gap	-11.449
▁achievement	-11.449
▁mud	-11.4498
▁tan	-11.4502
▁flag	-11.4503
▁mi	-11.4511
▁rent	-11.4516
ji	-11.453
if	-11.4544
▁borrow	-11.4547
▁ferocious	-11.4547
▁impolite	-11.4547
▁adoring	-11.4547
▁managing	-11.4547
▁garbage	-11.4547
▁independence	-11.4547
▁begging	-11.4548
▁uber	-11.4549
▁obsession	-11.4549
▁detached	-11.4554
▁mate	-11.4555
▁scrap	-11.4564
▁dining	-11.4565
▁rooms	-11.4569
▁siblings	-11.4569
▁army	-11.4576
▁alt	-11.4581
▁creeping	-11.4592
▁lifted	-11.4593
▁sew	-11.4597
▁theory	-11.4601
▁wandering	-11.4602
▁subtle	-11.4611
▁sadly	-11.4612
▁painted	-11.4628
▁perception	-11.463
▁poems	-11.4633
for	-11.4636
▁sweater	-11.4637
▁scar	-11.4639
▁har	-11.4647
▁hunt	-11.4656
lan	-11.4661
▁comic	-11.4677
▁guests	-11.468
za	-11.468
▁cal	-11.4681
▁masters	-11.4687
▁insurance	-11.469
▁pussy	-11.469
▁settling	-11.469
▁snobbish	-11.469
▁uninspired	-11.469
▁illusion	-11.469
▁hobby	-11.469
▁spray	-11.469
▁denial	-11.469
▁contest	-11.469
▁infection	-11.469
▁roof	-11.469
▁leather	-11.4691
▁excluded	-11.4693
▁blogged	-11.4694
▁drew	-11.4696
▁tremendously	-11.4699
▁devil	-11.4701
▁delivery	-11.4702
▁survived	-11.4706
▁thighs	-11.4714
com	-11.4716
▁significantly	-11.4718
▁updated	-11.4718
▁entertaining	-11.4719
▁hills	-11.4721
▁replace	-11.4725
▁randomly	-11.4746
▁tastes	-11.4751
nd	-11.4759
ess	-11.4762
▁lifting	-11.4763
▁aka	-11.4764
▁marketing	-11.4768
ified	-11.4769
uarter	-11.4775
nie	-11.4778
▁expectation	-11.478
▁roots	-11.4783
▁accomplishments	-11.4785
uo	-11.4788
▁port	-11.4791
ec	-11.4795
▁evenings	-11.4796
▁seasons	-11.4799
▁gang	-11.4805
▁treats	-11.4809
▁stiff	-11.4815
▁float	-11.4818
▁outlet	-11.4819
▁consistent	-11.4821
▁lab	-11.4822
▁fade	-11.4829
ctively	-11.4832
▁bars	-11.4833
▁alex	-11.4835
▁privacy	-11.4835
▁welcoming	-11.4835
▁instrument	-11.4835
▁compelled	-11.4835
▁shelter	-11.4835
▁flare	-11.4835
▁motherhood	-11.4837
▁nick	-11.4837
▁artwork	-11.4837
▁santa	-11.4841
▁enthusiastic	-11.4845
▁ingredients	-11.4847
▁firmly	-11.4852
▁impress	-11.486
kin	-11.4861
▁fri	-11.4864
▁opt	-11.487
▁remarks	-11.4874
▁publishing	-11.4874
▁tied	-11.4885
▁appeared	-11.4886
▁sins	-11.489
some	-11.4892
pi	-11.4892
▁dearly	-11.4894
▁hasn	-11.4897
▁washed	-11.4899
▁repeating	-11.4907
▁houses	-11.4908
▁spaces	-11.4915
▁solo	-11.4917
log	-11.4917
▁temple	-11.4923
▁decid	-11.4924
▁strip	-11.4929
▁bur	-11.4945
▁mos	-11.4964
aw	-11.4968
uence	-11.4968
▁divorce	-11.4974
▁contract	-11.4975
▁steam	-11.4982
▁digital	-11.4982
▁isprivate	-11.4982
▁junior	-11.4982
▁fraud	-11.4982
▁mystery	-11.4982
▁annoyance	-11.4982
▁embarrassment	-11.4982
▁insert	-11.4982
▁software	-11.4982
▁golden	-11.4984
▁accidentally	-11.4984
▁authority	-11.4984
▁potter	-11.4985
▁hu	-11.499
▁fl	-11.4991
▁childish	-11.4993
▁rhythm	-11.4993
gh	-11.4993
▁rising	-11.4994
▁si	-11.4996
▁fog	-11.5004
pt	-11.5005
▁disappeared	-11.5007
▁beast	-11.5016
▁wit	-11.5016
▁dreamed	-11.5036
den	-11.5042
▁murder	-11.5048
▁packing	-11.5061
res	-11.5062
▁um	-11.5065
▁kate	-11.5067
▁sounding	-11.5071
▁responding	-11.5072
▁costume	-11.5072
▁citizen	-11.5073
▁forum	-11.5073
board	-11.5074
▁distract	-11.5084
▁iphone	-11.5085
▁remaining	-11.5085
br	-11.5087
▁submit	-11.5099
▁ri	-11.5104
▁ver	-11.5104
ola	-11.5106
▁broad	-11.5107
▁discussions	-11.5114
▁nutrition	-11.5117
ou	-11.5118
ative	-11.5118
▁reduce	-11.5123
▁depths	-11.5124
▁tech	-11.5131
▁inevitable	-11.5131
▁syndrome	-11.5131
▁thirty	-11.5131
▁vehicle	-11.5131
▁leadership	-11.5132
▁dependent	-11.5132
▁tick	-11.5132
▁mentor	-11.5133
▁pub	-11.5133
▁darn	-11.5136
▁profit	-11.5137
▁protection	-11.5138
▁command	-11.5139
▁connections	-11.5145
▁bubble	-11.5146
▁separated	-11.515
uests	-11.5151
▁trap	-11.516
▁pumped	-11.5162
▁km	-11.5163
▁touches	-11.5164
rr	-11.5169
art	-11.517
fi	-11.5174
▁vow	-11.5177
rn	-11.5177
▁homes	-11.5179
▁existed	-11.518
▁blues	-11.5189
▁associate	-11.519
▁stroke	-11.5196
▁mon	-11.5213
▁girly	-11.5221
▁fold	-11.5223
▁contribution	-11.5224
▁bust	-11.5227
▁fulfill	-11.5237
▁gather	-11.5241
aaa	-11.5248
▁attract	-11.5261
▁unit	-11.5262
▁intellectual	-11.5269
▁bounc	-11.527
▁delete	-11.5276
▁intent	-11.5282
▁consuming	-11.5283
▁liberal	-11.5283
▁genius	-11.5283
▁communities	-11.5283
▁banana	-11.5283
▁proof	-11.5283
▁punishment	-11.5284
▁easter	-11.5285
▁agony	-11.5287
▁boil	-11.529
▁institution	-11.5291
▁embarrassing	-11.5293
▁perceived	-11.5293
▁bro	-11.5294
feel	-11.5297
▁essentially	-11.5299
▁slower	-11.5307
▁yearning	-11.5309
▁shops	-11.531
▁ab	-11.5314
▁holes	-11.5316
▁tracks	-11.5318
▁piss	-11.5318
▁jim	-11.5332
▁gasp	-11.5339
▁pms	-11.5343
▁sweating	-11.5353
▁wan	-11.5357
▁fu	-11.536
▁speaks	-11.5362
▁cousins	-11.5364
▁sensations	-11.5364
▁interactions	-11.537
ane	-11.5374
▁assignments	-11.5375
▁decade	-11.5377
▁employee	-11.5378
▁shin	-11.5379
▁fur	-11.5381
▁pang	-11.5381
▁sooooo	-11.5383
▁reject	-11.5388
lle	-11.5391
▁cow	-11.5393
▁terror	-11.5396
ula	-11.5397
fully	-11.5409
▁hugely	-11.541
▁nerd	-11.5429
▁adorable	-11.5437
▁feminist	-11.5437
▁knife	-11.5437
▁recognition	-11.5437
▁numer	-11.5437
▁dialogue	-11.5437
▁waist	-11.5437
▁hangover	-11.5438
▁bruised	-11.544
▁testing	-11.544
▁fourth	-11.5442
▁comforted	-11.5445
zz	-11.5446
ball	-11.5447
▁fitting	-11.5449
▁addicted	-11.545
▁stops	-11.5451
▁anguished	-11.5452
▁purchased	-11.5456
▁cherished	-11.5457
▁formula	-11.546
▁gel	-11.546
▁reasonable	-11.5465
▁tail	-11.5469
▁comprehend	-11.5472
▁lovers	-11.5481
▁apologise	-11.5482
▁cam	-11.5483
▁snuggle	-11.5487
▁crowded	-11.5489
▁trauma	-11.5494
▁sir	-11.5496
▁facts	-11.5501
▁grave	-11.5513
▁cuddle	-11.5524
use	-11.5527
▁instance	-11.5534
ys	-11.5538
▁guts	-11.5542
life	-11.5543
▁relation	-11.5553
▁bless	-11.5558
▁nest	-11.5558
▁ban	-11.5559
▁edit	-11.557
lt	-11.5575
▁upload	-11.5581
▁legal	-11.5584
▁africa	-11.5588
▁profession	-11.5592
▁caffeine	-11.5593
▁century	-11.5593
▁offensive	-11.5593
▁policy	-11.5593
▁powder	-11.5593
▁reputation	-11.5593
▁revenge	-11.5593
▁instagram	-11.5593
▁sauce	-11.5593
▁forehead	-11.5593
▁boston	-11.5593
▁spiral	-11.5593
▁frozen	-11.5593
▁ipod	-11.5594
▁gradually	-11.5596
▁practicing	-11.5596
▁che	-11.5597
▁educated	-11.5601
lipped	-11.5602
▁creepy	-11.5607
ug	-11.5607
▁unusually	-11.561
ara	-11.5614
▁historical	-11.5615
▁cramps	-11.5621
▁input	-11.5626
▁chores	-11.5635
▁wings	-11.5641
▁stretching	-11.5641
▁frank	-11.5641
gen	-11.5644
head	-11.5646
▁meaningless	-11.5653
ky	-11.5654
▁concerning	-11.5656
▁rip	-11.5663
▁smarter	-11.5664
mat	-11.567
uk	-11.5674
bb	-11.5675
off	-11.5686
▁fixed	-11.569
▁dollar	-11.5695
▁named	-11.5709
▁drops	-11.5709
▁wo	-11.571
▁auto	-11.572
▁proceed	-11.5734
ging	-11.5744
▁pause	-11.5747
▁slice	-11.5748
▁logic	-11.5751
▁chemistry	-11.5752
▁downstairs	-11.5752
▁elsewhere	-11.5752
▁essence	-11.5752
▁inappropriate	-11.5752
▁inevitably	-11.5752
▁supply	-11.5752
▁trimester	-11.5752
▁assuming	-11.5752
▁canadian	-11.5752
▁graduation	-11.5752
▁savor	-11.5752
▁separation	-11.5752
▁stray	-11.5752
▁crew	-11.5753
▁native	-11.5753
▁brighter	-11.5764
ran	-11.5764
▁blown	-11.5766
▁shining	-11.5781
▁dive	-11.5781
▁stuffed	-11.5782
▁crushed	-11.5783
▁bitterness	-11.579
▁balanced	-11.5794
▁complaints	-11.5794
▁div	-11.5795
▁grin	-11.5796
cl	-11.582
▁sour	-11.5822
▁chuck	-11.5823
▁cr	-11.5824
sp	-11.583
▁pic	-11.5841
▁recording	-11.5841
▁desired	-11.5846
uires	-11.585
▁judgment	-11.5852
▁tradition	-11.5852
▁creator	-11.5853
▁ankle	-11.5854
▁anna	-11.5854
▁circumstance	-11.5855
▁tested	-11.5858
▁strengthen	-11.5859
▁connecting	-11.5861
▁jaw	-11.5865
▁hopelessly	-11.5891
▁hates	-11.5894
▁whine	-11.5897
▁cleanse	-11.5901
▁withdraw	-11.5909
▁arrival	-11.5913
▁desperation	-11.5913
▁gossip	-11.5913
▁hormonal	-11.5913
▁suicidal	-11.5913
▁whining	-11.5913
▁boundaries	-11.5913
▁closing	-11.5913
▁kingdom	-11.5913
▁dozen	-11.5913
▁france	-11.5914
▁popping	-11.5914
▁consideration	-11.5918
▁difficulties	-11.592
tes	-11.5923
▁commented	-11.5923
▁brian	-11.5923
▁punk	-11.5934
shi	-11.5935
▁shiny	-11.5936
▁visits	-11.5937
▁fee	-11.5942
ult	-11.5945
▁bench	-11.5947
extended	-11.5967
ama	-11.5968
ik	-11.6001
▁vers	-11.6002
▁amounts	-11.6013
▁newspaper	-11.6017
nce	-11.6026
▁soak	-11.6027
▁singer	-11.6034
▁plants	-11.6037
▁sentences	-11.6038
han	-11.6051
ath	-11.6052
her	-11.6055
▁cultural	-11.6062
▁fr	-11.6071
▁statements	-11.6073
▁righteous	-11.6075
▁comfy	-11.6077
▁global	-11.6077
▁household	-11.6077
▁javascript	-11.6077
▁substance	-11.6077
▁purple	-11.6077
▁updating	-11.6077
▁sluggish	-11.6077
▁bullied	-11.6077
▁betrayal	-11.6078
▁buddy	-11.6079
▁stolen	-11.6079
▁loathing	-11.608
▁translate	-11.608
▁dave	-11.6082
lic	-11.6082
▁sans	-11.6085
▁nudge	-11.6087
▁lend	-11.6087
▁curse	-11.6088
▁wiped	-11.6093
zing	-11.6099
▁owners	-11.6099
▁effectively	-11.61
▁cozy	-11.61
▁bride	-11.6105
▁likeable	-11.6109
▁hunting	-11.6109
▁improving	-11.6111
▁jay	-11.6112
cc	-11.6119
▁painfully	-11.6127
▁waters	-11.6129
▁sticky	-11.6129
▁trailer	-11.6133
▁dads	-11.6134
og	-11.6138
ht	-11.6141
afe	-11.6144
▁burnt	-11.6145
▁lectures	-11.6147
▁prime	-11.6151
rc	-11.6153
▁joe	-11.6153
▁shirts	-11.616
▁surge	-11.6161
mates	-11.6164
▁asian	-11.6165
▁relatives	-11.6166
iest	-11.6167
▁thankfully	-11.6169
▁dec	-11.6179
▁sized	-11.618
▁ti	-11.6181
▁pillow	-11.6185
▁dip	-11.6191
bl	-11.6192
ks	-11.6203
gs	-11.6204
▁prop	-11.6204
▁drives	-11.6208
▁select	-11.6209
▁angels	-11.6212
▁drown	-11.6216
▁bend	-11.6217
▁distress	-11.6226
▁vs	-11.6228
▁compete	-11.6243
▁chicago	-11.6244
▁describing	-11.6244
▁february	-11.6244
▁protein	-11.6244
▁swollen	-11.6244
▁texas	-11.6244
▁panicked	-11.6244
▁burger	-11.6244
▁panicky	-11.6244
▁suffocated	-11.6245
▁multi	-11.6245
ualified	-11.6245
▁adrenaline	-11.6246
▁league	-11.625
▁permanently	-11.6255
▁obsessed	-11.6256
▁ph	-11.626
▁businesses	-11.6264
▁cons	-11.6266
ability	-11.6271
▁twisted	-11.6272
▁ob	-11.6274
▁porn	-11.6277
▁creates	-11.6278
▁coping	-11.6279
▁enjoyment	-11.6279
▁succeeded	-11.6279
▁doom	-11.6281
gluten	-11.6282
▁programme	-11.6282
▁grad	-11.6286
ek	-11.6287
ology	-11.6288
▁sail	-11.629
▁tighten	-11.629
▁feared	-11.6294
▁spoil	-11.6303
hen	-11.6303
▁dreading	-11.6304
▁rolls	-11.6305
mm	-11.6307
▁insult	-11.6308
▁hehe	-11.6316
▁tearing	-11.6316
ible	-11.6319
▁ron	-11.6321
▁bell	-11.6321
▁accomplishing	-11.6326
▁pose	-11.6332
▁shadows	-11.6335
▁trained	-11.6339
rate	-11.6343
▁buff	-11.635
▁nerve	-11.6355
hy	-11.6356
▁cum	-11.6356
▁cur	-11.6359
play	-11.6373
▁esp	-11.6375
▁launch	-11.6385
▁ultimate	-11.6399
▁logical	-11.6401
▁chip	-11.6409
▁positions	-11.6411
▁accustom	-11.6413
▁grieving	-11.6413
▁insecurity	-11.6413
▁obtain	-11.6413
▁outlook	-11.6413
▁peanut	-11.6413
▁sniff	-11.6413
▁witty	-11.6414
▁luckily	-11.6414
▁stir	-11.6414
▁bonus	-11.6414
▁boredom	-11.6414
▁deem	-11.6414
▁ny	-11.6415
▁overweight	-11.6416
▁pumpkin	-11.6417
▁pessimistic	-11.6417
▁inclined	-11.6418
▁selection	-11.6418
▁intentionally	-11.6422
▁coworkers	-11.6428
▁valentines	-11.6431
▁rack	-11.6435
▁menu	-11.6439
▁screwed	-11.6444
▁tax	-11.6448
▁icon	-11.6449
▁darker	-11.645
▁grind	-11.6451
▁satisfying	-11.6455
▁nuts	-11.6462
▁def	-11.6464
book	-11.6474
med	-11.6475
▁pun	-11.6498
▁highlight	-11.651
▁drivers	-11.6512
▁odds	-11.6513
ural	-11.652
▁bow	-11.6525
▁stays	-11.6525
▁forms	-11.6527
▁deadline	-11.6528
well	-11.6533
▁stated	-11.6536
▁respectful	-11.6537
wood	-11.6539
▁drain	-11.654
▁publicly	-11.6547
▁ray	-11.6559
▁bu	-11.656
▁layer	-11.6563
▁profound	-11.6571
▁daniel	-11.6574
▁consume	-11.6575
▁motivate	-11.6577
▁gate	-11.6578
▁chorus	-11.6585
▁determination	-11.6585
▁energies	-11.6585
▁philosophy	-11.6585
▁unwilling	-11.6585
▁mysterious	-11.6585
▁virus	-11.6585
▁territory	-11.6586
▁fridge	-11.6586
▁hollywood	-11.6586
▁hesitate	-11.6586
▁destructive	-11.6586
▁trivial	-11.6586
▁cliff	-11.6586
▁darling	-11.6586
▁minister	-11.6586
▁slipping	-11.6586
▁anniversary	-11.6586
▁entitled	-11.6586
▁breakdown	-11.6587
▁graphic	-11.6587
▁grandparents	-11.6594
▁organised	-11.6595
▁formal	-11.6603
▁spoiled	-11.6604
▁vegetables	-11.6609
▁ugh	-11.6611
▁realm	-11.6614
ged	-11.662
▁witnessed	-11.6622
king	-11.6625
▁styles	-11.663
stone	-11.6631
ters	-11.6633
▁conduct	-11.6637
▁bush	-11.6637
▁resource	-11.6641
▁norm	-11.6645
▁updates	-11.6646
▁corn	-11.6651
rie	-11.6654
▁eli	-11.666
▁remix	-11.6661
ov	-11.6661
▁tube	-11.6663
▁nod	-11.6673
▁rap	-11.6679
made	-11.6693
▁spider	-11.6701
▁economic	-11.6702
room	-11.6702
▁str	-11.6702
gie	-11.671
▁kissed	-11.6717
▁generations	-11.6722
▁attempted	-11.6725
▁pi	-11.6734
ill	-11.6735
▁ken	-11.6738
chi	-11.6739
ass	-11.6741
▁anguish	-11.6743
▁solutions	-11.6745
▁pal	-11.675
zi	-11.6752
▁rescue	-11.6752
▁geek	-11.6755
kh	-11.6758
▁curiosity	-11.6761
▁external	-11.6761
▁tumblr	-11.6761
▁unfamiliar	-11.6761
▁vibrant	-11.6761
▁splash	-11.6761
▁goddess	-11.6761
▁keyboard	-11.6761
▁regain	-11.6762
▁latter	-11.6762
▁dentist	-11.6762
▁interpretation	-11.6763
▁exhibition	-11.6765
▁shelf	-11.6767
nne	-11.6768
▁continuously	-11.6768
lor	-11.6771
ten	-11.6774
▁increased	-11.6779
▁morally	-11.6782
▁contributed	-11.6785
▁stares	-11.6787
▁smoothly	-11.6793
▁toast	-11.6795
▁captured	-11.6797
▁sheets	-11.6798
▁teenagers	-11.6801
ju	-11.6807
▁carbs	-11.6808
▁rainy	-11.681
▁woo	-11.6815
▁handled	-11.6835
▁frustrations	-11.6836
▁laughs	-11.6841
mar	-11.6845
▁western	-11.6852
▁jet	-11.6867
▁mari	-11.6868
▁protecting	-11.6875
▁niece	-11.688
▁editor	-11.688
▁endeavor	-11.6881
zy	-11.6883
▁ki	-11.6885
▁touchy	-11.6886
▁mates	-11.6891
▁tat	-11.6891
hh	-11.6892
▁killer	-11.6899
pping	-11.6899
▁talents	-11.6899
▁tri	-11.6902
▁chu	-11.6916
▁accurate	-11.6926
▁prison	-11.6935
▁va	-11.6936
▁keys	-11.6936
▁potato	-11.6937
▁closure	-11.6939
▁furniture	-11.6939
▁goddamn	-11.6939
▁intimacy	-11.6939
▁treadmill	-11.6939
▁isolation	-11.694
▁soccer	-11.694
▁stash	-11.694
▁southern	-11.694
▁spinning	-11.694
▁jewelry	-11.694
▁yummy	-11.694
▁resistance	-11.694
▁stack	-11.694
▁italian	-11.694
▁alert	-11.694
▁popped	-11.694
▁puff	-11.6943
▁sacred	-11.6943
▁trace	-11.6946
▁manipulated	-11.6948
▁disturbing	-11.6949
▁forgiving	-11.695
▁rocks	-11.6954
▁epic	-11.6955
▁gig	-11.6958
▁appointments	-11.696
▁cuts	-11.6963
▁jones	-11.6965
▁warmer	-11.6966
ail	-11.6969
▁clearer	-11.697
rung	-11.6974
▁earning	-11.6977
▁ruined	-11.6978
▁jon	-11.698
▁pounding	-11.6982
▁spa	-11.6983
lies	-11.6986
▁coughing	-11.6997
▁texts	-11.7016
▁cab	-11.7021
▁factors	-11.7022
iss	-11.7028
ero	-11.7036
▁dim	-11.704
▁slid	-11.704
▁fields	-11.7046
▁cave	-11.7059
▁crossing	-11.706
▁barrier	-11.7062
▁scenario	-11.7062
ied	-11.707
▁beats	-11.707
ened	-11.7073
ties	-11.7081
▁sang	-11.7087
▁flick	-11.7092
▁rape	-11.71
▁stroll	-11.7101
▁observe	-11.7103
▁council	-11.7121
▁glorious	-11.7121
▁narrow	-11.7121
▁pulse	-11.7121
▁minimal	-11.7121
▁promotion	-11.7122
▁climate	-11.7122
▁ripped	-11.7122
▁slump	-11.7124
berg	-11.7124
port	-11.7124
▁wp	-11.7125
▁injured	-11.7126
▁breastfeeding	-11.7128
▁golf	-11.7128
▁gaming	-11.7129
▁ji	-11.7131
▁mold	-11.7131
ple	-11.7134
▁upbeat	-11.7134
par	-11.7135
▁featured	-11.7138
▁shortly	-11.7151
▁woods	-11.7151
▁perfection	-11.7152
▁lightly	-11.7158
▁wh	-11.7163
▁visitors	-11.7163
▁viewing	-11.7167
going	-11.7173
▁shorter	-11.7174
▁ira	-11.7182
▁teams	-11.7189
▁examples	-11.7201
dded	-11.7202
▁bon	-11.7216
wi	-11.7221
▁ap	-11.7221
▁hips	-11.7221
pro	-11.7222
▁instinct	-11.7225
▁spit	-11.7226
▁pad	-11.7228
ments	-11.7232
▁idk	-11.7237
uff	-11.7237
▁dash	-11.7241
we	-11.7243
▁sober	-11.7243
▁sentiment	-11.7245
▁paragraph	-11.7247
▁passage	-11.725
▁pastor	-11.7255
▁runner	-11.7259
▁uses	-11.7261
▁officer	-11.7269
▁mor	-11.7277
▁stem	-11.7282
▁pitch	-11.7285
▁moan	-11.7287
▁gesture	-11.7288
▁allah	-11.729
▁virtual	-11.7292
ign	-11.7298
▁eric	-11.7298
▁prize	-11.7302
▁exhibit	-11.7302
▁fingertips	-11.7306
▁migraine	-11.7306
▁nurturing	-11.7306
▁accent	-11.7307
▁competitive	-11.7307
▁soothing	-11.7307
▁fandom	-11.7307
▁patch	-11.7308
▁minority	-11.7308
▁missionary	-11.7308
▁nearby	-11.731
▁hometown	-11.7312
tor	-11.7312
▁sounded	-11.7313
▁wallet	-11.7315
▁dragon	-11.732
all	-11.7324
▁lingering	-11.7324
▁ps	-11.7325
▁pla	-11.7333
▁records	-11.7339
▁bury	-11.7342
▁newly	-11.7345
▁slighted	-11.7345
▁directed	-11.7346
rg	-11.7347
▁embraced	-11.736
sm	-11.7361
▁poo	-11.7364
▁runners	-11.7366
lon	-11.7376
ella	-11.7376
▁grows	-11.7381
bell	-11.7385
▁poll	-11.7387
▁myspace	-11.739
▁tickets	-11.7399
▁damned	-11.74
▁temp	-11.7412
ations	-11.7415
▁wipe	-11.7417
ain	-11.7423
▁additional	-11.7425
▁announce	-11.7427
tu	-11.7427
▁differences	-11.7429
▁slim	-11.7434
▁volume	-11.7435
▁device	-11.7436
▁resolution	-11.7436
▁xm	-11.7439
▁dj	-11.744
▁photographer	-11.7445
links	-11.7447
field	-11.7448
▁spice	-11.7449
▁pee	-11.7453
▁soap	-11.7456
▁pc	-11.746
▁embrac	-11.746
▁valid	-11.7462
▁partners	-11.7464
▁alter	-11.7466
▁models	-11.7476
▁restaurants	-11.7477
▁attribute	-11.7488
▁weirdly	-11.7489
▁yu	-11.7491
▁sane	-11.7491
ern	-11.7492
▁verse	-11.7492
▁stole	-11.7493
▁authentic	-11.7494
▁orgasm	-11.7494
▁analyze	-11.7495
▁bizarre	-11.7495
▁corporate	-11.7495
▁engaging	-11.7495
▁infertility	-11.7495
▁luxury	-11.7495
▁mundane	-11.7495
▁temptation	-11.7495
▁twelve	-11.7495
▁unfeeling	-11.7495
▁crisp	-11.7495
▁slut	-11.7495
▁actress	-11.7495
▁sipping	-11.7495
▁throbbing	-11.7495
▁abortion	-11.7496
▁drum	-11.7497
▁withdrawal	-11.7497
▁fox	-11.7497
▁duck	-11.7497
▁deliberately	-11.7499
▁freezing	-11.7499
▁combined	-11.75
▁consist	-11.7502
▁shore	-11.7503
▁sufficiently	-11.7505
▁participating	-11.7505
▁cart	-11.7512
▁forces	-11.7512
▁fuss	-11.7513
▁prim	-11.7513
▁backwards	-11.7515
more	-11.7518
▁unexpectedly	-11.7519
▁unfairly	-11.752
▁bleeding	-11.752
ick	-11.7521
▁scheduled	-11.7537
▁cheating	-11.7538
▁includes	-11.7538
▁healed	-11.7539
uat	-11.754
▁claims	-11.7542
▁musicians	-11.7545
ock	-11.7551
▁consciously	-11.7556
ake	-11.7557
▁prep	-11.7559
▁crafting	-11.7561
▁beg	-11.7561
▁hurtful	-11.7566
▁leaning	-11.757
ory	-11.7577
▁interviews	-11.7579
▁wonders	-11.7579
▁remained	-11.7581
▁farmer	-11.7581
▁neat	-11.7582
▁nightmares	-11.7586
▁os	-11.7588
oon	-11.7605
▁cooler	-11.7607
gan	-11.7614
▁jog	-11.7615
▁resting	-11.7626
▁cups	-11.7627
▁alien	-11.7628
▁folk	-11.7629
▁union	-11.763
▁reflecting	-11.7638
▁toss	-11.7644
▁vibes	-11.7645
▁pt	-11.7647
cat	-11.7648
▁exception	-11.7658
light	-11.7662
▁eternal	-11.7673
lia	-11.7673
▁uns	-11.7679
▁pu	-11.7686
▁horizon	-11.7687
▁ambitious	-11.7687
▁conscience	-11.7687
▁livejournal	-11.7687
▁poverty	-11.7687
▁tunnel	-11.7687
▁urgency	-11.7687
▁democrat	-11.7687
▁resume	-11.7688
▁purchasing	-11.7688
▁plague	-11.7688
▁charlie	-11.7688
▁leaf	-11.7688
▁starving	-11.7688
▁emily	-11.7688
▁ipad	-11.7689
▁disoriented	-11.7689
▁battl	-11.7696
▁browsing	-11.7697
▁clingy	-11.7699
▁smelling	-11.7701
▁completing	-11.7703
▁intellectually	-11.7706
▁briefly	-11.7714
▁ch	-11.7731
▁grant	-11.7733
▁groove	-11.7734
▁digging	-11.7735
▁smith	-11.774
▁kim	-11.7743
lat	-11.7748
▁dc	-11.7751
▁cooked	-11.7763
ization	-11.7767
▁eyed	-11.7771
ole	-11.7771
▁fighter	-11.7772
▁file	-11.7781
pending	-11.7815
▁crimes	-11.782
▁adopt	-11.7822
▁threat	-11.7823
▁landscape	-11.7823
▁muslim	-11.7824
▁colleague	-11.7825
▁winner	-11.7826
▁loos	-11.783
hood	-11.783
sha	-11.7831
▁gf	-11.7831
▁donation	-11.7832
ide	-11.7833
▁horses	-11.7836
▁unfold	-11.7837
▁photographs	-11.7842
▁muster	-11.7843
▁rocking	-11.7845
▁flirt	-11.7848
▁strain	-11.7865
bel	-11.7868
▁warming	-11.7868
▁compromise	-11.7875
▁tolerate	-11.7875
▁adapt	-11.788
▁enable	-11.788
▁echo	-11.7883
▁admiration	-11.7884
▁arrogant	-11.7884
▁calendar	-11.7884
▁cocktail	-11.7884
▁concrete	-11.7884
▁florida	-11.7884
▁implement	-11.7884
▁nevertheless	-11.7884
▁agenda	-11.7884
▁carpet	-11.7884
▁desert	-11.7884
▁combat	-11.7884
▁unsafe	-11.7884
▁sunlight	-11.7884
▁coke	-11.7886
▁cities	-11.7886
▁representation	-11.7887
▁cringe	-11.7887
▁mummy	-11.7894
▁reduced	-11.7895
▁girlfriends	-11.7897
▁heartache	-11.7903
▁swan	-11.7903
▁discovery	-11.7908
▁rick	-11.7911
▁bin	-11.7922
top	-11.7923
▁educational	-11.793
▁trials	-11.7933
ward	-11.7956
bir	-11.7957
▁favorites	-11.7958
ford	-11.7962
▁spots	-11.7964
▁scars	-11.7965
▁pointed	-11.7966
▁tiredness	-11.7968
▁homeless	-11.7969
ice	-11.7969
▁represents	-11.797
▁forming	-11.7974
▁pale	-11.7975
ax	-11.7997
ight	-11.8011
▁tit	-11.8013
ced	-11.8016
uri	-11.8019
▁notebook	-11.8025
▁distraction	-11.8025
▁objects	-11.803
▁tub	-11.8032
▁nurses	-11.8041
▁edges	-11.8056
▁figures	-11.8059
du	-11.8062
▁drawer	-11.8064
▁confirm	-11.8064
▁affects	-11.8066
ssing	-11.8068
▁permanent	-11.8069
▁stressing	-11.8072
▁puzzle	-11.8075
▁wing	-11.8075
▁emerge	-11.8075
▁sur	-11.8078
▁jus	-11.8081
▁bore	-11.8082
▁blossom	-11.8084
▁concentrating	-11.8084
▁conviction	-11.8084
▁entrance	-11.8084
▁fundamental	-11.8084
▁generosity	-11.8084
▁intuition	-11.8084
▁mainstream	-11.8084
▁perfume	-11.8084
▁reassurance	-11.8084
▁universal	-11.8084
▁cease	-11.8084
▁encod	-11.8084
▁tennis	-11.8084
▁frown	-11.8084
▁sweep	-11.8084
▁lemon	-11.8084
▁shook	-11.8084
▁assistance	-11.8084
▁grandpa	-11.8084
▁prick	-11.8084
▁destination	-11.8084
▁identified	-11.8086
▁scenery	-11.8086
▁fence	-11.8087
▁destiny	-11.8089
▁relieve	-11.809
▁spine	-11.8094
▁gen	-11.8094
▁dragg	-11.8095
▁deck	-11.8111
▁buck	-11.8117
pre	-11.812
▁limbs	-11.812
▁joints	-11.8126
cap	-11.8133
▁scan	-11.8138
ney	-11.8139
oe	-11.8139
▁instincts	-11.8148
▁powers	-11.8149
▁tw	-11.8151
ans	-11.8152
▁cre	-11.8159
▁decades	-11.8161
▁opens	-11.8162
▁discovering	-11.8172
▁smoothie	-11.8172
ute	-11.818
▁bun	-11.8184
ust	-11.8184
ggy	-11.8188
▁rank	-11.8192
▁soda	-11.8196
▁wounds	-11.8197
▁ram	-11.8209
▁nut	-11.8221
▁contemplate	-11.8222
ep	-11.8228
▁pete	-11.8228
▁sample	-11.8229
▁wrist	-11.8229
▁neighbor	-11.8229
▁magazines	-11.8231
van	-11.8232
▁winds	-11.824
direction	-11.824
▁annoy	-11.8242
ification	-11.8242
▁arise	-11.8243
▁mal	-11.8249
▁rug	-11.8265
▁possess	-11.8265
▁eh	-11.8266
▁addict	-11.8266
tel	-11.8267
▁tinge	-11.8273
▁twin	-11.8279
▁marvel	-11.8282
▁rear	-11.8285
volving	-11.8286
▁absurd	-11.8287
▁favour	-11.8288
▁ismobile	-11.8288
▁butterfly	-11.8288
▁eternity	-11.8288
▁legacy	-11.8288
▁evoke	-11.8288
▁moderate	-11.8288
▁bunny	-11.8288
▁dairy	-11.8288
▁revel	-11.8288
▁property	-11.8289
▁instructor	-11.8289
▁legitimate	-11.829
▁assessment	-11.829
▁wa	-11.829
▁scrub	-11.8291
▁katie	-11.8291
▁diagnosed	-11.8293
▁central	-11.8293
▁washington	-11.8294
▁cycling	-11.8295
▁relish	-11.8295
▁bucket	-11.8295
▁conform	-11.8298
▁drunken	-11.8299
▁pron	-11.83
▁emma	-11.8311
▁cs	-11.8314
▁collected	-11.8314
▁invested	-11.8314
▁poke	-11.8316
▁cancel	-11.8325
▁agent	-11.8327
car	-11.833
ett	-11.8333
▁numbness	-11.8337
▁correctly	-11.8339
▁han	-11.835
iff	-11.8352
▁ep	-11.8362
ld	-11.8363
▁paintings	-11.8364
▁ci	-11.8368
bed	-11.8375
▁professionals	-11.8375
▁ge	-11.8381
▁methods	-11.8393
ras	-11.8395
▁sal	-11.8395
▁sim	-11.8409
▁brad	-11.8412
bit	-11.842
▁systems	-11.8422
ude	-11.8422
▁snake	-11.8436
▁cigarette	-11.8437
erif	-11.8437
▁explains	-11.8439
aka	-11.8442
frame	-11.8448
▁drift	-11.845
▁neglect	-11.845
▁chin	-11.8452
▁pointing	-11.8463
▁shiver	-11.8468
▁bleed	-11.8468
▁lace	-11.8472
fe	-11.8478
▁dismiss	-11.8478
hal	-11.8481
▁chronic	-11.8481
▁costs	-11.8483
mon	-11.8485
▁theirs	-11.8486
▁mrs	-11.8489
mate	-11.8489
▁meditate	-11.8489
▁branch	-11.8494
▁brutal	-11.8495
▁despise	-11.8496
uarrel	-11.8496
▁harmony	-11.8496
▁integrity	-11.8496
▁optimism	-11.8496
▁reconnect	-11.8496
▁rehearsal	-11.8496
▁revisit	-11.8496
▁servant	-11.8496
▁streak	-11.8496
▁amazon	-11.8496
▁submission	-11.8496
▁duties	-11.8496
▁valley	-11.8496
▁dynamic	-11.8496
▁towel	-11.8496
▁jewish	-11.8496
uacy	-11.8496
▁gown	-11.8497
▁panel	-11.8497
▁basement	-11.8497
▁snarky	-11.8498
▁transformation	-11.8498
▁cruise	-11.8498
▁robot	-11.8499
▁cries	-11.8499
▁globe	-11.85
▁jazz	-11.85
ians	-11.8501
lc	-11.8501
▁julie	-11.8502
▁arguing	-11.8503
▁taller	-11.8503
▁shield	-11.8504
ever	-11.8504
▁threatening	-11.8509
▁zoom	-11.8511
▁phil	-11.8512
▁crowds	-11.8516
▁sip	-11.8519
▁jam	-11.8519
▁produced	-11.8523
▁whispered	-11.8524
▁mega	-11.8533
▁whore	-11.8533
▁ski	-11.8537
▁acknowledged	-11.854
tal	-11.8543
▁hopelessness	-11.8551
▁ar	-11.8556
▁boyfriends	-11.8558
▁fer	-11.8559
▁bye	-11.856
▁crushing	-11.856
▁format	-11.8563
▁ot	-11.8573
▁performing	-11.8577
▁peel	-11.8588
▁rides	-11.8591
row	-11.8596
▁roads	-11.8598
cs	-11.8602
gn	-11.8603
▁creations	-11.8607
ched	-11.8619
utf	-11.862
▁rode	-11.8631
▁whip	-11.8634
▁locale	-11.8639
▁noon	-11.8645
▁layout	-11.865
▁consumer	-11.8651
▁hire	-11.8655
▁zen	-11.8659
▁disappoint	-11.8662
box	-11.8663
▁awards	-11.868
▁tidy	-11.8681
▁fails	-11.8685
▁establish	-11.8687
▁arch	-11.8694
▁enormous	-11.8694
▁immense	-11.8695
▁increasing	-11.8695
▁royal	-11.8695
▁hike	-11.8696
af	-11.8699
▁reception	-11.8702
▁sens	-11.8703
▁devote	-11.8707
▁transport	-11.8708
▁percent	-11.8708
▁tutor	-11.8709
▁extraordinari	-11.8709
▁supreme	-11.8709
▁celebrity	-11.8709
▁clarify	-11.8709
▁concentration	-11.8709
▁energised	-11.8709
▁extension	-11.8709
▁producing	-11.8709
▁rachel	-11.8709
▁taylor	-11.8709
▁solitude	-11.8709
▁bundle	-11.8709
▁urban	-11.8709
▁decorating	-11.8709
case	-11.8709
▁joking	-11.8709
▁console	-11.8709
▁mouse	-11.8709
▁legend	-11.871
▁stall	-11.871
▁ginger	-11.871
▁roman	-11.871
▁susan	-11.871
▁irish	-11.871
▁validation	-11.871
▁blade	-11.8711
▁thrust	-11.8711
▁andrew	-11.8712
▁overnight	-11.8713
▁freakin	-11.8715
▁obsessive	-11.8716
▁karma	-11.8717
▁rapidly	-11.8717
▁holly	-11.872
▁blink	-11.872
▁graduated	-11.8725
kk	-11.8731
▁influenced	-11.8735
▁yay	-11.8736
▁sources	-11.8736
▁residents	-11.874
▁delightful	-11.8741
▁richard	-11.8743
▁silently	-11.8744
▁creatively	-11.8745
▁soaking	-11.8746
▁outdoors	-11.8749
▁justin	-11.8751
▁martin	-11.8756
▁adam	-11.8757
▁sway	-11.8775
pu	-11.8776
▁clubs	-11.8782
▁inches	-11.8788
▁indie	-11.879
▁essays	-11.8808
▁affairs	-11.8815
▁longest	-11.8816
▁cm	-11.8816
▁existing	-11.8816
but	-11.8818
▁exercises	-11.8823
▁practices	-11.8838
▁lined	-11.884
▁capital	-11.8847
▁snapp	-11.8852
uately	-11.8862
ili	-11.8862
▁landing	-11.8862
▁invitation	-11.8866
▁expert	-11.8867
▁impulse	-11.8867
▁sleeve	-11.8867
▁flame	-11.8867
▁vibration	-11.8867
▁chore	-11.8868
▁tale	-11.8868
▁vocal	-11.8873
▁punish	-11.8879
▁bloom	-11.8883
fl	-11.8892
▁sketch	-11.8894
az	-11.89
▁lion	-11.8903
▁chic	-11.8903
▁delay	-11.8909
▁weights	-11.8913
▁tape	-11.8917
cha	-11.8918
▁criti	-11.8924
▁raining	-11.8925
▁describes	-11.8925
▁approval	-11.8926
▁ceiling	-11.8926
▁communicating	-11.8926
▁cotton	-11.8926
▁horrified	-11.8926
▁license	-11.8926
▁racist	-11.8926
▁strategy	-11.8926
▁unprepared	-11.8926
▁vulnerability	-11.8926
▁cricket	-11.8926
▁embark	-11.8926
▁ordeal	-11.8926
▁studied	-11.8926
▁backpack	-11.8926
▁chaotic	-11.8926
▁collar	-11.8926
▁pleasing	-11.8926
▁attain	-11.8926
▁labour	-11.8926
▁destruction	-11.8926
finity	-11.8927
▁judgmental	-11.8928
▁comfortably	-11.8929
▁chatter	-11.8931
▁engagement	-11.8932
▁announcement	-11.8933
▁defin	-11.8934
▁housework	-11.8934
▁reread	-11.8935
▁ru	-11.8936
▁cloth	-11.8937
▁oneself	-11.8937
▁renewed	-11.894
int	-11.8942
ening	-11.8943
▁deleted	-11.8945
▁snapped	-11.8945
▁nyc	-11.8946
▁forgiven	-11.8951
▁transform	-11.8953
▁arse	-11.8954
▁satan	-11.8956
▁instructions	-11.8957
▁subse	-11.8961
▁revealed	-11.8961
▁churches	-11.8966
▁peek	-11.8968
▁needles	-11.8971
▁proven	-11.8976
▁primari	-11.8976
▁recovering	-11.8978
▁repeated	-11.8982
▁incorporate	-11.8991
▁tops	-11.8991
fo	-11.9004
▁traditions	-11.9006
▁blur	-11.9009
▁hugg	-11.9011
▁remark	-11.9015
▁users	-11.9018
▁stages	-11.9024
▁helplessness	-11.9031
▁muse	-11.9043
▁occurs	-11.9043
▁tu	-11.9052
▁beautifully	-11.9061
▁stumbl	-11.9069
▁rings	-11.9079
▁returns	-11.9079
▁rainbow	-11.9088
▁ambition	-11.9088
▁expense	-11.9089
▁peak	-11.909
▁comm	-11.9095
▁confession	-11.9098
▁ye	-11.9101
ren	-11.9102
▁tire	-11.9109
▁mug	-11.911
▁slack	-11.9117
▁demon	-11.9124
ked	-11.9127
▁interpret	-11.9127
▁suppress	-11.913
▁strict	-11.9134
▁determine	-11.914
▁cl	-11.9145
▁unconscious	-11.9148
▁fifteen	-11.9148
▁gallery	-11.9148
▁hypocrite	-11.9148
▁literary	-11.9148
▁mascara	-11.9148
▁refrain	-11.9148
▁striving	-11.9148
▁turmoil	-11.9148
▁violated	-11.9148
▁aloud	-11.9148
▁unstable	-11.9148
▁crystal	-11.9148
▁buried	-11.9148
▁stride	-11.9149
uipped	-11.9149
▁garage	-11.9149
uency	-11.9149
▁edgy	-11.9149
▁aisle	-11.915
▁blissful	-11.915
▁debut	-11.9151
▁claw	-11.9153
▁wolf	-11.9154
▁suitable	-11.9155
▁yall	-11.9155
▁fleeting	-11.9156
▁bogg	-11.9158
▁motor	-11.9158
▁unconditionally	-11.9158
▁pissy	-11.916
▁shattered	-11.916
▁sexuality	-11.916
▁fuckin	-11.9162
ction	-11.9162
▁mourning	-11.9164
▁clueless	-11.9167
▁motives	-11.917
▁reports	-11.9172
▁politicians	-11.9174
ita	-11.9175
▁gathered	-11.9175
▁downs	-11.9176
▁veggies	-11.9181
▁palm	-11.9182
▁grounds	-11.9185
▁preach	-11.9193
run	-11.9193
▁networking	-11.9205
▁stealing	-11.9206
▁demons	-11.9208
pher	-11.9208
▁fired	-11.9218
▁formed	-11.9226
▁yea	-11.9235
▁pressed	-11.924
▁strikes	-11.9248
▁twins	-11.925
▁belonged	-11.925
▁couldve	-11.9256
ium	-11.9277
▁provides	-11.9282
▁behaviors	-11.9284
▁cub	-11.9286
▁dam	-11.9288
▁mend	-11.9293
▁commenting	-11.9295
▁mums	-11.9298
ani	-11.93
▁protest	-11.9314
▁scripture	-11.9316
cho	-11.9317
▁liar	-11.9318
▁lane	-11.932
▁birthdays	-11.9327
▁overwhelm	-11.933
▁complaint	-11.9332
▁aged	-11.9337
▁organize	-11.9339
vin	-11.9344
▁stitch	-11.9345
▁huh	-11.9347
▁chew	-11.9349
▁giggle	-11.9351
▁register	-11.9357
▁discount	-11.9357
▁peer	-11.9361
▁tremendous	-11.9361
▁fruits	-11.9362
▁grieve	-11.9367
▁machines	-11.9374
▁contrary	-11.9376
▁convincing	-11.9376
▁irritating	-11.9376
▁ounce	-11.9376
▁serene	-11.9376
▁starbucks	-11.9376
▁unfulfilled	-11.9376
▁unhappiness	-11.9376
▁config	-11.9376
▁lurk	-11.9376
▁drill	-11.9376
▁acute	-11.9376
▁jackson	-11.9376
▁tingling	-11.9377
▁limbo	-11.9377
▁plight	-11.9377
▁nursery	-11.9377
▁spain	-11.9378
▁edition	-11.9379
▁bullet	-11.9379
▁christianity	-11.9379
▁potatoes	-11.9379
▁te	-11.938
▁weddings	-11.9383
▁downtown	-11.9383
▁african	-11.9383
▁subconsciously	-11.9388
▁baked	-11.939
nna	-11.9391
▁hum	-11.9397
▁contacts	-11.9398
▁awakening	-11.9401
▁sue	-11.9401
▁internally	-11.9403
ima	-11.9404
▁rep	-11.9404
▁disappointing	-11.9406
▁appropriately	-11.9406
▁boobs	-11.941
▁recovered	-11.941
▁stuffs	-11.9412
rl	-11.942
▁prices	-11.942
▁stretched	-11.9421
▁ties	-11.9422
▁gum	-11.9427
ink	-11.9431
▁rewarding	-11.9438
▁relat	-11.9448
▁des	-11.9452
ound	-11.9454
tly	-11.9455
ets	-11.9456
▁inform	-11.9462
▁county	-11.9463
gy	-11.9472
ob	-11.9476
mu	-11.9478
lit	-11.948
▁trans	-11.9481
bra	-11.9489
rm	-11.9499
▁motions	-11.9506
▁din	-11.9507
▁shades	-11.9517
▁buildings	-11.9533
▁elder	-11.9537
▁signing	-11.9542
▁corners	-11.9546
▁pasta	-11.9548
▁vampire	-11.9548
▁thread	-11.9549
▁trial	-11.9551
▁musician	-11.9559
class	-11.9561
ora	-11.9563
▁angle	-11.9563
ison	-11.9576
▁flipp	-11.9578
▁fic	-11.9579
▁disconnect	-11.9589
▁honour	-11.9591
▁expose	-11.96
▁decline	-11.96
▁wealth	-11.9601
▁lash	-11.9601
ez	-11.9603
▁lens	-11.9607
▁captain	-11.9608
▁dignity	-11.9608
▁exposure	-11.9608
▁hurricane	-11.9608
▁necessity	-11.9608
▁occupy	-11.9608
▁sarcasm	-11.9608
▁smack	-11.9608
▁sponsor	-11.9608
▁survey	-11.9608
▁whiny	-11.9608
▁thomas	-11.9608
▁seldom	-11.9608
▁innocence	-11.9608
▁overseas	-11.9608
▁grammar	-11.9608
▁wicked	-11.9608
▁scarf	-11.9608
▁foggy	-11.9608
▁foster	-11.9608
▁jeff	-11.9609
▁elated	-11.9609
▁kidding	-11.9609
▁underwear	-11.9609
▁fellowship	-11.9609
▁estate	-11.9609
lely	-11.9609
▁brick	-11.9609
▁hover	-11.961
▁wax	-11.961
▁constructive	-11.9612
▁courses	-11.9612
▁cakes	-11.9616
▁restricted	-11.9619
je	-11.9623
▁tread	-11.9628
▁stating	-11.963
▁batch	-11.963
▁lament	-11.9634
▁sorted	-11.964
har	-11.9653
▁grabbing	-11.9656
uaintances	-11.9661
▁dreadful	-11.9663
sen	-11.9665
▁mill	-11.9667
tt	-11.9668
▁merry	-11.9669
▁yearn	-11.9674
▁hosting	-11.9685
▁endeavors	-11.9686
▁professionally	-11.9691
▁sticks	-11.97
▁carb	-11.9702
▁idol	-11.9703
▁landed	-11.9717
▁freshly	-11.972
▁softly	-11.9727
ix	-11.9729
tan	-11.973
▁listed	-11.9737
▁swings	-11.9739
▁advocate	-11.974
ese	-11.9745
▁designers	-11.9746
▁wars	-11.9748
▁supports	-11.975
▁gosh	-11.9769
▁owned	-11.9773
▁soothe	-11.9776
▁mag	-11.9781
▁cartoon	-11.9786
▁pencil	-11.9787
▁tattoo	-11.9787
▁candle	-11.9787
▁tourist	-11.9788
lessness	-11.979
uin	-11.9794
click	-11.9799
ox	-11.9804
▁devotion	-11.9806
▁bio	-11.9807
▁covering	-11.9817
ose	-11.9822
▁chapters	-11.9825
▁wallow	-11.9828
▁flush	-11.9829
▁orders	-11.9831
▁psychological	-11.9832
▁zoo	-11.9836
▁gloom	-11.9839
▁recognise	-11.984
▁rec	-11.9841
▁tee	-11.9842
▁examine	-11.9844
ugging	-11.9844
▁margin	-11.9846
▁confide	-11.9846
▁feat	-11.9846
▁bipolar	-11.9846
▁domestic	-11.9846
▁evolution	-11.9846
▁irritation	-11.9846
▁monitor	-11.9846
▁necklace	-11.9846
▁reckon	-11.9846
▁scientific	-11.9846
▁shampoo	-11.9846
▁spectacular	-11.9846
▁superficial	-11.9846
▁upstairs	-11.9846
▁warrior	-11.9846
▁filter	-11.9846
▁advertising	-11.9846
▁organizing	-11.9846
▁lawyer	-11.9846
▁limitations	-11.9847
▁species	-11.9847
▁wrapping	-11.9847
▁champion	-11.9847
▁chef	-11.9847
▁unbearable	-11.9848
▁reflective	-11.9848
aut	-11.9848
▁coverage	-11.9849
▁tickle	-11.9851
uck	-11.9852
▁greed	-11.9852
▁deceived	-11.9853
▁enlightened	-11.9855
▁robert	-11.9855
▁controlled	-11.9855
▁momma	-11.9857
▁shifts	-11.9858
▁ger	-11.986
▁doc	-11.9862
▁australian	-11.9864
▁convert	-11.9865
▁wins	-11.9868
▁sandy	-11.9871
uicker	-11.9872
▁finances	-11.9874
▁ham	-11.9875
▁progressing	-11.9876
▁tricks	-11.9877
▁materials	-11.9878
▁teary	-11.9879
▁crown	-11.988
▁tempered	-11.9883
mber	-11.9893
▁accounts	-11.9894
kit	-11.9895
▁supporters	-11.9901
▁viewers	-11.9903
▁freeze	-11.9904
▁guid	-11.9908
▁shave	-11.9909
▁nicer	-11.9911
▁regrets	-11.9921
▁resolutions	-11.9921
▁itchy	-11.9922
▁deadlines	-11.9929
▁performances	-11.993
ena	-11.9931
far	-11.9932
▁om	-11.9935
▁majorly	-11.9947
▁rang	-11.9949
▁heights	-11.9957
ying	-11.9965
iz	-11.9969
ric	-11.997
▁reacting	-11.9972
▁sweetness	-11.9979
▁sara	-11.999
ken	-12.0005
▁wig	-12.001
ware	-12.0013
▁tweets	-12.0019
tive	-12.0024
▁workshop	-12.0031
nal	-12.0031
▁linked	-12.0032
▁booked	-12.0034
▁bella	-12.0036
▁dye	-12.0039
iya	-12.0039
▁eco	-12.0042
ously	-12.0042
▁absorb	-12.0044
ari	-12.0047
▁comics	-12.0051
▁acknowledg	-12.0051
net	-12.0055
val	-12.0064
▁prospects	-12.0073
▁resulted	-12.0078
▁anticipate	-12.0082
▁korea	-12.0084
▁psycho	-12.0086
▁poet	-12.0087
▁allergies	-12.009
▁bikini	-12.009
▁cheesy	-12.009
▁crochet	-12.009
▁greasy	-12.009
▁insomnia	-12.009
▁jersey	-12.009
▁memorable	-12.009
▁observing	-12.009
▁serenity	-12.009
▁surreal	-12.009
▁thrift	-12.009
▁understatement	-12.009
▁vegetarian	-12.009
▁entrust	-12.009
▁heritage	-12.009
▁retain	-12.009
▁voting	-12.009
▁inviting	-12.009
▁kinship	-12.009
▁edward	-12.009
▁oscar	-12.009
▁backyard	-12.009
▁chalk	-12.009
▁championship	-12.009
▁uniform	-12.009
uipment	-12.009
▁administration	-12.0091
▁padding	-12.0091
▁stability	-12.0091
▁sunset	-12.0091
▁steer	-12.0092
▁visible	-12.0092
▁copies	-12.0092
▁unreasonable	-12.0092
▁association	-12.0092
▁jew	-12.0093
▁sophisticated	-12.0093
▁mentality	-12.0094
▁dir	-12.0096
▁perpetually	-12.0097
▁loyalty	-12.0097
▁purge	-12.0097
▁mantra	-12.0098
▁bedtime	-12.0099
▁errands	-12.0101
uir	-12.0102
▁za	-12.0102
▁leak	-12.0102
▁maid	-12.0105
lew	-12.0106
▁arena	-12.0109
▁peeps	-12.0113
▁damp	-12.0113
ast	-12.0115
▁raging	-12.0117
▁endured	-12.0119
▁interrupted	-12.0122
▁dragging	-12.0125
▁ec	-12.0125
▁josh	-12.0125
▁simon	-12.0128
aki	-12.0131
▁chemicals	-12.0136
▁amusing	-12.0139
▁eff	-12.014
▁lounge	-12.0145
▁greeting	-12.0146
▁dwelling	-12.0147
▁boards	-12.0148
▁sec	-12.0148
▁clip	-12.0152
▁performed	-12.0152
▁heel	-12.0154
▁dean	-12.0158
▁winners	-12.0164
▁needle	-12.0165
▁interacting	-12.0167
yo	-12.0168
▁cultures	-12.0172
▁poses	-12.0176
▁calming	-12.0181
▁brighten	-12.0189
▁bothers	-12.019
▁progressive	-12.0197
▁chopp	-12.0216
▁cas	-12.022
▁appearing	-12.0226
ino	-12.023
ire	-12.0231
▁sweets	-12.0233
▁showered	-12.0236
▁sparkle	-12.024
▁bent	-12.0246
▁mas	-12.0246
press	-12.0254
▁emphasize	-12.027
down	-12.0272
▁dur	-12.0274
▁gr	-12.0276
▁envelope	-12.0279
▁underly	-12.028
▁milestone	-12.0281
▁plug	-12.0281
ering	-12.0282
▁suggestion	-12.0285
love	-12.029
screen	-12.0293
▁predict	-12.0295
▁piles	-12.0307
▁obsess	-12.031
▁tent	-12.0311
▁gifted	-12.0312
mes	-12.0313
ica	-12.0316
▁tags	-12.0316
▁guns	-12.0317
▁websites	-12.0318
table	-12.0319
▁clutter	-12.0322
▁tease	-12.0325
▁efficient	-12.0326
boy	-12.0327
▁summers	-12.0332
▁enhance	-12.0332
▁loathe	-12.0334
▁neil	-12.0335
▁blatant	-12.034
▁ceremony	-12.034
▁clutch	-12.034
▁elizabeth	-12.034
▁flavour	-12.034
▁hilarious	-12.034
▁irresponsible	-12.034
▁skull	-12.034
▁supermarket	-12.034
▁temporarily	-12.034
▁trembling	-12.034
▁unattractive	-12.034
▁unfocused	-12.034
▁momentarily	-12.034
▁refusing	-12.034
▁sought	-12.034
▁crunch	-12.034
▁rabbit	-12.034
▁composition	-12.034
▁promising	-12.034
▁etsy	-12.034
▁narrative	-12.034
▁mortal	-12.034
▁becua	-12.034
▁hectic	-12.034
▁humour	-12.034
▁priest	-12.034
▁absent	-12.034
▁seminar	-12.034
▁placing	-12.034
▁finals	-12.0341
▁tiring	-12.0341
▁reassuring	-12.0341
▁excel	-12.0341
▁assistant	-12.0341
▁competent	-12.0341
▁stain	-12.0341
▁indulgent	-12.0342
▁intrigued	-12.0342
▁counselor	-12.0343
▁collapse	-12.0344
▁european	-12.0344
▁robin	-12.0345
▁porch	-12.0346
uitting	-12.035
▁looming	-12.035
▁uplifting	-12.0351
▁agreement	-12.0355
▁collective	-12.0355
▁blonde	-12.0356
▁fatigued	-12.0356
▁laura	-12.0357
▁outward	-12.0359
▁kiddos	-12.036
▁adopted	-12.0363
▁tha	-12.0365
ew	-12.0366
▁slamm	-12.0367
▁attitudes	-12.0367
▁oily	-12.037
ston	-12.0372
lam	-12.0373
▁raped	-12.0379
▁gem	-12.0379
ali	-12.0381
▁wounded	-12.0384
▁uh	-12.0387
▁funds	-12.0396
uad	-12.0399
▁dreaded	-12.04
▁greg	-12.0401
▁addressed	-12.0406
▁dug	-12.0416
tin	-12.0418
ori	-12.0418
▁alice	-12.0422
▁verses	-12.0423
ving	-12.0423
rb	-12.0432
▁loudly	-12.0433
▁venting	-12.0434
▁tak	-12.0439
ator	-12.044
▁meh	-12.044
▁albums	-12.0442
▁fra	-12.0447
▁volunteers	-12.0451
▁los	-12.0454
▁insights	-12.0455
post	-12.0462
ux	-12.0466
lock	-12.0471
▁fran	-12.0473
▁beans	-12.0473
▁ironic	-12.0473
tha	-12.0481
bar	-12.0489
nk	-12.0492
▁dreamy	-12.0492
▁ze	-12.0497
▁cells	-12.0504
▁journalist	-12.0505
dge	-12.0506
▁wire	-12.0517
▁crafts	-12.0527
▁chan	-12.0527
▁haz	-12.0529
▁haul	-12.0537
▁portrait	-12.0537
▁babe	-12.0538
▁interrupt	-12.0541
▁classmate	-12.0541
▁tur	-12.0543
▁mp	-12.0544
▁flutter	-12.0553
▁charm	-12.0557
▁titles	-12.0559
▁knot	-12.0563
▁trainer	-12.0565
most	-12.0567
▁rag	-12.057
uous	-12.0574
war	-12.058
▁malaysia	-12.058
▁fierce	-12.0582
▁subconscious	-12.0582
▁surprising	-12.0583
▁skate	-12.0585
▁thesis	-12.0589
▁bid	-12.059
ib	-12.0593
▁virgin	-12.0596
▁stunning	-12.0597
▁accompany	-12.0597
▁appreciating	-12.0597
▁balcony	-12.0597
▁behaving	-12.0597
▁descend	-12.0597
▁detox	-12.0597
▁emergency	-12.0597
▁enemies	-12.0597
▁extraordinary	-12.0597
▁frazzled	-12.0597
▁incomplete	-12.0597
▁preserve	-12.0597
▁pretentious	-12.0597
▁spectrum	-12.0597
▁supervisor	-12.0597
▁tournament	-12.0597
▁tribute	-12.0597
▁btw	-12.0597
▁remedy	-12.0597
▁headphones	-12.0597
▁oven	-12.0597
▁reckless	-12.0597
▁wives	-12.0597
▁commission	-12.0597
▁analysis	-12.0597
▁trek	-12.0597
▁dedication	-12.0597
▁nude	-12.0598
try	-12.0599
▁cabin	-12.06
zu	-12.06
▁freshman	-12.0602
▁certainty	-12.0606
▁invaded	-12.0606
▁roast	-12.0608
▁annual	-12.0608
▁shoved	-12.061
set	-12.0611
▁sword	-12.0619
▁announced	-12.062
▁beatles	-12.062
▁hammer	-12.0622
pen	-12.0627
▁surf	-12.0627
▁voted	-12.0627
▁trad	-12.0629
▁whit	-12.0633
▁loo	-12.0635
▁triggered	-12.0635
▁sole	-12.0636
▁sleepless	-12.0637
▁cable	-12.0638
▁rewarded	-12.0642
▁processes	-12.0645
▁blocks	-12.0651
ological	-12.0652
▁penn	-12.0652
▁horn	-12.0653
▁itch	-12.0655
▁mart	-12.0655
▁publication	-12.0659
▁closeness	-12.0659
▁mil	-12.0668
like	-12.0671
▁engineer	-12.0673
blew	-12.0676
▁hood	-12.0678
▁cus	-12.0682
▁photographers	-12.0683
omi	-12.0687
▁booth	-12.0688
▁engine	-12.0694
▁knocking	-12.0713
▁environmental	-12.0724
▁doubting	-12.0731
▁fishing	-12.0732
ome	-12.0736
hand	-12.0742
▁tin	-12.0749
▁failures	-12.0752
ically	-12.0756
▁mins	-12.076
hhh	-12.0769
▁julia	-12.0775
▁dat	-12.0775
▁sis	-12.079
▁crop	-12.0797
▁purposeful	-12.0799
▁alike	-12.0799
▁pursuit	-12.08
▁preparation	-12.08
▁error	-12.0801
uaintance	-12.0801
▁possession	-12.0802
▁designing	-12.0807
uake	-12.0807
view	-12.0808
▁visitor	-12.0812
▁wink	-12.0812
▁ink	-12.0815
▁electric	-12.0824
▁lick	-12.0834
▁disregard	-12.0841
▁spontaneous	-12.0845
dies	-12.0847
▁usa	-12.0848
anda	-12.0851
▁heap	-12.0857
ivity	-12.086
uncharacteristic	-12.086
▁coconut	-12.086
▁empathize	-12.086
▁incompetent	-12.086
▁indulging	-12.086
▁packaging	-12.086
▁rejoice	-12.086
▁significance	-12.086
▁unproductive	-12.086
▁oriented	-12.086
▁compulsion	-12.086
▁ultra	-12.086
▁psychology	-12.086
▁converse	-12.086
▁feather	-12.086
▁bargain	-12.086
▁venue	-12.086
▁plunge	-12.086
▁hiking	-12.086
▁obey	-12.086
▁vegas	-12.086
▁purse	-12.086
▁infant	-12.086
▁sidewalk	-12.0861
▁contemporary	-12.0861
▁audition	-12.0861
▁cc	-12.0861
▁sickened	-12.0862
▁lashes	-12.0863
▁skies	-12.0863
▁acne	-12.0863
▁ocd	-12.0864
▁embarassed	-12.0864
▁committing	-12.0865
▁recharged	-12.0865
▁modest	-12.0867
▁ash	-12.0867
▁awaken	-12.0868
▁jail	-12.0869
▁moron	-12.087
▁flirty	-12.087
▁downward	-12.087
▁emerged	-12.0871
▁observer	-12.0874
▁angsty	-12.0875
▁behaved	-12.088
▁supplies	-12.0881
▁whatnot	-12.0882
▁bass	-12.0885
▁organs	-12.0886
▁irrationally	-12.0889
▁stupidity	-12.0891
▁warned	-12.0896
▁tingle	-12.0897
▁jamie	-12.0901
▁drawings	-12.0902
▁boom	-12.0903
▁hooked	-12.0904
▁fullest	-12.0909
▁believer	-12.0911
▁selfless	-12.0913
▁poop	-12.0916
▁mop	-12.0916
▁lest	-12.0926
▁revealing	-12.0926
▁thai	-12.093
▁tightly	-12.0932
▁coaching	-12.0936
▁madness	-12.0936
▁bucks	-12.0937
▁map	-12.0943
ith	-12.0951
▁apathy	-12.0952
▁lighting	-12.0956
▁sinful	-12.0957
▁instances	-12.0961
▁pangs	-12.0962
▁bonding	-12.0965
▁confessed	-12.0972
▁buttons	-12.0978
ander	-12.0981
▁perk	-12.0986
▁ranting	-12.0987
▁ent	-12.099
▁cheering	-12.0992
▁rod	-12.0992
▁hol	-12.0992
▁vet	-12.0999
▁labels	-12.1002
▁exc	-12.1002
▁demonstrate	-12.1016
▁abt	-12.1018
▁liver	-12.1031
▁plates	-12.1039
▁sucker	-12.1042
▁travels	-12.1048
▁ribs	-12.1052
kins	-12.1055
▁eu	-12.1061
▁cliche	-12.1062
▁saint	-12.1072
chan	-12.1084
town	-12.1088
▁brains	-12.1092
▁gush	-12.1106
▁betray	-12.1111
▁scold	-12.1112
▁assault	-12.1113
▁taxi	-12.1115
▁definite	-12.1116
▁pets	-12.1119
▁nurture	-12.1122
▁choke	-12.1122
ising	-12.1126
▁discriminat	-12.1129
▁automatic	-12.113
▁persist	-12.113
▁anonymous	-12.113
▁beneficial	-12.113
▁celebrities	-12.113
▁diabetes	-12.113
▁district	-12.113
▁evaluate	-12.113
▁kindergarten	-12.113
▁melbourne	-12.113
▁minimum	-12.113
▁miscarriage	-12.113
▁obligated	-12.113
▁phenomenon	-12.113
▁pregnancies	-12.113
▁prescription	-12.113
▁removing	-12.113
▁retail	-12.113
▁unemployed	-12.113
▁wrestling	-12.113
aternity	-12.113
▁interior	-12.113
▁muffin	-12.113
▁happiest	-12.113
▁dejected	-12.113
▁replies	-12.113
▁facial	-12.113
▁endurance	-12.113
▁despondent	-12.113
▁blunt	-12.113
▁steep	-12.113
▁employment	-12.113
▁lightheaded	-12.1131
▁impressive	-12.1131
▁grill	-12.1131
▁dripping	-12.1131
▁stake	-12.1131
▁douche	-12.1132
fer	-12.1134
▁colorful	-12.1135
▁hallway	-12.1138
▁workplace	-12.1139
▁cancelled	-12.1139
▁battered	-12.1139
▁wheat	-12.114
▁tangible	-12.114
▁pur	-12.114
▁yesterdays	-12.114
▁anticipated	-12.1141
▁unjustly	-12.1141
▁weave	-12.1146
▁neighbours	-12.1149
▁themes	-12.1149
▁troll	-12.1149
▁factory	-12.1151
▁bullying	-12.1151
spire	-12.1152
▁controlling	-12.1153
▁thou	-12.1153
▁hugged	-12.1153
▁dies	-12.1156
▁careless	-12.1157
▁nu	-12.1158
sses	-12.1159
▁obstacles	-12.116
▁rail	-12.1162
▁conf	-12.1172
▁thanked	-12.1173
▁defined	-12.1175
▁soil	-12.1177
▁fund	-12.1182
▁kat	-12.1185
▁traits	-12.1188
▁bites	-12.1193
▁seeds	-12.1193
▁lid	-12.1194
▁weighing	-12.1195
▁wad	-12.1206
▁ut	-12.1213
▁outright	-12.1214
wing	-12.1216
▁vice	-12.122
hil	-12.1222
▁brushing	-12.1223
▁rope	-12.1225
▁journals	-12.1241
▁passive	-12.1242
▁achievements	-12.1246
▁witch	-12.1246
▁joyous	-12.1248
▁professors	-12.1248
lie	-12.1255
▁urges	-12.1256
▁gene	-12.1259
▁treatments	-12.1264
gar	-12.1267
▁den	-12.1272
▁fasting	-12.1274
▁routines	-12.1274
▁clo	-12.1279
agged	-12.1286
▁rounded	-12.1287
▁ren	-12.1289
ona	-12.1289
opted	-12.1294
▁relations	-12.1297
▁prom	-12.1298
eon	-12.1299
▁manic	-12.1307
▁bears	-12.1309
rin	-12.131
▁producer	-12.132
▁ple	-12.132
ook	-12.1321
▁guessed	-12.1328
▁pipe	-12.1331
▁believes	-12.1334
▁commute	-12.1337
▁thanking	-12.1345
▁trait	-12.1346
▁basics	-12.1347
▁tissue	-12.1348
▁criminal	-12.1348
▁monkey	-12.1348
▁museum	-12.1348
▁negatively	-12.1349
burg	-12.1353
▁manifest	-12.1358
vy	-12.136
▁bras	-12.1363
▁mindful	-12.1363
▁rounds	-12.1365
▁glee	-12.1366
sk	-12.1367
▁stupidly	-12.1367
▁revert	-12.1367
type	-12.1369
▁mindless	-12.1373
▁fights	-12.1377
▁skirts	-12.1378
▁concepts	-12.138
eb	-12.1384
▁smash	-12.139
▁radiat	-12.1393
▁glitter	-12.14
▁silk	-12.14
▁wool	-12.1407
▁convenient	-12.1408
▁column	-12.1408
▁empathetic	-12.1408
▁euphoria	-12.1408
▁hawaii	-12.1408
▁hobbies	-12.1408
▁housewife	-12.1408
▁indifferent	-12.1408
▁laziness	-12.1408
▁paycheck	-12.1408
▁stylish	-12.1408
▁undeserving	-12.1408
▁unsatisfied	-12.1408
▁ebay	-12.1408
▁hurried	-12.1408
▁sincerity	-12.1408
▁abnormal	-12.1408
▁default	-12.1408
▁jacob	-12.1408
▁offense	-12.1408
▁abusive	-12.1408
▁kevin	-12.1408
▁cuddling	-12.1408
▁fifth	-12.1408
▁companionship	-12.1408
▁accessible	-12.1408
▁knight	-12.1408
▁jason	-12.1408
▁virginia	-12.1408
▁insightful	-12.1409
▁inconsiderate	-12.1409
▁steel	-12.1409
▁nauseated	-12.1409
▁limp	-12.1409
▁haircut	-12.141
▁subway	-12.141
▁mash	-12.1412
▁slope	-12.1412
▁abundance	-12.1413
▁shred	-12.1414
▁weaknesses	-12.1414
▁haze	-12.1414
▁plead	-12.1415
▁courageous	-12.1416
▁relive	-12.1416
▁sensitivity	-12.1418
▁adjustment	-12.142
▁faded	-12.1424
▁elderly	-12.1425
liness	-12.1426
▁sack	-12.1426
▁advanced	-12.143
▁gentleman	-12.1431
▁slate	-12.1434
▁puke	-12.1434
▁textbook	-12.1434
▁crafty	-12.1435
▁swamp	-12.1435
▁expressions	-12.1437
▁tossed	-12.1438
▁momentum	-12.1442
▁realis	-12.1442
▁fried	-12.1442
cal	-12.1443
▁jewel	-12.1444
▁hav	-12.1445
▁logo	-12.1446
▁gloss	-12.1449
▁weighed	-12.1451
▁deer	-12.1453
▁celebrated	-12.1455
▁doub	-12.1455
▁seal	-12.1458
▁fortunately	-12.1458
wl	-12.1464
rent	-12.1466
▁appealing	-12.1468
▁tower	-12.1468
▁saints	-12.1469
▁surprises	-12.1472
▁lessen	-12.1474
leg	-12.1494
▁shifted	-12.1499
▁witnessing	-12.1499
▁brands	-12.1501
uiz	-12.1507
▁ordering	-12.1512
dam	-12.1512
▁arc	-12.152
▁asset	-12.1521
▁functioning	-12.1522
▁farther	-12.1523
▁papa	-12.1525
spect	-12.1536
mme	-12.1536
▁childs	-12.1537
▁roommates	-12.1544
▁rot	-12.1546
▁shameful	-12.1555
can	-12.1555
▁para	-12.1572
shed	-12.1574
▁obligations	-12.1575
pot	-12.1584
▁grim	-12.1586
oid	-12.1586
▁pepper	-12.159
▁cameras	-12.159
▁monsters	-12.1594
ado	-12.1597
▁truthfully	-12.1597
▁pent	-12.1599
▁bodi	-12.16
▁bean	-12.1602
▁deals	-12.1605
▁solace	-12.161
▁cardio	-12.1617
lop	-12.1623
▁roses	-12.1624
▁applications	-12.1626
▁stab	-12.1627
uish	-12.1629
uet	-12.1629
▁hats	-12.1633
▁procedure	-12.1633
▁olympic	-12.1634
▁thumb	-12.1634
▁scientist	-12.1634
▁assumption	-12.1634
▁athlete	-12.1634
▁kris	-12.1638
▁reminders	-12.1639
world	-12.1646
▁exp	-12.1646
lee	-12.165
fire	-12.1655
▁noises	-12.1667
mune	-12.1669
▁sufficient	-12.1679
▁functional	-12.168
▁verbal	-12.168
▁reassure	-12.1685
▁cours	-12.1687
▁blogosphere	-12.1694
▁bystander	-12.1694
▁certificate	-12.1694
▁convenience	-12.1694
▁emerging	-12.1694
▁humility	-12.1694
▁insanity	-12.1694
▁jordan	-12.1694
▁obscure	-12.1694
▁orientation	-12.1694
▁paranoia	-12.1694
▁proposal	-12.1694
▁testimony	-12.1694
▁jessica	-12.1694
▁opposition	-12.1694
▁harbor	-12.1694
▁admission	-12.1694
▁anchor	-12.1694
▁congress	-12.1694
▁greek	-12.1694
▁unrealistic	-12.1694
▁stirred	-12.1694
▁harvest	-12.1694
▁thailand	-12.1694
▁cherry	-12.1694
▁theories	-12.1694
▁alienated	-12.1694
▁priorities	-12.1694
▁electricity	-12.1694
▁introduction	-12.1694
▁spotlight	-12.1694
▁yank	-12.1694
▁lucy	-12.1695
▁pops	-12.1696
▁electronic	-12.1696
▁jelly	-12.1697
▁sympathize	-12.1697
▁lent	-12.1698
▁lighten	-12.1698
▁heroes	-12.17
▁exhausting	-12.17
▁val	-12.1701
▁vividly	-12.1703
▁realities	-12.1703
▁sizes	-12.1703
▁knowledgeable	-12.1704
▁exploit	-12.1706
▁atheist	-12.1708
▁crumble	-12.1709
list	-12.1709
▁germany	-12.171
▁psychologically	-12.1711
▁pant	-12.1711
▁reap	-12.1713
▁trendy	-12.1715
▁sheep	-12.1716
tics	-12.1717
▁successes	-12.1718
cos	-12.1718
tric	-12.1719
eh	-12.1724
▁objective	-12.1729
▁dorm	-12.1733
▁dumped	-12.1735
ode	-12.1735
load	-12.1739
▁cracked	-12.1739
▁charged	-12.174
sis	-12.1744
▁soldiers	-12.175
ttle	-12.1752
▁rebel	-12.1753
▁loaded	-12.1753
ei	-12.1754
▁hy	-12.1755
oma	-12.1756
▁fist	-12.1759
▁glowing	-12.1759
▁vomiting	-12.1762
▁sneaking	-12.177
▁renew	-12.1772
▁oldest	-12.1772
▁lamb	-12.1774
▁scenarios	-12.1788
▁remarkabl	-12.1788
▁curve	-12.1791
▁clearing	-12.1796
▁blocked	-12.1801
▁prints	-12.1805
dom	-12.1806
▁contributions	-12.1807
ade	-12.1807
▁undergo	-12.1818
▁immers	-12.182
sive	-12.1827
▁fro	-12.1834
▁inhale	-12.1836
▁cro	-12.1837
▁sucking	-12.1841
did	-12.1846
▁bri	-12.1846
▁thi	-12.1847
tory	-12.1854
oooooooo	-12.1856
▁dudes	-12.1857
▁gladly	-12.1858
▁fashioned	-12.1861
▁files	-12.1867
und	-12.1871
▁stones	-12.1873
are	-12.1879
▁char	-12.1879
don	-12.1884
▁captur	-12.1885
▁mighty	-12.1888
▁snuggl	-12.1891
▁linger	-12.1896
▁hon	-12.1896
▁incidents	-12.1898
▁commitments	-12.1899
▁polar	-12.19
lis	-12.1911
ini	-12.1916
▁sorting	-12.1919
▁cli	-12.192
word	-12.1921
▁dh	-12.1925
▁bearing	-12.1925
girl	-12.1935
▁carve	-12.1941
ind	-12.1946
▁fabrics	-12.1946
▁jen	-12.1947
▁maker	-12.1948
▁recogniz	-12.1951
▁purchases	-12.1952
▁od	-12.1955
▁hype	-12.1956
▁medications	-12.1957
▁advise	-12.1957
▁passions	-12.1958
▁homeschool	-12.1962
▁flee	-12.1967
▁disrespect	-12.1967
▁ditch	-12.1971
▁jean	-12.1974
▁destin	-12.1978
rry	-12.1978
▁victoria	-12.1979
▁photoshop	-12.198
▁overload	-12.1981
▁operate	-12.1982
▁reserve	-12.1986
▁baggage	-12.1988
▁deserving	-12.1988
▁elaborate	-12.1988
▁evaluation	-12.1988
▁exposing	-12.1988
▁fragrance	-12.1988
▁lesbian	-12.1988
▁recipient	-12.1988
▁releasing	-12.1988
▁rollercoaster	-12.1988
▁unaware	-12.1988
▁vocabulary	-12.1988
▁wallpaper	-12.1988
▁wholeheartedly	-12.1988
▁courtesy	-12.1988
▁module	-12.1988
▁reddit	-12.1988
▁redeem	-12.1988
▁survival	-12.1988
▁positivity	-12.1988
▁competing	-12.1988
▁shelves	-12.1988
▁mormon	-12.1988
▁sensible	-12.1988
▁vanilla	-12.1988
▁departure	-12.1988
▁basketball	-12.1988
▁seattle	-12.1988
▁balloon	-12.1988
▁michelle	-12.1988
▁proverb	-12.1988
▁whale	-12.1988
▁blake	-12.1988
▁paralyzed	-12.1989
▁elation	-12.1989
▁hostel	-12.1989
▁construction	-12.1989
▁roar	-12.1989
▁moist	-12.199
▁lisa	-12.199
▁anticipating	-12.1991
▁flickr	-12.1991
▁penis	-12.1992
▁relaxation	-12.1992
▁overcoming	-12.1994
▁validated	-12.1996
▁antibiotics	-12.1999
▁breed	-12.2
▁excessively	-12.2
▁balm	-12.2001
▁stalker	-12.2005
uash	-12.2006
▁mount	-12.2006
▁sacrificed	-12.2007
▁mistaken	-12.2007
▁oppos	-12.2011
▁accurately	-12.2011
▁italy	-12.2015
▁teeny	-12.2017
▁maria	-12.2019
▁joint	-12.202
ashi	-12.2021
▁listener	-12.2021
▁upsetting	-12.2021
▁preaching	-12.2025
▁erase	-12.2026
▁unlikely	-12.2029
▁weaker	-12.203
▁portrayed	-12.2032
phone	-12.2032
▁smoked	-12.2033
▁kang	-12.2036
▁insulting	-12.2037
finitely	-12.2047
▁tearful	-12.2049
▁destroying	-12.205
▁tales	-12.207
lay	-12.2088
▁eleven	-12.2104
▁disco	-12.2105
▁navigate	-12.2106
▁placement	-12.2108
space	-12.2108
▁initiate	-12.2114
▁clinical	-12.2121
oooo	-12.2122
▁shifting	-12.2138
▁nat	-12.2142
▁deaths	-12.2147
sel	-12.2151
▁counts	-12.2165
▁manga	-12.2178
▁traumati	-12.2179
▁lifeless	-12.2183
▁tar	-12.2187
▁barn	-12.2187
▁lesser	-12.2191
▁cleaner	-12.2197
▁hideous	-12.2203
▁flo	-12.2205
▁purposes	-12.2212
▁outcomes	-12.2214
▁thor	-12.2221
▁infinite	-12.223
▁republican	-12.2231
▁revelation	-12.2231
▁soldier	-12.2232
▁employer	-12.2234
vie	-12.2235
fall	-12.2238
▁sustain	-12.2243
▁haunt	-12.2245
▁foreigner	-12.2247
▁prob	-12.2263
▁desir	-12.2263
▁outrage	-12.2264
ches	-12.2265
▁sections	-12.2268
kr	-12.2272
▁succumb	-12.2272
rio	-12.2273
▁naps	-12.2274
▁restrain	-12.2275
ots	-12.2279
▁beginnings	-12.228
▁faults	-12.2281
▁bud	-12.2282
▁irritate	-12.2282
eeee	-12.2284
▁latte	-12.2289
▁abstract	-12.2291
▁avenue	-12.2291
▁champagne	-12.2291
▁chuffed	-12.2291
▁dictate	-12.2291
▁distrust	-12.2291
▁escaping	-12.2291
▁fantasies	-12.2291
▁graduating	-12.2291
▁hardcore	-12.2291
▁insensitive	-12.2291
▁mechanism	-12.2291
▁proclaim	-12.2291
▁proportion	-12.2291
▁repetitive	-12.2291
▁revision	-12.2291
▁revolve	-12.2291
▁stomp	-12.2291
▁striking	-12.2291
▁aftermath	-12.2291
▁agency	-12.2291
▁clench	-12.2291
▁eyeliner	-12.2291
▁sermon	-12.2291
▁instill	-12.2291
▁organisation	-12.2291
▁tolerance	-12.2291
▁region	-12.2291
▁swirl	-12.2291
▁caution	-12.2291
▁committee	-12.2291
▁discern	-12.2291
▁smirk	-12.2291
▁gravity	-12.2291
▁initiative	-12.2291
▁liberty	-12.2291
▁midterm	-12.2291
▁internship	-12.2291
▁bracelet	-12.2291
▁crabby	-12.2291
▁newbie	-12.2291
▁euro	-12.2291
▁gazing	-12.2291
▁sobbing	-12.2291
▁combo	-12.2291
▁bombard	-12.2291
▁dried	-12.2291
▁luxurious	-12.2291
▁adulthood	-12.2291
▁disability	-12.2291
▁sulk	-12.2291
▁kyle	-12.2291
▁predictable	-12.2292
▁sinus	-12.2292
▁tiger	-12.2292
▁operating	-12.2292
▁bryan	-12.2292
▁glue	-12.2292
▁sanity	-12.2293
▁paperwork	-12.2293
▁parade	-12.2293
▁stephen	-12.2294
▁assert	-12.2295
▁confrontation	-12.2295
▁alcoholic	-12.2296
▁ballet	-12.2296
▁remarkable	-12.2297
▁audio	-12.2298
▁hopped	-12.2299
▁criticized	-12.2299
▁donate	-12.23
▁stripped	-12.23
times	-12.23
band	-12.2301
▁angeles	-12.2301
▁storyline	-12.2303
▁reserved	-12.2303
▁recognised	-12.2304
▁slink	-12.2305
▁fiercely	-12.2308
▁matches	-12.2309
▁softness	-12.2311
▁selfishly	-12.2314
▁banks	-12.2315
▁established	-12.2317
▁jan	-12.2317
uaint	-12.2318
▁highway	-12.232
▁females	-12.2328
▁hardships	-12.2332
▁dial	-12.2333
▁noble	-12.2333
▁judges	-12.2333
itis	-12.2335
▁gamers	-12.2335
full	-12.2335
▁endlessly	-12.2338
▁lightness	-12.2339
▁escaped	-12.234
▁tide	-12.234
▁diving	-12.2344
▁losses	-12.2345
▁whispering	-12.2354
▁lowest	-12.2354
▁elo	-12.2355
▁adjusting	-12.2361
▁magn	-12.2362
▁berry	-12.2367
▁pros	-12.2368
▁mir	-12.2373
▁selfishness	-12.2375
▁idle	-12.2378
rating	-12.2389
▁confronting	-12.2391
ards	-12.2393
fin	-12.2393
▁joys	-12.2394
hin	-12.2396
▁recommended	-12.2398
▁feeds	-12.2401
▁kindly	-12.2407
▁processed	-12.2408
▁mans	-12.2422
▁ringing	-12.2422
▁reside	-12.2427
▁psych	-12.2428
front	-12.243
ueer	-12.2452
▁skype	-12.2453
▁cla	-12.2468
▁beef	-12.247
▁fearing	-12.2471
pin	-12.2471
orn	-12.2481
▁tunes	-12.2487
media	-12.2487
▁mm	-12.2495
ough	-12.2501
▁wears	-12.2503
▁louis	-12.2514
▁lb	-12.2516
rated	-12.2526
▁kills	-12.2531
▁counted	-12.2539
▁inward	-12.2542
▁displays	-12.2542
▁vitamin	-12.2544
▁seed	-12.2544
▁outdoor	-12.2544
▁smiley	-12.2548
▁chemical	-12.2548
your	-12.255
▁hmm	-12.255
away	-12.2557
▁reli	-12.2559
▁anne	-12.2562
point	-12.2565
▁gre	-12.2568
▁fixing	-12.2573
▁floors	-12.2577
▁wat	-12.2582
▁browse	-12.2584
▁align	-12.2585
▁overlook	-12.2585
▁opera	-12.2585
▁keenly	-12.2586
▁torment	-12.2588
▁swift	-12.2589
▁unconditional	-12.2589
▁spur	-12.2589
▁generate	-12.2595
▁og	-12.2595
▁criticize	-12.2595
gger	-12.2596
nia	-12.2601
▁stew	-12.2603
▁midwife	-12.2603
▁micro	-12.2603
▁devastating	-12.2603
▁adolescent	-12.2603
▁clumsy	-12.2603
▁consumption	-12.2603
▁contempt	-12.2603
▁disguise	-12.2603
▁dominant	-12.2603
▁evident	-12.2603
▁faculty	-12.2603
▁fascinated	-12.2603
▁hockey	-12.2603
▁illegal	-12.2603
▁portfolio	-12.2603
▁protagonist	-12.2603
▁simplicity	-12.2603
▁suspicion	-12.2603
▁tweak	-12.2603
▁capabilities	-12.2603
▁programming	-12.2603
▁ribbon	-12.2603
▁diamond	-12.2603
▁henry	-12.2603
▁overworked	-12.2603
▁tyler	-12.2603
▁intake	-12.2603
▁choir	-12.2603
▁abdomen	-12.2603
▁ownership	-12.2604
▁stirring	-12.2604
▁thunder	-12.2604
▁promoting	-12.2604
▁productivity	-12.2604
▁kelly	-12.2604
▁fulfillment	-12.2604
▁piling	-12.2604
▁foul	-12.2604
▁bookstore	-12.2604
▁vanity	-12.2605
▁toronto	-12.2606
▁fiance	-12.2607
▁personalities	-12.2607
▁render	-12.2607
▁olds	-12.2608
▁saddle	-12.2608
▁kong	-12.2609
▁radical	-12.2609
▁retarded	-12.2609
▁exceeding	-12.261
▁accompanied	-12.2611
▁freezer	-12.2611
▁flashes	-12.2612
▁sprint	-12.2614
ively	-12.2614
▁dearest	-12.2615
ata	-12.2616
▁guardian	-12.2616
▁readily	-12.2622
▁outrageous	-12.2623
▁pajamas	-12.2623
▁progression	-12.2625
▁bland	-12.2626
▁eternally	-12.2627
▁brewing	-12.2629
bil	-12.2632
▁tones	-12.2633
▁pursued	-12.2636
▁decor	-12.2639
▁principles	-12.2648
▁pole	-12.2661
▁annie	-12.2661
▁delivered	-12.2664
▁pondering	-12.2667
▁apologized	-12.2667
▁curves	-12.2669
▁fairy	-12.2672
▁prepp	-12.2678
▁clicked	-12.2681
▁wildly	-12.2683
▁castle	-12.2687
▁speakers	-12.2688
▁watches	-12.2696
▁trim	-12.2699
▁pra	-12.27
mont	-12.2704
▁gestures	-12.2705
▁hahahaha	-12.2707
▁shakes	-12.2714
▁displac	-12.2715
tc	-12.2715
▁chart	-12.2722
bab	-12.2726
▁listing	-12.2731
cast	-12.2731
▁mak	-12.2736
▁hir	-12.2738
▁integra	-12.274
▁dai	-12.2748
▁commercials	-12.275
lbert	-12.275
era	-12.2752
▁confidently	-12.2752
▁jud	-12.2756
▁belongs	-12.2756
▁cater	-12.2757
▁picks	-12.2758
▁intern	-12.2764
▁casting	-12.2765
▁lily	-12.2769
▁strings	-12.277
▁spoiler	-12.2773
▁stat	-12.2777
fish	-12.2786
▁cue	-12.2794
▁pine	-12.2794
▁camping	-12.2795
▁bou	-12.2798
▁bugs	-12.2799
▁blankets	-12.2802
▁rash	-12.2808
▁ads	-12.2811
▁dar	-12.2818
uru	-12.282
▁chills	-12.282
aba	-12.282
▁indicate	-12.2823
▁carol	-12.2824
▁zi	-12.2833
▁heavi	-12.2834
▁organizations	-12.2842
▁bumps	-12.2843
loo	-12.2847
▁cramp	-12.2847
▁wav	-12.2855
▁symptom	-12.2867
▁conflicts	-12.2867
▁loan	-12.2869
▁introduc	-12.2873
lv	-12.2877
▁functions	-12.2878
▁shrug	-12.2879
▁crow	-12.2882
▁dia	-12.2888
▁abs	-12.2891
not	-12.2891
▁coin	-12.2903
▁demo	-12.2904
▁suggests	-12.2906
▁limb	-12.2907
▁inflict	-12.2908
cept	-12.2909
▁nov	-12.2909
▁burns	-12.291
▁mist	-12.2916
▁wheels	-12.2917
▁declare	-12.2917
▁validate	-12.2918
▁insides	-12.2921
▁paw	-12.2921
▁imagina	-12.2925
ueasy	-12.2926
▁academy	-12.2926
▁apologizing	-12.2926
▁arriving	-12.2926
▁atleast	-12.2926
▁bleak	-12.2926
▁dissatisfaction	-12.2926
▁heartfelt	-12.2926
▁horrendous	-12.2926
▁liberated	-12.2926
▁lovable	-12.2926
▁mexico	-12.2926
▁philosophical	-12.2926
▁policies	-12.2926
▁reunion	-12.2926
▁revolution	-12.2926
▁statistics	-12.2926
▁thrive	-12.2926
▁ultrasound	-12.2926
▁uncover	-12.2926
▁unleash	-12.2926
▁alittle	-12.2926
▁selves	-12.2926
▁sweden	-12.2926
▁spoon	-12.2926
▁physics	-12.2926
▁whack	-12.2926
▁clown	-12.2926
▁broadcast	-12.2926
▁lauren	-12.2926
▁piercing	-12.2926
▁guild	-12.2926
▁contend	-12.2926
▁meltdown	-12.2926
▁tasting	-12.2926
▁bittersweet	-12.2926
▁womb	-12.2926
▁jimmy	-12.2926
▁biking	-12.2926
▁indication	-12.2926
▁detest	-12.2926
▁drastically	-12.2926
▁mojo	-12.2926
▁unfit	-12.2926
▁aaron	-12.2927
▁cupboard	-12.2927
▁panties	-12.2927
▁potty	-12.2927
▁luke	-12.2927
▁christmassy	-12.2927
▁raid	-12.2927
▁abandonment	-12.2928
▁roam	-12.2928
▁tomatoes	-12.2928
▁xmas	-12.2928
▁tackl	-12.2928
▁dramatically	-12.2928
▁ugli	-12.2928
▁socializing	-12.2928
▁disrespectful	-12.2929
▁chatted	-12.2929
▁icky	-12.2929
▁lenses	-12.2929
▁salon	-12.293
ala	-12.293
▁mg	-12.2931
▁pout	-12.2931
▁commentary	-12.2934
▁swell	-12.2935
▁surgeon	-12.2936
▁badass	-12.2936
▁whipped	-12.2937
▁retro	-12.2938
▁nipples	-12.2938
▁apt	-12.2939
▁upgrade	-12.2941
▁eyebrows	-12.2944
▁goose	-12.2944
▁heroine	-12.2945
▁translated	-12.2946
▁tighter	-12.2948
▁gloves	-12.2948
▁cluttered	-12.2949
▁absorbed	-12.295
hole	-12.2952
▁sits	-12.2953
▁dusty	-12.2955
▁settings	-12.2958
▁bah	-12.2959
▁meets	-12.2961
▁xi	-12.2964
▁draws	-12.2964
▁itching	-12.2968
▁bruises	-12.2968
uirm	-12.2971
▁explored	-12.2973
▁expects	-12.2973
▁billy	-12.2974
▁markets	-12.2976
▁rever	-12.2976
hur	-12.2977
▁coherent	-12.298
▁loans	-12.2986
▁distracting	-12.2987
▁athletes	-12.2993
▁accumulat	-12.2997
hr	-12.2999
▁errors	-12.2999
▁possessions	-12.2999
cid	-12.3001
▁calmly	-12.3002
▁spelling	-12.3008
▁gp	-12.3009
place	-12.3013
▁awkwardness	-12.3013
▁vibrations	-12.3015
bag	-12.3018
▁cigarettes	-12.3019
▁inspirational	-12.3019
tar	-12.3019
▁oz	-12.3022
▁chant	-12.3029
▁brag	-12.3029
▁shocking	-12.3033
▁dramas	-12.3035
▁idiots	-12.3037
▁chap	-12.3042
fu	-12.3045
▁cn	-12.305
▁greatness	-12.3074
▁manual	-12.3081
▁cav	-12.3083
▁chains	-12.3083
cut	-12.3084
▁kai	-12.3088
▁lag	-12.3096
▁complained	-12.3099
▁specially	-12.3104
▁temperatures	-12.3111
▁boarding	-12.312
card	-12.312
▁ideals	-12.312
▁splurge	-12.312
itude	-12.3121
▁acid	-12.3131
▁truths	-12.3142
▁ann	-12.3145
▁measures	-12.3146
▁ole	-12.3156
▁wip	-12.3157
▁ev	-12.3158
app	-12.316
▁dem	-12.3162
▁curs	-12.317
▁kan	-12.3171
▁pac	-12.3174
▁jun	-12.3175
eau	-12.3181
▁arrives	-12.3183
▁pest	-12.3194
▁swap	-12.3195
▁spy	-12.3195
unction	-12.3199
▁kindle	-12.3199
▁convention	-12.3199
▁nephew	-12.3199
rat	-12.32
▁las	-12.3209
▁encounters	-12.3214
lum	-12.3215
▁subs	-12.3219
▁pinn	-12.322
▁chop	-12.3223
▁islam	-12.3226
ular	-12.3227
worth	-12.323
▁alan	-12.3231
ura	-12.3235
▁checks	-12.3239
▁yum	-12.3243
▁excessive	-12.3245
▁coward	-12.3247
▁evolve	-12.3251
▁decorate	-12.3251
▁intentional	-12.3251
▁viewer	-12.3253
▁regime	-12.3256
▁brazil	-12.3256
mine	-12.3258
▁intellect	-12.3258
▁triumph	-12.3259
▁excess	-12.3259
▁dedicate	-12.3259
▁curriculum	-12.3259
▁cushion	-12.3259
▁disbelief	-12.3259
▁disciple	-12.3259
▁honeymoon	-12.3259
▁indicator	-12.3259
▁institute	-12.3259
▁jeremy	-12.3259
▁librarian	-12.3259
▁mediocre	-12.3259
▁rebuild	-12.3259
▁scotland	-12.3259
▁shortcomings	-12.3259
▁twenties	-12.3259
▁unlovable	-12.3259
▁wtf	-12.3259
▁atlanta	-12.3259
▁distribut	-12.3259
▁violin	-12.3259
▁beverage	-12.3259
▁transparent	-12.3259
▁animation	-12.3259
▁oxygen	-12.3259
▁wistful	-12.3259
▁unease	-12.3259
▁fading	-12.3259
▁patrick	-12.3259
▁array	-12.3259
▁scholarship	-12.3259
▁educate	-12.3259
▁fifty	-12.3259
▁almond	-12.3259
▁biological	-12.3259
▁ramble	-12.3259
▁hubs	-12.3259
▁navy	-12.326
▁shark	-12.326
▁cyber	-12.326
▁translation	-12.326
▁kitty	-12.326
▁bacon	-12.326
▁materialistic	-12.326
▁membership	-12.326
▁duper	-12.3261
▁nominated	-12.3261
▁hoard	-12.3261
▁boast	-12.3262
▁cleansing	-12.3262
▁mistreated	-12.3262
▁footage	-12.3262
▁eliminate	-12.3264
▁melancholic	-12.3266
▁hospitality	-12.3266
▁approved	-12.3266
fc	-12.3266
▁imply	-12.3267
▁breakup	-12.3268
▁intimidating	-12.3271
▁mocked	-12.3273
▁jesse	-12.3275
▁marine	-12.3277
▁spirituality	-12.3277
▁scolded	-12.3281
▁dismissed	-12.3288
▁cramping	-12.3288
ueez	-12.329
▁solved	-12.3292
▁lawn	-12.3293
ddle	-12.3296
▁poetic	-12.3297
zo	-12.3299
▁sci	-12.3304
▁processing	-12.3305
▁flirting	-12.3307
▁poly	-12.3309
▁yrs	-12.3309
▁thy	-12.3313
uoted	-12.3314
▁plugg	-12.3317
▁ticking	-12.3322
▁bitching	-12.3327
▁volunteering	-12.3329
▁bail	-12.333
▁shane	-12.3347
gram	-12.3349
▁symbol	-12.335
▁legit	-12.3357
uilting	-12.3359
▁conditioned	-12.3361
▁wil	-12.3364
pel	-12.3365
▁sights	-12.3368
▁persona	-12.3383
▁cho	-12.34
▁icons	-12.3403
▁whispers	-12.3407
▁slapp	-12.3409
▁sundays	-12.341
▁improvements	-12.3415
▁impart	-12.342
▁miracles	-12.342
aj	-12.3432
▁liz	-12.3436
▁une	-12.3437
▁outta	-12.3437
▁mae	-12.3438
▁conditioner	-12.344
▁brew	-12.3444
▁schedules	-12.3447
▁debat	-12.3451
▁pockets	-12.3463
▁disc	-12.3469
▁patt	-12.3473
att	-12.3476
▁sings	-12.348
▁mint	-12.349
zed	-12.3491
▁custom	-12.3497
atch	-12.35
▁partying	-12.35
▁gardening	-12.3502
▁metro	-12.3506
▁progressed	-12.3509
ack	-12.3513
▁reasoning	-12.3518
atory	-12.3519
▁gro	-12.3521
▁complet	-12.3527
▁follows	-12.3536
rant	-12.3542
▁tutorial	-12.3544
▁tantrum	-12.3544
▁rambling	-12.3544
▁stereotype	-12.3544
air	-12.3546
▁thigh	-12.3546
▁unjust	-12.3549
using	-12.3554
necessarily	-12.3556
▁poison	-12.3557
apped	-12.3559
▁wrestle	-12.3561
illa	-12.3562
▁boxing	-12.3564
making	-12.3565
▁depress	-12.3565
uation	-12.3574
▁dancer	-12.3577
▁construct	-12.3579
▁introvert	-12.3586
▁detach	-12.3586
rrrr	-12.3589
▁advent	-12.359
▁resemble	-12.359
▁continuous	-12.359
alo	-12.3592
▁combine	-12.3596
▁hid	-12.3597
▁shatter	-12.3598
▁hor	-12.3601
▁sync	-12.3603
▁drastic	-12.3603
▁humid	-12.3604
▁accessories	-12.3604
▁anatomy	-12.3604
▁balancing	-12.3604
▁correspond	-12.3604
▁daydream	-12.3604
▁decrease	-12.3604
▁dehydrated	-12.3604
▁dilemma	-12.3604
▁dissipate	-12.3604
▁downhill	-12.3604
▁exasperat	-12.3604
▁exhilarated	-12.3604
▁fathom	-12.3604
▁horrific	-12.3604
▁miraculous	-12.3604
▁pavement	-12.3604
▁principal	-12.3604
▁romney	-12.3604
▁sunglasses	-12.3604
▁twilight	-12.3604
▁uncomfortably	-12.3604
▁welfare	-12.3604
▁collage	-12.3604
▁utilize	-12.3604
▁cunt	-12.3604
▁steak	-12.3604
▁sandals	-12.3604
▁traumatized	-12.3604
▁diverse	-12.3604
▁slash	-12.3604
▁vagina	-12.3604
▁horrid	-12.3604
▁horizontal	-12.3604
▁racial	-12.3604
▁demise	-12.3604
▁garlic	-12.3604
▁housing	-12.3604
▁resignation	-12.3604
▁storage	-12.3604
▁stumbleupon	-12.3604
▁flour	-12.3604
▁faking	-12.3604
▁exhale	-12.3604
▁persistent	-12.3604
▁karen	-12.3604
▁harris	-12.3604
▁fiber	-12.3604
▁ridden	-12.3605
▁thinner	-12.3605
▁arial	-12.3605
▁colorado	-12.3605
▁ironically	-12.3605
▁confirmation	-12.3606
▁villain	-12.3606
▁traitor	-12.3608
▁oak	-12.3608
▁sweetheart	-12.3608
▁handmade	-12.3608
▁ellie	-12.3609
▁imposed	-12.3609
▁injection	-12.3609
▁imagery	-12.361
▁goofy	-12.361
▁ridiculed	-12.361
▁jenny	-12.361
▁accountable	-12.361
▁alas	-12.3612
eeeee	-12.3612
▁crampy	-12.3612
▁gnaw	-12.3613
▁stretches	-12.3613
▁clay	-12.3614
▁arranged	-12.3615
▁penny	-12.3616
▁tightness	-12.3616
▁rite	-12.3617
▁frightening	-12.3618
▁hermit	-12.3619
▁restrictions	-12.362
▁observed	-12.362
▁cheaper	-12.3621
▁biscuits	-12.3622
▁bash	-12.3622
▁soreness	-12.3623
▁oliver	-12.3623
▁crab	-12.3623
▁tormented	-12.3624
▁teammates	-12.3624
▁irony	-12.3628
▁daylight	-12.3629
▁screams	-12.3631
▁indoors	-12.3634
▁lang	-12.3635
▁pep	-12.3643
▁proceeded	-12.3644
▁cupcakes	-12.3649
▁carries	-12.3649
▁skiing	-12.3651
▁drifting	-12.3651
▁fred	-12.3651
▁mull	-12.3652
▁showers	-12.3654
own	-12.3655
lp	-12.3655
▁kneel	-12.3656
▁stats	-12.3667
▁rejecting	-12.3668
▁phones	-12.3669
▁fling	-12.3672
▁assumptions	-12.3676
sco	-12.3677
▁brushed	-12.3681
▁wary	-12.3686
▁stark	-12.3693
▁weirdo	-12.3694
▁kg	-12.3695
▁flames	-12.3699
▁patiently	-12.37
▁payment	-12.3708
▁deposit	-12.3708
▁wu	-12.3711
▁meta	-12.3711
rah	-12.3713
▁babys	-12.3726
▁william	-12.3729
▁bottles	-12.373
hem	-12.3731
▁tru	-12.3734
▁seller	-12.3735
ati	-12.3735
▁clicking	-12.3737
▁nam	-12.374
▁plea	-12.3743
▁addressing	-12.3746
▁pup	-12.3749
▁forums	-12.3749
▁sho	-12.3751
▁candidates	-12.3752
▁classy	-12.3764
▁subscribe	-12.3765
pan	-12.3767
bbie	-12.3768
▁bubbl	-12.3774
iled	-12.3774
▁violently	-12.3775
▁vacations	-12.3776
▁les	-12.3777
▁dub	-12.3777
▁gardens	-12.3777
chy	-12.378
▁celebrations	-12.3784
bus	-12.3784
▁cracks	-12.3786
▁tab	-12.3794
nder	-12.3796
▁snacks	-12.3799
▁locks	-12.38
▁mia	-12.381
▁lovingly	-12.382
▁pays	-12.3821
▁brit	-12.3827
▁lor	-12.3842
▁container	-12.3844
▁inexplicabl	-12.3848
low	-12.3849
lk	-12.385
▁lore	-12.3856
▁dent	-12.386
rose	-12.3861
▁phrases	-12.3864
▁hp	-12.3866
rv	-12.3866
▁dang	-12.3877
nya	-12.3878
▁rum	-12.3879
solving	-12.3885
▁diy	-12.3887
▁shove	-12.3891
dis	-12.3894
▁affirmation	-12.3902
▁doodle	-12.391
midst	-12.3915
▁refresh	-12.3915
▁spec	-12.3917
bt	-12.3919
path	-12.3923
▁aura	-12.3928
bro	-12.3929
▁targeted	-12.393
▁delusion	-12.3935
▁employ	-12.3937
you	-12.3937
▁scales	-12.3939
born	-12.3943
fre	-12.3945
▁exclusive	-12.3947
mark	-12.3948
▁hack	-12.3949
▁compensate	-12.3953
wan	-12.3953
▁prejudice	-12.3953
▁bully	-12.3956
▁toned	-12.3958
▁crazi	-12.3959
▁bewildered	-12.3961
▁defiant	-12.3961
▁deflated	-12.3961
▁disclaimer	-12.3961
▁endorphin	-12.3961
▁intuitive	-12.3961
▁marginalized	-12.3961
▁procrastinate	-12.3961
▁recount	-12.3961
▁scoop	-12.3961
▁unfinished	-12.3961
▁unnatural	-12.3961
▁unsavory	-12.3961
▁yogurt	-12.3961
▁democracy	-12.3961
▁disabled	-12.3961
▁disdain	-12.3961
▁exploration	-12.3961
▁memorial	-12.3961
▁parallel	-12.3961
▁superhero	-12.3961
▁vertical	-12.3961
▁motorcycle	-12.3961
▁razor	-12.3961
▁sappy	-12.3961
▁retrospect	-12.3961
▁depict	-12.3961
▁glaring	-12.3961
uirky	-12.3961
▁crossfit	-12.3961
▁residence	-12.3961
▁categories	-12.3961
▁poking	-12.3961
▁breakthrough	-12.3961
▁denim	-12.3961
▁buddies	-12.3961
▁throne	-12.3961
▁snob	-12.3961
▁spew	-12.3961
▁congregation	-12.3962
▁niggl	-12.3962
▁toxic	-12.3962
▁salary	-12.3962
ualify	-12.3962
▁males	-12.3962
▁unwind	-12.3962
▁cruelty	-12.3962
▁friggin	-12.3962
▁passport	-12.3963
▁vanish	-12.3963
▁involvement	-12.3964
▁overeat	-12.3964
▁delve	-12.3965
▁alleviate	-12.3965
▁hippie	-12.3965
▁stoked	-12.3966
▁lingerie	-12.3967
▁fluffy	-12.3968
▁thirsty	-12.3968
▁frog	-12.3968
▁adaptation	-12.3968
▁urgent	-12.3969
▁enriched	-12.3969
▁torturing	-12.3969
▁entirety	-12.3969
▁sophie	-12.397
▁masses	-12.3971
▁submitted	-12.3972
▁bicycle	-12.3972
▁franchise	-12.3973
▁elected	-12.3975
▁brace	-12.3978
▁cleanser	-12.3979
▁introverted	-12.398
▁superiority	-12.3983
▁fetch	-12.3983
▁antics	-12.3985
▁lifts	-12.3986
▁leftover	-12.3987
▁approaches	-12.3988
▁participants	-12.3993
▁filmmaker	-12.3994
▁awesomeness	-12.3996
▁dough	-12.3998
rot	-12.3999
▁surfing	-12.4
▁chairs	-12.4001
▁bl	-12.4002
▁occupied	-12.4003
▁tights	-12.4005
▁stitching	-12.4005
▁kink	-12.4007
logging	-12.4013
pped	-12.4014
▁bitches	-12.4018
umbling	-12.402
▁finale	-12.4021
▁betty	-12.4023
▁lotion	-12.4026
▁bask	-12.4026
▁versa	-12.4031
▁rev	-12.4033
▁understandable	-12.4035
▁languages	-12.4035
▁hosted	-12.4038
▁restlessness	-12.4041
▁vis	-12.4042
▁rating	-12.4043
▁flutters	-12.4045
▁candles	-12.4051
▁threads	-12.4054
▁palms	-12.4057
▁aging	-12.406
▁sleeves	-12.406
ines	-12.4068
▁sentiments	-12.4077
▁suited	-12.4088
thful	-12.409
▁exercised	-12.4093
▁recorded	-12.4094
▁kara	-12.4094
▁mod	-12.4095
▁tramp	-12.4097
▁dew	-12.4107
both	-12.4111
▁marked	-12.412
▁sever	-12.4124
bre	-12.4126
▁sacrifices	-12.4126
▁nak	-12.4132
▁scann	-12.4146
▁inbox	-12.4146
tty	-12.4151
▁paths	-12.4151
▁willingly	-12.4158
uch	-12.4159
▁vu	-12.4161
▁portions	-12.4161
uilts	-12.4164
▁seasonal	-12.4175
nds	-12.4179
old	-12.4182
rrr	-12.4187
▁alley	-12.4193
▁dangerously	-12.4201
▁mani	-12.4202
▁transferr	-12.4203
eth	-12.4204
▁israeli	-12.4207
▁apps	-12.422
▁seam	-12.4221
read	-12.4235
arm	-12.4236
▁sean	-12.4237
uv	-12.4239
▁cent	-12.4242
aries	-12.4245
hol	-12.4263
▁calmed	-12.4267
▁grain	-12.4272
▁nag	-12.4272
▁sibling	-12.4273
▁guides	-12.4276
sex	-12.4281
heart	-12.4281
think	-12.4285
▁cleared	-12.4285
with	-12.4287
▁bam	-12.4289
▁scroll	-12.4303
shot	-12.431
▁restrict	-12.4312
▁olive	-12.4312
▁diminish	-12.4313
▁precise	-12.4317
▁rapid	-12.4318
▁corrupt	-12.432
▁attach	-12.4323
▁conclude	-12.4327
▁reminisce	-12.4331
avi	-12.4331
▁scholar	-12.4331
▁unknowing	-12.4331
▁aggression	-12.4331
▁analyzing	-12.4331
▁apologies	-12.4331
▁assurance	-12.4331
▁audrey	-12.4331
▁caramel	-12.4331
▁cereal	-12.4331
▁chief	-12.4331
▁cinnamon	-12.4331
▁contagious	-12.4331
▁cottage	-12.4331
▁division	-12.4331
▁emphasis	-12.4331
▁euphoric	-12.4331
▁eyeshadow	-12.4331
▁hostility	-12.4331
▁inclination	-12.4331
▁irrelevant	-12.4331
▁knackered	-12.4331
▁landlord	-12.4331
▁magnificent	-12.4331
▁maintenance	-12.4331
▁maturity	-12.4331
▁occurrence	-12.4331
▁overshadow	-12.4331
▁psalm	-12.4331
▁refuge	-12.4331
▁scrambl	-12.4331
▁slaughter	-12.4331
▁undoubt	-12.4331
▁uterus	-12.4331
▁vacuum	-12.4331
▁vodka	-12.4331
▁daunting	-12.4331
▁georgia	-12.4331
▁melody	-12.4331
▁stump	-12.4331
▁daisy	-12.4331
▁flexible	-12.4331
▁suffocating	-12.4331
▁farewell	-12.4332
▁masterpiece	-12.4332
▁nathan	-12.4332
▁austin	-12.4332
▁jogging	-12.4332
▁bragging	-12.4332
▁brink	-12.4332
▁teddy	-12.4332
▁brook	-12.4332
▁utah	-12.4332
▁scalp	-12.4332
cuz	-12.4332
▁shaft	-12.4332
▁portland	-12.4332
▁reliable	-12.4333
▁highschool	-12.4333
▁remainder	-12.4333
▁floral	-12.4333
▁vince	-12.4333
▁plum	-12.4333
▁johnny	-12.4333
▁preferred	-12.4333
▁documentary	-12.4333
▁craziness	-12.4333
▁lining	-12.4334
▁feverish	-12.4334
▁illustration	-12.4335
▁elevated	-12.4335
▁earnest	-12.4335
▁curb	-12.4335
▁feast	-12.4336
▁gutted	-12.4336
▁establishment	-12.4339
▁uncare	-12.4339
▁happenings	-12.4339
▁glare	-12.4342
▁scattered	-12.4344
warm	-12.4345
▁empowering	-12.4347
▁compromised	-12.4347
ummy	-12.4348
▁weep	-12.4348
▁harmful	-12.4349
▁employed	-12.435
▁phd	-12.4351
▁inflicted	-12.4352
▁overlooked	-12.4353
▁collector	-12.4353
ank	-12.4354
▁disappointments	-12.4356
▁blissfully	-12.4356
star	-12.4359
▁taunt	-12.4362
▁hay	-12.4363
▁drifted	-12.4364
▁pacing	-12.4364
▁logically	-12.4365
▁stoned	-12.4365
▁homeschooling	-12.4367
▁goo	-12.4367
▁brandon	-12.4368
▁pressures	-12.4369
▁cursed	-12.4371
▁engineering	-12.4372
▁speaker	-12.4375
aya	-12.4377
▁signals	-12.4378
▁federa	-12.438
▁swallowed	-12.4381
▁psyche	-12.4382
▁deli	-12.4382
▁medal	-12.4385
▁sucky	-12.4385
▁insisted	-12.4387
▁mondays	-12.4389
▁blindly	-12.4389
▁cents	-12.4391
▁morph	-12.4393
▁grading	-12.4394
▁overtime	-12.4395
▁savour	-12.44
▁tricked	-12.4406
▁melting	-12.4411
▁ethical	-12.4415
▁homesickness	-12.4416
▁preparations	-12.4416
▁rocky	-12.4418
▁spirited	-12.4419
▁dd	-12.4419
▁unre	-12.4426
law	-12.4429
▁clich	-12.4434
▁wedge	-12.4434
▁distractions	-12.4444
▁notebooks	-12.4444
▁kay	-12.4446
▁sporting	-12.445
rick	-12.4452
▁chilling	-12.4453
▁respects	-12.4454
▁prose	-12.4461
▁highlights	-12.4462
arian	-12.4463
augh	-12.4466
▁pretended	-12.4479
▁treasures	-12.4496
▁officials	-12.4496
▁pairs	-12.4503
taking	-12.4508
rim	-12.4508
▁triggers	-12.4516
▁strengths	-12.4521
▁reveals	-12.4533
▁recommending	-12.4538
▁goodies	-12.4538
▁assess	-12.4542
▁hints	-12.4543
▁classical	-12.4547
▁rem	-12.455
▁brow	-12.4552
▁attacking	-12.4565
▁todd	-12.4566
▁jumper	-12.4569
▁cont	-12.4576
lf	-12.458
▁ranch	-12.4589
▁compil	-12.4594
▁barb	-12.4603
▁rav	-12.4604
▁audiences	-12.4609
▁gag	-12.4616
▁manages	-12.4653
▁ritual	-12.4656
▁merit	-12.4657
▁calorie	-12.4657
ration	-12.4658
▁fluid	-12.4658
▁reign	-12.4666
▁gee	-12.4668
craft	-12.4668
mom	-12.4671
▁springs	-12.4677
▁breaths	-12.4683
▁advert	-12.4684
erson	-12.4686
▁cole	-12.4687
▁mourn	-12.4687
aunt	-12.4689
tie	-12.469
▁ck	-12.4691
▁pakistan	-12.4691
▁overflow	-12.4692
▁cynic	-12.4695
▁substantial	-12.4701
▁abundant	-12.4702
▁crank	-12.4713
▁tomato	-12.4714
▁metaphor	-12.4716
▁aforementioned	-12.4716
▁ancient	-12.4716
▁athletic	-12.4716
▁bandwagon	-12.4716
▁confined	-12.4716
▁damaging	-12.4716
▁diversity	-12.4716
▁dizziness	-12.4716
▁epidural	-12.4716
▁explicit	-12.4716
▁hannah	-12.4716
▁leisure	-12.4716
▁manuscript	-12.4716
▁matthew	-12.4716
▁monologue	-12.4716
▁murmur	-12.4716
▁outweigh	-12.4716
▁popcorn	-12.4716
▁racism	-12.4716
▁salvation	-12.4716
▁sprinkl	-12.4716
▁suffice	-12.4716
▁sydney	-12.4716
▁trousers	-12.4716
ime	-12.4716
▁earrings	-12.4716
▁hesitation	-12.4716
▁wiggle	-12.4716
▁lgbt	-12.4716
▁eachother	-12.4716
▁oclock	-12.4716
▁tasty	-12.4716
▁blouse	-12.4716
▁glen	-12.4716
▁ptsd	-12.4716
▁claire	-12.4716
▁suspend	-12.4716
▁jerry	-12.4716
▁pinpoint	-12.4716
▁preschool	-12.4716
▁yahoo	-12.4716
▁indulgence	-12.4716
isces	-12.4716
▁tokyo	-12.4716
▁hinder	-12.4716
▁urging	-12.4717
▁definate	-12.4717
▁hungover	-12.4717
▁occurring	-12.4717
▁bowel	-12.4717
▁scout	-12.4717
▁completion	-12.4717
▁deaf	-12.4717
▁lush	-12.4718
▁wobbly	-12.4718
▁dental	-12.4718
▁mankind	-12.4718
▁whimsical	-12.4718
▁kidney	-12.4718
▁wordpress	-12.4718
▁unclean	-12.4719
▁wooden	-12.4719
▁pork	-12.472
▁lime	-12.472
▁unwell	-12.472
▁stitches	-12.472
▁heavier	-12.472
▁magnet	-12.472
▁stance	-12.472
▁reform	-12.4721
▁crackers	-12.4721
ergy	-12.4722
▁yang	-12.4723
▁eastern	-12.4724
▁wrenching	-12.4724
▁bubbly	-12.4725
▁xx	-12.4725
▁daycare	-12.4725
▁decorated	-12.4726
▁hydrated	-12.4727
▁uplifted	-12.4727
▁storms	-12.4727
▁russian	-12.4729
▁teased	-12.473
▁recap	-12.4731
▁noticeable	-12.4732
▁meantime	-12.4734
▁collections	-12.4735
▁yi	-12.4735
▁slapped	-12.4737
▁pierce	-12.4738
▁curtains	-12.4738
uely	-12.4739
▁troops	-12.4741
▁sailor	-12.4742
▁spanking	-12.4744
▁popularity	-12.4744
▁virtually	-12.4746
▁meme	-12.4748
▁commun	-12.4749
▁leo	-12.475
▁outcast	-12.4751
▁confirmed	-12.4751
▁tuned	-12.4752
▁pastel	-12.4752
▁simpler	-12.4757
px	-12.4757
▁careers	-12.4758
▁youngest	-12.4759
▁politely	-12.4761
▁stroller	-12.4761
sky	-12.4763
▁charg	-12.4764
▁atm	-12.4766
▁diapers	-12.4766
▁passengers	-12.4766
▁differ	-12.477
▁cheery	-12.4771
▁pancakes	-12.4771
▁seep	-12.4771
▁bunk	-12.4774
▁adjusted	-12.4774
▁moaning	-12.4775
▁glam	-12.4776
▁sms	-12.4776
wee	-12.4779
▁draining	-12.478
▁seats	-12.4781
▁sparkly	-12.4784
▁jess	-12.4785
▁mcca	-12.4786
▁fam	-12.4789
▁dancers	-12.4791
▁loses	-12.4792
▁employers	-12.4794
▁lar	-12.4794
▁visa	-12.4794
▁investing	-12.4795
▁scientists	-12.4797
▁tart	-12.4797
gon	-12.4801
self	-12.4804
▁crashed	-12.4805
▁portraits	-12.4806
▁knots	-12.4807
▁rubber	-12.4808
▁sheet	-12.4811
▁workshops	-12.4811
▁announc	-12.4811
spite	-12.4813
▁amanda	-12.4816
▁vocals	-12.4823
▁experts	-12.4823
▁boob	-12.4829
oli	-12.4833
▁environments	-12.4834
▁stillness	-12.4835
▁spic	-12.4839
▁bff	-12.484
char	-12.4841
fie	-12.4845
▁nervousness	-12.4847
▁ross	-12.4851
▁rays	-12.4852
▁carter	-12.4852
▁gates	-12.4853
▁pillows	-12.4856
coat	-12.4857
▁flats	-12.486
itive	-12.4862
helve	-12.4864
▁steven	-12.4866
ddd	-12.4869
▁pas	-12.4871
▁maintained	-12.4878
▁poster	-12.4883
▁mph	-12.4886
uito	-12.4886
ano	-12.4891
ego	-12.4896
cker	-12.4902
▁timeline	-12.4904
▁references	-12.4907
xi	-12.4913
▁jamm	-12.4913
tions	-12.4913
▁soooooo	-12.4914
cation	-12.4921
▁experiments	-12.4925
▁chuckle	-12.4938
▁neuro	-12.4938
▁gran	-12.494
▁lib	-12.4954
▁hairs	-12.4956
▁surrounds	-12.4957
▁lacks	-12.4958
▁abuser	-12.4961
▁rad	-12.497
▁vest	-12.497
▁drying	-12.4973
▁allen	-12.4977
▁trends	-12.4982
cia	-12.4988
tmost	-12.4993
▁peach	-12.4994
rag	-12.4994
news	-12.4995
cus	-12.5001
▁dumps	-12.5002
▁ww	-12.5004
ret	-12.5022
▁bru	-12.5028
▁halls	-12.5031
▁strap	-12.5033
▁projecting	-12.5037
▁substitute	-12.5041
▁beers	-12.5043
▁votes	-12.5046
iu	-12.5047
▁gb	-12.5054
▁lad	-12.5054
▁observation	-12.5057
▁supplement	-12.5057
▁strand	-12.5057
▁breathless	-12.5057
▁veggie	-12.5057
▁resident	-12.5058
▁apples	-12.5059
▁fin	-12.5059
▁preference	-12.506
rap	-12.506
▁contraction	-12.506
▁digest	-12.506
▁rust	-12.5061
▁inconvenience	-12.5063
▁spank	-12.5064
▁diff	-12.5067
▁slug	-12.5068
▁embarrass	-12.507
mission	-12.507
pic	-12.5076
herently	-12.5077
▁kno	-12.5078
▁blurt	-12.509
▁rig	-12.5095
cript	-12.5097
▁eva	-12.5104
▁contradict	-12.5105
▁approve	-12.5108
▁doubted	-12.5109
▁consult	-12.5111
tto	-12.5115
▁accuse	-12.5115
▁depart	-12.5115
▁rival	-12.5116
▁delirious	-12.5116
▁morbid	-12.5116
▁aesthetic	-12.5116
▁anxieties	-12.5116
▁apprehension	-12.5116
▁artificial	-12.5116
▁censor	-12.5116
▁fascinating	-12.5116
▁giggling	-12.5116
▁jennifer	-12.5116
▁mexican	-12.5116
▁multitude	-12.5116
▁nuisance	-12.5116
▁sacrificing	-12.5116
▁sloppy	-12.5116
▁sneezing	-12.5116
▁surviving	-12.5116
▁syrup	-12.5116
▁terrifying	-12.5116
▁transcend	-12.5116
▁tremble	-12.5116
▁amusement	-12.5116
▁cuddly	-12.5116
▁distinguish	-12.5116
▁imminent	-12.5116
▁investigate	-12.5116
▁munch	-12.5116
▁orchestra	-12.5116
▁phoenix	-12.5116
▁sponge	-12.5116
▁calves	-12.5116
▁crucial	-12.5116
▁chubby	-12.5116
▁drench	-12.5116
▁podcast	-12.5116
▁skating	-12.5116
▁telephone	-12.5116
▁erupt	-12.5116
▁steadily	-12.5116
▁autism	-12.5116
▁mislead	-12.5116
▁digress	-12.5116
▁barefoot	-12.5116
▁claustrophobic	-12.5116
▁francisco	-12.5116
▁buddha	-12.5116
▁pulp	-12.5116
▁restore	-12.5116
▁compound	-12.5116
▁overdue	-12.5116
▁isaac	-12.5116
▁predator	-12.5116
▁reverence	-12.5116
▁undone	-12.5116
▁counselling	-12.5116
▁injuries	-12.5116
▁psychotic	-12.5116
▁crumbling	-12.5117
▁covet	-12.5117
▁clash	-12.5117
▁roger	-12.5117
▁humiliation	-12.5117
▁picnic	-12.5117
▁terminal	-12.5117
▁erotic	-12.5117
▁duration	-12.5117
▁duckling	-12.5117
▁crust	-12.5117
▁jake	-12.5118
▁frumpy	-12.5118
▁loner	-12.5118
▁lamp	-12.512
▁childlike	-12.512
▁showcase	-12.5121
▁judgemental	-12.5121
▁reinforce	-12.5121
▁hong	-12.5122
▁oppressed	-12.5122
▁unintentionally	-12.5123
▁twitchy	-12.5123
zac	-12.5123
▁booze	-12.5124
sembl	-12.5125
▁considerabl	-12.5125
▁pampered	-12.5125
▁replacement	-12.5125
▁overpower	-12.5125
▁fitted	-12.5127
▁beforehand	-12.5127
▁marvelous	-12.5127
▁gulp	-12.5128
▁lh	-12.5129
▁hiccups	-12.5129
▁emotionless	-12.513
▁slot	-12.5131
▁precisely	-12.5132
▁wonderland	-12.5132
▁jolt	-12.5132
vent	-12.5135
▁incorrect	-12.5136
▁electro	-12.5137
▁flashbacks	-12.5137
▁credits	-12.514
▁fest	-12.5141
uirements	-12.5142
▁salty	-12.5147
▁scope	-12.5147
▁devi	-12.5149
▁flipped	-12.515
▁disagreement	-12.5153
▁altered	-12.5155
ami	-12.5156
▁adored	-12.5157
ctor	-12.5161
▁befriend	-12.5161
inal	-12.5164
▁folded	-12.5165
▁fondness	-12.517
▁sided	-12.5171
▁revise	-12.5173
▁unfolding	-12.5174
▁heartedly	-12.5174
uette	-12.5175
▁observations	-12.5176
▁prescrib	-12.5179
▁mixing	-12.5179
ueue	-12.5181
▁bugg	-12.5182
▁complimented	-12.5186
▁noone	-12.5187
ibly	-12.5194
▁strok	-12.5199
▁vin	-12.5205
▁justification	-12.5206
prop	-12.5212
▁tattoos	-12.5218
▁fame	-12.5218
▁alarming	-12.5224
▁impulses	-12.5227
▁nan	-12.523
lip	-12.5232
▁fooled	-12.5233
▁wrists	-12.5235
▁casually	-12.5243
▁believers	-12.5244
▁devices	-12.5245
▁mai	-12.5253
▁thankfulness	-12.5255
▁vol	-12.5255
▁reported	-12.5256
kar	-12.5256
▁laps	-12.5258
nny	-12.5261
▁ankles	-12.5267
▁prey	-12.5268
dul	-12.527
▁ramp	-12.5271
▁auntie	-12.5272
▁tasted	-12.5277
▁blu	-12.5278
▁bubbles	-12.5281
▁mattered	-12.5283
▁guru	-12.5287
uan	-12.5288
ledge	-12.529
part	-12.5293
▁soften	-12.5294
gin	-12.5301
▁dolls	-12.5302
ture	-12.5305
▁smoker	-12.5307
vil	-12.5308
▁halt	-12.5308
▁conditioning	-12.5308
▁seniors	-12.5309
▁pots	-12.5319
▁builds	-12.5325
▁impulsive	-12.5328
▁lou	-12.5331
▁reporting	-12.5334
▁speechless	-12.5334
▁hoo	-12.5339
▁provider	-12.5357
ouch	-12.5358
fter	-12.5359
▁nit	-12.5366
▁dom	-12.5367
long	-12.537
occupied	-12.5372
mond	-12.5383
▁sca	-12.5383
▁williams	-12.5383
▁torch	-12.5393
▁elections	-12.5401
▁nations	-12.5411
▁kings	-12.5411
▁shapes	-12.5414
▁forty	-12.5427
▁lacked	-12.5431
▁extrem	-12.5448
▁oct	-12.545
▁cycles	-12.5464
watch	-12.5467
beat	-12.5472
▁survivor	-12.5472
▁elbow	-12.5473
▁component	-12.5473
▁veteran	-12.5473
▁whim	-12.5473
▁pancake	-12.5473
▁principle	-12.5473
▁instruction	-12.5474
▁billion	-12.548
break	-12.5481
▁hunter	-12.5483
personal	-12.5486
▁inherent	-12.5502
aged	-12.5504
▁classrooms	-12.5505
▁affirm	-12.5514
▁calculat	-12.5516
▁vivid	-12.5518
▁russia	-12.552
vis	-12.5522
▁bibl	-12.5522
▁retire	-12.5524
▁discourage	-12.5524
▁recharge	-12.5524
▁confuse	-12.5525
▁thirst	-12.5525
▁fluff	-12.5527
tch	-12.553
▁excruciating	-12.5533
▁admiring	-12.5533
▁ancestors	-12.5533
▁anyhow	-12.5533
▁benjamin	-12.5533
▁circuit	-12.5533
▁dinosaur	-12.5533
▁dishonest	-12.5533
▁easiest	-12.5533
▁excerpt	-12.5533
▁executive	-12.5533
▁footsteps	-12.5533
▁hypocritical	-12.5533
▁immigrant	-12.5533
▁jewellery	-12.5533
▁jittery	-12.5533
▁jonathan	-12.5533
▁juggling	-12.5533
▁moisturiser	-12.5533
▁netflix	-12.5533
▁perpetuat	-12.5533
▁reconcile	-12.5533
▁reflex	-12.5533
▁soundtrack	-12.5533
▁unpack	-12.5533
▁unsettling	-12.5533
▁velvet	-12.5533
▁whirl	-12.5533
▁aroused	-12.5533
▁continent	-12.5533
▁recreate	-12.5533
▁variation	-12.5533
▁tropic	-12.5533
▁examining	-12.5533
▁shudder	-12.5533
▁parcel	-12.5533
▁revising	-12.5533
▁supper	-12.5533
▁alexander	-12.5533
▁oprah	-12.5533
▁mistress	-12.5533
▁keith	-12.5533
▁zealand	-12.5533
▁trepidation	-12.5533
▁interval	-12.5533
▁strategies	-12.5533
▁biology	-12.5533
▁ireland	-12.5533
▁mercies	-12.5533
▁kurt	-12.5533
▁humidity	-12.5533
▁heightened	-12.5534
▁viewpoint	-12.5534
▁mutter	-12.5534
▁unreal	-12.5534
▁digestive	-12.5534
▁partnership	-12.5534
▁pitiful	-12.5535
▁foam	-12.5535
▁complexity	-12.5535
▁minus	-12.5535
▁batman	-12.5535
▁driveway	-12.5535
▁beads	-12.5536
▁itunes	-12.5536
▁kenya	-12.5536
▁hal	-12.5536
▁lightning	-12.5538
▁pitt	-12.5538
▁genetic	-12.5538
▁realisation	-12.5538
▁syria	-12.554
uility	-12.554
▁withdrawn	-12.5541
▁niche	-12.5541
▁coop	-12.5541
proving	-12.5541
▁narcissistic	-12.5541
▁cameron	-12.5543
▁visions	-12.5543
▁partake	-12.5545
▁attribut	-12.5548
▁pip	-12.5548
▁ooh	-12.5548
▁practise	-12.5549
▁unbelievable	-12.5549
▁bosses	-12.5551
▁counseling	-12.5551
▁bald	-12.5555
▁stalking	-12.5555
▁packet	-12.5555
▁posture	-12.5557
abi	-12.5557
▁noodles	-12.5557
▁et	-12.5557
▁haunted	-12.5558
▁headline	-12.5558
▁comeback	-12.5559
▁overflowing	-12.5563
▁owl	-12.5565
▁suppressed	-12.5567
▁transformed	-12.5568
▁geez	-12.557
▁raven	-12.5574
▁resonate	-12.5574
▁ethics	-12.5575
▁handy	-12.5577
▁soaked	-12.5581
▁slacking	-12.5586
▁unity	-12.5588
▁supplements	-12.5595
tv	-12.5596
▁stellar	-12.5597
▁rituals	-12.5598
▁gram	-12.5598
▁monk	-12.56
▁contained	-12.5604
▁stereotypes	-12.5605
▁riders	-12.5611
▁shovel	-12.5611
▁vitamins	-12.5613
▁dart	-12.5613
▁buds	-12.5616
▁flake	-12.5617
▁lingers	-12.5619
▁olympics	-12.5621
▁skilled	-12.5621
▁intending	-12.5621
▁chilled	-12.5621
▁representing	-12.5622
gate	-12.5632
▁dissolve	-12.5635
ban	-12.564
▁warmed	-12.5642
▁dodge	-12.5643
▁swinging	-12.5644
hhhh	-12.5644
▁gil	-12.5644
lung	-12.5645
▁goin	-12.5654
anna	-12.5661
▁muslims	-12.5662
▁aliens	-12.5664
▁barriers	-12.5672
▁kin	-12.5674
▁economics	-12.5677
olo	-12.5684
▁ros	-12.5707
▁bastards	-12.5723
▁suitabl	-12.5727
▁belongings	-12.5736
▁chicks	-12.5739
▁hassle	-12.5743
▁rocket	-12.5752
uki	-12.5759
▁lah	-12.5761
▁yuki	-12.577
▁mars	-12.5775
▁aku	-12.5778
▁aunts	-12.5779
wash	-12.578
▁gm	-12.5797
▁swearing	-12.5798
iro	-12.58
▁sighs	-12.5805
▁outline	-12.5805
▁hawk	-12.5808
▁contacted	-12.5813
▁confessing	-12.5815
▁matching	-12.5822
ean	-12.5823
▁uncles	-12.5824
books	-12.5826
▁cf	-12.5826
▁loosen	-12.5832
▁clam	-12.5844
▁bal	-12.5845
awa	-12.5849
▁versions	-12.5856
elli	-12.5861
▁cher	-12.5872
▁pins	-12.5879
tress	-12.5879
wick	-12.5889
agging	-12.589
▁triple	-12.5903
▁trains	-12.5904
▁explosion	-12.5907
▁grudge	-12.5908
▁vegetable	-12.5909
▁gripp	-12.5913
walk	-12.5918
pretty	-12.592
▁hardship	-12.5925
bound	-12.5929
rou	-12.5932
▁yr	-12.5937
▁hai	-12.5943
▁devour	-12.5949
▁warrant	-12.595
iva	-12.5951
▁mails	-12.5953
▁detect	-12.5959
▁isolate	-12.5959
▁divide	-12.5959
▁uncontrollabl	-12.5959
▁bind	-12.5961
▁mock	-12.5964
▁fright	-12.5964
▁empti	-12.5966
▁imperfect	-12.5966
▁diploma	-12.5967
▁whisk	-12.5967
uisite	-12.5967
▁arizona	-12.5967
▁bishop	-12.5967
▁climax	-12.5967
▁clinton	-12.5967
▁complement	-12.5967
▁controversial	-12.5967
▁disservice	-12.5967
▁engulf	-12.5967
▁entrepreneur	-12.5967
▁exhilarating	-12.5967
▁festivities	-12.5967
▁flustered	-12.5967
▁indignant	-12.5967
▁miserably	-12.5967
▁olivia	-12.5967
▁prominent	-12.5967
▁psychiatrist	-12.5967
▁repulsed	-12.5967
▁sausage	-12.5967
▁scandal	-12.5967
▁shakespeare	-12.5967
▁stadium	-12.5967
▁tendencies	-12.5967
▁therapeutic	-12.5967
▁uganda	-12.5967
▁unnoticed	-12.5967
▁upbringing	-12.5967
▁virtue	-12.5967
▁dylan	-12.5967
▁eagle	-12.5967
▁invasion	-12.5967
▁segment	-12.5967
▁circus	-12.5968
▁fireworks	-12.5968
▁wierd	-12.5968
▁grandchildren	-12.5968
▁whirlwind	-12.5968
▁flounder	-12.5968
▁martyr	-12.5968
▁myriad	-12.5968
▁mushroom	-12.5968
▁britney	-12.5968
▁nickname	-12.5968
▁pedal	-12.5968
▁ladder	-12.5968
▁noisy	-12.5968
▁smidge	-12.5968
uivalent	-12.5968
▁rumour	-12.5968
▁sphere	-12.5968
▁bulk	-12.5968
▁compelling	-12.5968
▁deprivation	-12.5968
▁holistic	-12.5968
▁prank	-12.5968
▁tornado	-12.5968
▁jinx	-12.5968
▁cocoon	-12.5968
▁summit	-12.5968
▁fangirl	-12.5968
▁tapping	-12.5968
▁cashier	-12.5969
▁marginally	-12.5969
▁underground	-12.5969
▁desirable	-12.5969
▁overtake	-12.5969
▁furry	-12.5969
▁collaboration	-12.5969
▁discrimination	-12.5969
▁heather	-12.597
▁riddle	-12.597
strawberry	-12.597
▁carbon	-12.5971
▁sinuses	-12.5971
▁bloat	-12.5971
▁secretary	-12.5972
▁journalism	-12.5972
▁familiarity	-12.5973
▁sneakers	-12.5973
▁taxes	-12.5974
▁schoolgirl	-12.5974
▁biggie	-12.5974
iki	-12.5974
▁cult	-12.5974
▁yucky	-12.5975
▁manipulate	-12.5975
▁fictional	-12.5975
▁perry	-12.5975
▁paleo	-12.5976
▁sandwiches	-12.5976
▁retired	-12.5976
▁restored	-12.5977
▁cabinet	-12.5977
▁butcher	-12.5977
▁crushes	-12.5979
▁rider	-12.598
▁fries	-12.598
▁tempo	-12.5981
▁wretched	-12.5981
▁flawed	-12.5981
▁nurtured	-12.5981
▁rally	-12.5982
▁eater	-12.5982
▁fringe	-12.5984
▁churning	-12.5986
▁tolerated	-12.5986
uirrel	-12.5987
▁distinction	-12.5987
▁nerdy	-12.599
▁restraint	-12.5991
▁composed	-12.5991
▁cocoa	-12.5992
▁output	-12.5992
▁linda	-12.5992
valent	-12.5992
uished	-12.5996
isation	-12.5996
uf	-12.5997
face	-12.5997
▁bolt	-12.5997
▁flops	-12.6004
▁marker	-12.6006
▁implications	-12.6009
▁smi	-12.6013
free	-12.6013
▁lengthy	-12.6014
▁garments	-12.6014
▁tb	-12.6016
▁praised	-12.6022
▁chewing	-12.6022
▁tactics	-12.6025
▁represented	-12.6027
▁dipp	-12.6032
▁browser	-12.6035
▁merits	-12.6035
▁polished	-12.6038
▁likewise	-12.6041
▁affirmations	-12.6041
▁watchers	-12.6043
▁nephews	-12.6046
▁grove	-12.6047
▁sighed	-12.6054
▁heartbreaking	-12.6057
write	-12.6058
▁lecturer	-12.6066
▁heaps	-12.6068
▁distanced	-12.607
▁cad	-12.6078
▁lords	-12.6079
▁experimenting	-12.6079
▁buzzing	-12.6081
▁beard	-12.6084
gent	-12.6088
▁duh	-12.6091
▁consumers	-12.6093
living	-12.6093
name	-12.6093
▁responds	-12.6094
▁nano	-12.6097
▁winters	-12.6102
▁hive	-12.6103
▁cord	-12.6103
▁participat	-12.6105
▁coloured	-12.6108
▁exceptions	-12.6109
▁listeners	-12.6113
▁straighten	-12.6115
▁pals	-12.6117
▁cultivate	-12.6127
▁compos	-12.6139
lot	-12.6145
nfront	-12.6148
▁fumbl	-12.6149
key	-12.6151
uarters	-12.6151
▁pleasures	-12.6155
▁sunk	-12.616
link	-12.6161
▁scores	-12.617
bul	-12.6177
▁picky	-12.6179
▁persever	-12.6184
coz	-12.6188
gina	-12.6189
roy	-12.619
ada	-12.619
▁unravel	-12.6198
▁fuller	-12.6198
mie	-12.6198
▁sweats	-12.62
yyyy	-12.6204
fulness	-12.6207
▁asia	-12.6209
▁buckle	-12.6212
▁veil	-12.6214
▁fir	-12.6223
▁aids	-12.6223
zer	-12.6234
hua	-12.6236
▁levi	-12.6239
▁sri	-12.624
▁phoned	-12.624
▁trails	-12.6241
bear	-12.6242
▁gne	-12.6265
▁concerts	-12.6275
▁offerings	-12.6278
▁pairing	-12.628
▁conclusions	-12.6286
osis	-12.6308
nell	-12.6311
aid	-12.6312
▁threaten	-12.6318
maker	-12.6326
▁peacefully	-12.6328
▁flights	-12.633
ril	-12.633
▁swor	-12.6332
▁mit	-12.6342
▁disrupt	-12.6347
▁bruise	-12.6355
▁cops	-12.6357
▁kitten	-12.6362
▁weapon	-12.6362
▁passenger	-12.6363
▁diaper	-12.6363
▁cupcake	-12.6363
roll	-12.6368
ato	-12.637
green	-12.6375
mma	-12.6375
▁elect	-12.6377
▁tactic	-12.6386
▁pod	-12.6387
lar	-12.6388
flower	-12.6389
▁rants	-12.639
▁shrink	-12.6393
▁dieting	-12.6397
▁twitch	-12.6401
▁tele	-12.6401
▁pressur	-12.6402
▁caf	-12.6403
▁envision	-12.6404
▁targets	-12.6405
▁latin	-12.6405
▁fare	-12.6405
▁scrapp	-12.6406
▁literal	-12.6408
▁pond	-12.6409
▁hah	-12.641
ray	-12.6412
▁glanc	-12.6413
bone	-12.6413
▁reciprocate	-12.6414
▁wimp	-12.6415
chester	-12.6416
▁bree	-12.642
lazing	-12.6421
▁vibrat	-12.6421
cial	-12.6421
▁republic	-12.6421
lain	-12.6421
▁activist	-12.6422
▁appease	-12.6422
▁applaud	-12.6422
▁confidant	-12.6422
▁contributor	-12.6422
▁dallas	-12.6422
▁derek	-12.6422
▁endeavour	-12.6422
▁groceries	-12.6422
▁hiatus	-12.6422
▁hypocrisy	-12.6422
▁indifference	-12.6422
▁intensive	-12.6422
▁intriguing	-12.6422
▁invincible	-12.6422
▁joseph	-12.6422
▁jungle	-12.6422
▁libraries	-12.6422
▁maximum	-12.6422
▁michigan	-12.6422
▁microsoft	-12.6422
▁nicole	-12.6422
▁oblivious	-12.6422
▁outstanding	-12.6422
▁postpartum	-12.6422
▁predicament	-12.6422
▁relapse	-12.6422
▁snatch	-12.6422
▁thief	-12.6422
▁umbrella	-12.6422
▁walmart	-12.6422
▁whistle	-12.6422
▁wilderness	-12.6422
▁presume	-12.6422
▁staple	-12.6422
▁prestig	-12.6422
▁prophet	-12.6422
▁psychologist	-12.6422
▁stunt	-12.6422
▁constitution	-12.6422
▁seizure	-12.6422
▁simplify	-12.6422
▁disclose	-12.6422
▁entail	-12.6422
▁cosmetic	-12.6422
▁cowboy	-12.6422
▁proactive	-12.6422
▁joshua	-12.6422
▁pardon	-12.6422
▁procrastinating	-12.6422
▁rattle	-12.6422
▁assertive	-12.6422
▁morris	-12.6422
▁cardigan	-12.6422
▁suitcase	-12.6423
▁flourish	-12.6423
▁barack	-12.6423
▁ashley	-12.6423
▁xxx	-12.6423
▁fraction	-12.6423
▁entity	-12.6423
▁preview	-12.6423
▁narrator	-12.6424
▁agonized	-12.6424
▁exude	-12.6424
▁summon	-12.6424
▁teasing	-12.6424
▁summarize	-12.6425
▁napping	-12.6425
▁handbag	-12.6425
▁teeter	-12.6425
▁stale	-12.6425
▁stimulated	-12.6425
▁branches	-12.6427
▁blazer	-12.6429
▁alignment	-12.6431
▁dissapointed	-12.6431
▁regulation	-12.6431
▁rusty	-12.6432
▁polishes	-12.6432
▁lama	-12.6432
▁rss	-12.6433
▁lax	-12.6434
▁elite	-12.6434
▁taco	-12.6435
▁analys	-12.6436
▁brushes	-12.6436
▁pilot	-12.6437
▁statue	-12.6439
▁stink	-12.6442
▁frail	-12.6442
▁aroma	-12.6443
stein	-12.6444
▁awaiting	-12.6445
▁residual	-12.6446
▁starve	-12.6449
▁prediction	-12.6449
rong	-12.6449
▁strictly	-12.6452
▁unto	-12.6452
▁chased	-12.6452
▁linu	-12.6455
▁funky	-12.6457
▁swelling	-12.6462
▁daring	-12.6463
▁cul	-12.6464
▁indulged	-12.6466
▁blows	-12.6467
uh	-12.6468
jah	-12.6474
▁deeds	-12.6474
▁pervert	-12.6476
▁swatch	-12.6477
▁religions	-12.6481
▁heavens	-12.6481
▁woes	-12.6483
▁strands	-12.649
▁liner	-12.6493
▁battles	-12.6493
▁ramblings	-12.6502
▁priced	-12.6502
▁flopp	-12.6508
▁heh	-12.651
▁carl	-12.6512
cca	-12.6513
▁dared	-12.6516
▁thumbs	-12.6518
▁conventional	-12.6519
▁pb	-12.652
essa	-12.6522
▁sem	-12.6527
▁fave	-12.6527
▁cra	-12.653
▁achey	-12.6533
uma	-12.6533
▁hd	-12.6534
▁jumpy	-12.6536
▁mills	-12.6542
▁purr	-12.6543
▁tires	-12.6547
▁fullness	-12.655
itz	-12.6552
▁samples	-12.6558
▁strapp	-12.6561
▁locker	-12.6568
▁directing	-12.6568
▁lan	-12.658
ooooo	-12.6583
▁resourceful	-12.6585
uested	-12.6588
▁newspapers	-12.6592
▁bot	-12.6599
▁arrange	-12.6599
ugh	-12.6602
▁costumes	-12.6608
▁strokes	-12.6609
ancy	-12.6612
▁sep	-12.6615
▁outlets	-12.6615
▁moss	-12.6617
▁lipsticks	-12.6623
▁shap	-12.6627
▁bangs	-12.6631
logged	-12.6632
▁gracefully	-12.6642
▁cau	-12.6651
▁descriptions	-12.6654
▁stamps	-12.6656
erous	-12.6658
▁lands	-12.6659
▁academics	-12.6659
▁spells	-12.667
shaw	-12.6674
▁fart	-12.6676
▁mow	-12.6676
▁reviewed	-12.6676
▁disorders	-12.6676
▁hr	-12.6678
iated	-12.6706
ways	-12.6709
▁megan	-12.6709
▁neo	-12.6715
▁courts	-12.6715
form	-12.6719
▁shines	-12.672
▁assign	-12.6725
nish	-12.673
thern	-12.6734
▁err	-12.6736
▁sab	-12.6746
▁parker	-12.675
▁humbl	-12.6753
▁conn	-12.6768
▁mala	-12.6783
▁meditat	-12.6792
▁behold	-12.6793
▁ei	-12.6795
▁pg	-12.6817
▁parental	-12.6818
▁geo	-12.682
▁stations	-12.6826
hat	-12.683
▁zo	-12.6831
▁pd	-12.6834
▁educator	-12.6839
▁arrangement	-12.6839
▁prisoner	-12.6847
▁planes	-12.6851
water	-12.6853
▁shan	-12.6854
▁publisher	-12.6855
▁lagg	-12.6856
lton	-12.6858
seat	-12.6859
▁signal	-12.6863
▁frost	-12.6864
▁tis	-12.6864
▁chickens	-12.6868
▁scrapbook	-12.687
tica	-12.6875
▁hysterical	-12.6884
▁excite	-12.689
▁grump	-12.6891
▁yuck	-12.6892
▁reverse	-12.6893
▁fulfil	-12.6895
▁exert	-12.6896
aternal	-12.6897
▁glamour	-12.6898
▁vietnam	-12.6898
▁extensive	-12.6898
aholic	-12.6898
▁administrator	-12.6898
▁afghanistan	-12.6898
▁anthony	-12.6898
▁approximately	-12.6898
▁boulder	-12.6898
▁caregiver	-12.6898
▁convicted	-12.6898
▁elevator	-12.6898
▁fountain	-12.6898
▁hindi	-12.6898
▁hurdle	-12.6898
▁juicy	-12.6898
▁liberation	-12.6898
▁motivating	-12.6898
▁oatmeal	-12.6898
▁outburst	-12.6898
▁paradise	-12.6898
▁philippines	-12.6898
▁physician	-12.6898
▁pluck	-12.6898
▁premise	-12.6898
▁prettier	-12.6898
▁prevail	-12.6898
▁pseudo	-12.6898
▁registration	-12.6898
▁spectator	-12.6898
▁spencer	-12.6898
▁stamina	-12.6898
▁stricken	-12.6898
▁stylist	-12.6898
▁technological	-12.6898
▁thirties	-12.6898
▁thyroid	-12.6898
▁undervalued	-12.6898
▁underwhelmed	-12.6898
▁uninteresting	-12.6898
▁unseen	-12.6898
▁vancouver	-12.6898
▁vindictive	-12.6898
▁yield	-12.6898
▁clerk	-12.6898
▁sprout	-12.6898
▁uncaring	-12.6898
▁widow	-12.6898
▁vendor	-12.6898
▁transplant	-12.6898
▁stigma	-12.6898
▁stove	-12.6898
▁disabilities	-12.6898
▁alliance	-12.6898
▁thump	-12.6898
▁serum	-12.6898
▁sculpture	-12.6898
▁patriotic	-12.6898
▁palette	-12.6899
▁decay	-12.6899
▁representative	-12.6899
▁patio	-12.6899
▁barrel	-12.6899
▁morgan	-12.6899
▁enlightenment	-12.6899
▁sushi	-12.6899
▁duped	-12.6899
▁manicure	-12.6899
▁retirement	-12.6899
▁begged	-12.6899
▁addictive	-12.6899
▁exotic	-12.6899
▁hehehe	-12.6899
▁innovation	-12.6899
▁admin	-12.6899
▁dense	-12.6899
▁percentage	-12.6899
▁drugged	-12.6899
▁martha	-12.6899
▁blurry	-12.6899
▁spade	-12.6899
▁duke	-12.69
▁overhear	-12.69
▁nancy	-12.69
▁inkling	-12.69
▁authenticity	-12.69
▁danny	-12.69
▁abby	-12.69
▁rotation	-12.69
▁wagon	-12.69
▁molly	-12.69
▁blob	-12.69
ere	-12.6901
▁undertaking	-12.6901
▁hillary	-12.6901
▁academically	-12.6901
▁johnson	-12.6901
▁calf	-12.6901
▁playlist	-12.6901
▁installment	-12.6902
▁laden	-12.6902
▁flies	-12.6902
▁lunchtime	-12.6902
▁marina	-12.6903
▁missions	-12.6903
▁proposed	-12.6903
▁patches	-12.6905
▁bbc	-12.6906
▁affordable	-12.6906
▁lull	-12.6906
▁emoticon	-12.6907
▁govern	-12.6907
▁starved	-12.6907
▁fancie	-12.6907
▁reciprocated	-12.6907
▁goodnight	-12.6907
jun	-12.6907
▁complexion	-12.6908
▁relay	-12.6908
▁parish	-12.6909
esh	-12.6911
▁coaches	-12.6911
▁misunderstand	-12.6911
▁abruptly	-12.6911
▁silky	-12.6912
▁hyped	-12.6912
▁choked	-12.6913
▁marie	-12.6916
▁smoother	-12.692
pplies	-12.6921
▁reeling	-12.6921
▁eliminated	-12.6921
▁biased	-12.6922
▁follower	-12.6922
▁weakest	-12.6924
▁spontaneously	-12.6925
▁terrorist	-12.6926
▁lanka	-12.693
▁enormously	-12.6931
▁discounted	-12.6937
▁advertise	-12.6937
▁accusations	-12.6938
▁endur	-12.6938
▁delayed	-12.6939
iniest	-12.6944
▁developers	-12.6945
ueal	-12.6948
▁soothed	-12.695
▁tablets	-12.6953
aria	-12.6956
▁hump	-12.6957
▁arrangements	-12.6958
▁weapons	-12.6961
▁extract	-12.6962
▁harshly	-12.6964
▁goof	-12.6966
▁veterans	-12.6967
▁malay	-12.6967
▁vid	-12.6972
▁tilt	-12.6973
▁nec	-12.6979
▁corpse	-12.6981
▁independently	-12.6985
▁cone	-12.6986
▁uploading	-12.6986
iri	-12.6991
▁pmsing	-12.6991
bon	-12.6999
▁logan	-12.7003
▁nay	-12.7004
▁invent	-12.7006
inted	-12.7007
▁tenderness	-12.7007
▁pursuits	-12.7008
▁tame	-12.7013
ral	-12.7016
▁worthlessness	-12.7018
▁premier	-12.702
▁tourists	-12.7021
▁cel	-12.7021
▁angles	-12.7023
nite	-12.7025
▁scriptures	-12.7026
▁prompting	-12.7027
meter	-12.7028
▁expenses	-12.7029
▁freedoms	-12.7032
▁wii	-12.7032
▁trainers	-12.7033
hic	-12.7033
▁rib	-12.7037
▁permit	-12.7039
▁threats	-12.7047
marlon	-12.7052
▁minimize	-12.7055
▁paragraphs	-12.7056
▁nieces	-12.7061
▁noah	-12.7062
test	-12.7067
▁officers	-12.7068
▁insults	-12.7071
▁dw	-12.7085
▁murderer	-12.7086
▁bm	-12.7087
▁barr	-12.7088
url	-12.709
aches	-12.7095
▁singers	-12.7096
▁wits	-12.7097
▁ebook	-12.7102
ika	-12.7102
▁rud	-12.7108
▁mono	-12.7109
▁releases	-12.7123
▁camper	-12.7132
▁examinations	-12.7139
▁abus	-12.7139
df	-12.7147
▁clan	-12.7154
▁recalled	-12.7154
fuck	-12.7155
▁genres	-12.7157
▁directors	-12.7157
▁conc	-12.7159
▁nasa	-12.7161
▁trot	-12.7161
lier	-12.7168
ood	-12.7176
aro	-12.7182
ira	-12.7184
▁explanations	-12.7186
▁ahem	-12.7192
▁carrie	-12.7193
▁tang	-12.7194
▁managers	-12.7199
▁cape	-12.7199
▁thoughtless	-12.7213
▁mitt	-12.7219
▁harden	-12.7232
▁impressions	-12.724
city	-12.7242
▁lookin	-12.7244
▁gw	-12.7256
▁ripe	-12.7265
▁footing	-12.7267
note	-12.7268
▁mirrors	-12.7273
▁summ	-12.7281
asa	-12.7288
obe	-12.7312
▁kon	-12.7314
power	-12.7315
▁deepen	-12.7318
▁memoriz	-12.7319
del	-12.7319
cci	-12.7331
▁woe	-12.7333
▁politician	-12.7339
▁finance	-12.734
▁decoration	-12.734
▁stair	-12.7341
though	-12.7346
▁fig	-12.7346
▁stan	-12.7347
asha	-12.7347
master	-12.7349
border	-12.735
sheet	-12.7351
▁disturb	-12.7352
show	-12.7354
▁separat	-12.7356
page	-12.7366
▁recruit	-12.737
zem	-12.737
▁kun	-12.7371
▁pw	-12.7376
▁enlighten	-12.738
▁roberts	-12.738
idi	-12.738
▁dale	-12.7383
▁perpetual	-12.7384
▁thorough	-12.7384
▁sympathi	-12.7391
▁amaze	-12.7393
▁indonesia	-12.7395
▁straw	-12.7396
▁demean	-12.7398
▁congratulat	-12.7398
▁alabama	-12.7398
▁bladder	-12.7398
▁charitable	-12.7398
▁cincinnati	-12.7398
▁complications	-12.7398
▁consecutive	-12.7398
▁deception	-12.7398
▁devastation	-12.7398
▁drowsy	-12.7398
▁eighteen	-12.7398
▁exhilaration	-12.7398
▁freelance	-12.7398
▁grumble	-12.7398
▁houston	-12.7398
▁impatience	-12.7398
▁impotent	-12.7398
▁invariabl	-12.7398
▁majest	-12.7398
▁malicious	-12.7398
▁mechanical	-12.7398
▁misinterpret	-12.7398
▁misrepresent	-12.7398
▁nuclea	-12.7398
▁overjoyed	-12.7398
▁presumabl	-12.7398
▁protocol	-12.7398
▁provoking	-12.7398
▁redemption	-12.7398
▁rhyme	-12.7398
▁sanctuary	-12.7398
▁scheduling	-12.7398
▁shanghai	-12.7398
▁shimmer	-12.7398
▁sixteen	-12.7398
▁snicker	-12.7398
▁societal	-12.7398
▁spectacle	-12.7398
▁strawberries	-12.7398
▁supernatural	-12.7398
▁surpass	-12.7398
▁tiffany	-12.7398
▁unacceptable	-12.7398
▁vogue	-12.7398
▁yourselves	-12.7398
▁elitist	-12.7398
▁escalate	-12.7398
▁kansas	-12.7398
▁melissa	-12.7398
▁pornograph	-12.7398
▁rearrang	-12.7398
▁sunrise	-12.7398
▁gratification	-12.7398
▁persuad	-12.7398
▁competitor	-12.7398
▁reiterate	-12.7398
▁shepherd	-12.7398
▁animated	-12.7398
▁astonish	-12.7398
▁personnel	-12.7398
▁painkiller	-12.7398
▁dissect	-12.7398
▁architecture	-12.7398
▁disorientated	-12.7398
▁criticizing	-12.7398
▁enterprise	-12.7398
▁grease	-12.7398
▁trudge	-12.7398
▁seduce	-12.7398
▁craig	-12.7398
▁repay	-12.7398
▁hamster	-12.7399
▁hyung	-12.7399
▁molest	-12.7399
▁disposition	-12.7399
▁moisture	-12.7399
▁figurative	-12.7399
▁spook	-12.7399
▁attire	-12.7399
▁amazement	-12.7399
▁smear	-12.7399
▁sharon	-12.7399
▁singular	-12.7399
▁cradl	-12.7399
▁suburban	-12.7399
▁panicking	-12.7399
▁playground	-12.74
▁irreparably	-12.74
▁wireless	-12.74
▁spout	-12.74
▁readership	-12.74
▁static	-12.74
▁amends	-12.74
mmy	-12.7401
▁governor	-12.7401
▁reservation	-12.7401
▁hahah	-12.7402
▁novelty	-12.7402
▁sparkling	-12.7402
▁obliged	-12.7403
▁poker	-12.7403
▁recollection	-12.7404
▁finn	-12.7404
▁bagel	-12.7405
▁notions	-12.7405
▁lava	-12.7406
▁setback	-12.7406
▁priceless	-12.7406
▁mushy	-12.7406
▁alaska	-12.7406
▁charles	-12.7409
▁cdn	-12.741
▁normalcy	-12.741
▁aimlessly	-12.741
▁concede	-12.7411
▁chit	-12.7412
▁glossy	-12.7412
▁fashionable	-12.7413
▁weaving	-12.7415
▁concluded	-12.7415
▁glaze	-12.7415
▁condemned	-12.7416
▁usher	-12.7416
▁workload	-12.7417
▁bration	-12.7417
▁kilo	-12.7417
uiry	-12.7418
▁wiser	-12.7418
▁fussy	-12.7419
▁geeky	-12.7421
▁agreeing	-12.7423
▁constructed	-12.7425
▁singaporean	-12.7426
▁evan	-12.7428
▁scored	-12.7431
▁seriousness	-12.7433
▁ruby	-12.7433
▁scrolling	-12.7437
▁weeping	-12.7437
▁teaches	-12.7441
▁blinked	-12.7442
▁gary	-12.7442
▁neon	-12.7443
▁spurt	-12.745
kie	-12.745
▁recommendations	-12.7453
▁helen	-12.7456
▁gabe	-12.7456
▁superman	-12.7458
▁wallowing	-12.7458
mad	-12.7459
▁instinctive	-12.746
▁murdered	-12.7461
▁weeds	-12.7462
▁mice	-12.7464
▁fry	-12.7465
▁hrs	-12.747
itarian	-12.7474
▁homeland	-12.7474
▁shoots	-12.7475
▁grains	-12.748
leen	-12.7484
▁tantrums	-12.7486
▁veg	-12.7489
▁blinded	-12.7498
▁hella	-12.7501
▁doug	-12.7507
▁eti	-12.7508
▁crafted	-12.7514
▁maps	-12.7516
▁guarded	-12.7516
▁backup	-12.7518
sell	-12.752
▁resisting	-12.7524
▁pencils	-12.7527
wind	-12.753
▁terr	-12.7531
▁peas	-12.7532
this	-12.7533
uity	-12.7539
▁amber	-12.7543
▁hitch	-12.7544
▁voic	-12.7547
▁pry	-12.7548
hhhhh	-12.7549
rlin	-12.7558
▁temps	-12.756
▁fiddl	-12.7568
dh	-12.7571
▁delud	-12.7577
▁confessions	-12.7584
▁creeps	-12.7584
▁peppers	-12.7585
▁creators	-12.7589
▁ect	-12.7589
▁killers	-12.7592
▁shameless	-12.7592
▁sweetest	-12.7594
▁daw	-12.7598
▁gri	-12.7598
▁bets	-12.7602
▁lik	-12.7604
▁vick	-12.7609
nforming	-12.762
pies	-12.7621
▁mush	-12.7622
▁umm	-12.7635
▁marc	-12.7639
▁jenn	-12.7642
▁hom	-12.765
▁pigs	-12.7653
hra	-12.7654
▁lac	-12.7654
▁companions	-12.7655
zzy	-12.7663
▁mayor	-12.7671
▁nothingness	-12.7672
▁donna	-12.7679
▁ghosts	-12.7679
neer	-12.7681
▁callous	-12.7681
▁gla	-12.7682
owed	-12.7685
ope	-12.7688
camp	-12.7699
▁hmmm	-12.7702
▁invites	-12.7714
▁gill	-12.7715
▁deci	-12.7718
▁spacey	-12.772
hm	-12.7732
put	-12.7733
▁wand	-12.7736
live	-12.7739
▁conferences	-12.7743
▁shir	-12.7749
▁journaling	-12.7749
mone	-12.775
nar	-12.775
▁tack	-12.7757
▁coats	-12.776
juz	-12.7761
urn	-12.7763
▁gin	-12.7764
▁trader	-12.7768
uant	-12.7769
▁documents	-12.7778
▁bod	-12.7783
▁dresser	-12.7788
▁premiere	-12.7791
▁jc	-12.7805
▁horrors	-12.7809
friend	-12.781
▁oils	-12.7819
▁waver	-12.7822
ius	-12.7831
▁rises	-12.7847
ipped	-12.7848
▁eg	-12.7852
ttering	-12.7853
▁subside	-12.7857
▁apologetic	-12.7862
▁obstacle	-12.7865
▁coma	-12.7868
style	-12.7872
▁stalk	-12.7877
▁nourish	-12.7878
▁appearances	-12.7888
gave	-12.7893
thology	-12.7893
▁fel	-12.7894
▁grader	-12.7901
minating	-12.7903
▁pv	-12.7903
▁condemn	-12.7906
▁abrupt	-12.791
▁scatter	-12.7911
▁replay	-12.7911
▁slam	-12.7912
pour	-12.7913
▁regulat	-12.7914
▁sorrows	-12.7916
▁negotiat	-12.7924
▁anorexia	-12.7925
▁attentive	-12.7925
▁berkeley	-12.7925
▁cheerleader	-12.7925
▁christopher	-12.7925
▁commemorat	-12.7925
▁dissertation	-12.7925
▁escort	-12.7925
▁extrovert	-12.7925
▁eyelids	-12.7925
▁futile	-12.7925
▁goodwill	-12.7925
▁hamburger	-12.7925
▁leopard	-12.7925
▁lettuce	-12.7925
▁liberating	-12.7925
▁luggage	-12.7925
▁nintendo	-12.7925
▁reclaim	-12.7925
▁rediscover	-12.7925
▁refusal	-12.7925
▁scribble	-12.7925
▁scrooge	-12.7925
▁senator	-12.7925
▁slippery	-12.7925
▁sprite	-12.7925
▁stagger	-12.7925
▁susceptib	-12.7925
▁suspense	-12.7925
▁tragedies	-12.7925
▁trilogy	-12.7925
▁tylenol	-12.7925
▁uneasiness	-12.7925
▁unheard	-12.7925
▁vengeful	-12.7925
▁wikipedia	-12.7925
▁aversion	-12.7925
▁disgrace	-12.7925
▁inhabit	-12.7925
▁pertain	-12.7925
▁reducing	-12.7925
▁swedish	-12.7925
▁coincidence	-12.7925
▁replica	-12.7925
▁blister	-12.7925
▁embodi	-12.7925
▁nomination	-12.7925
▁oregon	-12.7925
▁taiwan	-12.7925
▁uphill	-12.7925
▁wheelchair	-12.7925
▁slumber	-12.7925
▁tuition	-12.7925
▁trunk	-12.7925
▁melodramatic	-12.7925
▁viral	-12.7925
▁brooklyn	-12.7925
▁tentative	-12.7925
▁waitress	-12.7925
▁paddle	-12.7925
▁austen	-12.7925
▁flail	-12.7925
▁fracture	-12.7925
▁concious	-12.7925
▁footprint	-12.7925
▁depressive	-12.7925
▁nominee	-12.7925
▁radar	-12.7925
▁sunburn	-12.7925
▁rapper	-12.7925
▁lodge	-12.7925
ualification	-12.7925
▁granny	-12.7925
▁pudding	-12.7925
▁introspective	-12.7925
▁lyme	-12.7925
mod	-12.7925
▁harassment	-12.7925
▁spinach	-12.7926
litary	-12.7926
▁civilization	-12.7926
▁ivf	-12.7926
▁caroline	-12.7926
▁countdown	-12.7926
▁perfectionist	-12.7926
▁sustainable	-12.7926
▁skincare	-12.7926
▁coax	-12.7926
▁sinner	-12.7926
▁barren	-12.7926
▁gwen	-12.7927
▁groom	-12.7927
▁unclear	-12.7927
▁zach	-12.7927
▁groan	-12.7928
▁mumbled	-12.7928
▁induced	-12.7929
▁located	-12.7929
▁madison	-12.793
▁yup	-12.793
▁consultation	-12.7931
▁trite	-12.7931
▁ebb	-12.7931
▁postcard	-12.7932
▁planner	-12.7932
▁terry	-12.7933
▁ashes	-12.7933
▁blogpost	-12.7934
▁rome	-12.7935
▁mason	-12.7935
▁brando	-12.7937
▁installed	-12.7938
▁hipster	-12.7938
▁talkative	-12.7938
▁generated	-12.7939
anned	-12.7939
▁stil	-12.7939
▁manageable	-12.794
▁batter	-12.794
▁condescending	-12.7941
▁wealthy	-12.7943
▁declined	-12.7944
▁flattering	-12.7945
▁condone	-12.7947
▁puzzled	-12.7947
▁gigant	-12.7948
▁rumors	-12.7949
uiver	-12.795
▁diminished	-12.7951
▁cheers	-12.7954
▁accidents	-12.7954
kan	-12.7957
▁suburbs	-12.7959
formative	-12.7959
ela	-12.796
▁characteristics	-12.7962
▁tai	-12.7965
bee	-12.7966
▁tensed	-12.7968
▁interpreted	-12.7969
▁mince	-12.7969
▁jackie	-12.797
▁barbie	-12.797
▁tricky	-12.7971
▁lone	-12.7971
▁warp	-12.7972
▁canceled	-12.7972
▁haunting	-12.7974
▁attest	-12.7975
▁tougher	-12.7975
▁nutritional	-12.7978
rope	-12.7979
▁specialist	-12.7981
▁funding	-12.7982
▁interrupting	-12.7984
▁jabs	-12.7984
▁usage	-12.7993
ific	-12.7997
▁shivering	-12.7997
▁greener	-12.7998
▁preferences	-12.8004
▁flicker	-12.8007
▁swam	-12.8008
▁memorize	-12.8009
▁recite	-12.801
▁secured	-12.8014
▁abc	-12.802
▁stabb	-12.8021
▁curly	-12.8042
▁stor	-12.8046
▁bombing	-12.8048
say	-12.8048
▁burner	-12.8049
▁expanding	-12.805
▁sugary	-12.8052
▁sid	-12.8062
▁sup	-12.8065
▁grasping	-12.8072
▁invitations	-12.8073
wardly	-12.8077
▁snakes	-12.808
▁rm	-12.8085
▁calmness	-12.8085
▁oc	-12.8086
▁pea	-12.8093
▁whipp	-12.8096
chie	-12.8098
▁advi	-12.8098
▁windy	-12.8102
▁succeeding	-12.8104
▁folder	-12.8106
▁upright	-12.8109
win	-12.812
▁nun	-12.8121
▁shaun	-12.814
eep	-12.8141
▁drip	-12.8142
▁upward	-12.8146
alt	-12.8147
▁genes	-12.8151
▁perceptions	-12.8152
▁gaps	-12.8158
hyun	-12.816
▁dil	-12.8163
▁earthy	-12.8171
▁await	-12.8172
iko	-12.8177
org	-12.8179
ski	-12.8184
▁morals	-12.8191
▁jab	-12.8208
rina	-12.8209
▁redo	-12.8214
▁catholics	-12.8218
▁bounds	-12.8218
▁networks	-12.8219
▁chai	-12.8221
▁bol	-12.8227
▁pictur	-12.8229
▁superb	-12.8235
▁shun	-12.8236
tick	-12.8239
rock	-12.8259
hara	-12.826
▁symbolic	-12.8261
▁luna	-12.8265
wise	-12.8283
ueens	-12.8286
▁conceive	-12.8287
dgy	-12.829
ravelled	-12.8293
▁bali	-12.8296
▁deed	-12.8296
lbar	-12.8304
▁interviewing	-12.8306
bang	-12.8307
▁measur	-12.8307
▁insta	-12.8319
▁shuffle	-12.8323
lov	-12.8329
▁grandmothers	-12.8332
pit	-12.8337
▁rin	-12.8349
▁mob	-12.8358
▁accommodate	-12.8361
▁lengths	-12.8361
zan	-12.8369
▁regimen	-12.8373
who	-12.8374
▁needless	-12.8374
▁cert	-12.8381
under	-12.8383
▁bonds	-12.8387
aving	-12.8398
▁gals	-12.84
yyy	-12.8403
▁amateur	-12.8403
▁wah	-12.8404
get	-12.8419
wear	-12.842
▁skim	-12.842
▁valentine	-12.8421
▁garment	-12.8423
▁recommendation	-12.8426
child	-12.8433
rteen	-12.8433
about	-12.8434
▁kath	-12.8441
▁pirate	-12.8441
▁spam	-12.8445
▁worm	-12.8449
▁accord	-12.8452
▁backward	-12.8456
design	-12.8456
▁moisturiz	-12.8457
▁humiliat	-12.8461
▁rotat	-12.8465
▁incessant	-12.8465
▁impose	-12.8472
▁egypt	-12.8477
▁dimension	-12.8479
▁lovin	-12.848
▁jumble	-12.848
▁uncommon	-12.848
▁adrift	-12.848
▁allergic	-12.848
▁almighty	-12.848
▁avocado	-12.848
▁ballerina	-12.848
▁charlotte	-12.848
▁consistency	-12.848
▁conspiracy	-12.848
▁constraints	-12.848
▁controversy	-12.848
▁cubicle	-12.848
▁culprit	-12.848
▁dishwasher	-12.848
▁disorganized	-12.848
▁ecstasy	-12.848
▁execution	-12.848
▁expansion	-12.848
▁expansive	-12.848
▁facade	-12.848
▁facilities	-12.848
▁graham	-12.848
▁greece	-12.848
▁lennon	-12.848
▁lethargy	-12.848
▁lobby	-12.848
▁manhattan	-12.848
▁masculine	-12.848
▁mediocrity	-12.848
▁misfortune	-12.848
▁palestinian	-12.848
▁presidency	-12.848
▁snippet	-12.848
▁stagnant	-12.848
▁storytelling	-12.848
▁testosterone	-12.848
▁thumbnail	-12.848
▁trustworthy	-12.848
▁unpredictable	-12.848
▁unresolved	-12.848
▁vengeance	-12.848
▁whelmed	-12.848
incarnation	-12.848
▁chloe	-12.848
▁ensemble	-12.848
▁inducing	-12.848
▁puppet	-12.848
▁bleach	-12.848
▁derby	-12.848
▁derive	-12.848
▁paranormal	-12.848
▁tortilla	-12.848
▁tumble	-12.848
▁effortlessly	-12.848
▁scarves	-12.848
▁neighbourhood	-12.848
▁smother	-12.848
▁vessel	-12.848
▁aloof	-12.848
▁innovative	-12.848
▁sassy	-12.848
▁glimmer	-12.848
▁tolerant	-12.848
▁antisocial	-12.848
▁bleh	-12.848
▁contradictory	-12.848
▁generic	-12.848
▁advisor	-12.848
▁casino	-12.848
▁congratulations	-12.848
▁gamble	-12.848
▁adrian	-12.848
▁adhere	-12.848
▁interface	-12.848
▁carolina	-12.848
▁obese	-12.848
▁whimper	-12.848
▁domain	-12.848
▁forthcoming	-12.848
▁counterpart	-12.848
▁whiskey	-12.848
▁rigid	-12.848
▁pagan	-12.848
▁expertise	-12.8481
▁wilson	-12.8481
▁consultant	-12.8481
▁miami	-12.8481
▁capability	-12.8481
▁flurry	-12.8481
▁measurements	-12.8481
▁loaf	-12.8481
▁enroll	-12.8481
▁jackass	-12.8481
▁revive	-12.8481
▁brood	-12.8481
▁tedious	-12.8481
▁fanfic	-12.8481
▁nanny	-12.8481
▁plateau	-12.8481
▁defence	-12.8481
▁tribe	-12.8481
▁vertigo	-12.8481
▁comedian	-12.8481
▁banter	-12.8481
▁transportation	-12.8481
▁nazi	-12.8482
▁bobby	-12.8482
▁providence	-12.8482
▁curry	-12.8482
▁pledge	-12.8482
▁hurl	-12.8482
▁unrest	-12.8482
▁crutches	-12.8482
uander	-12.8482
▁braid	-12.8482
▁banish	-12.8482
▁arthur	-12.8482
▁lolita	-12.8482
▁huff	-12.8482
▁paralysi	-12.8482
▁tickling	-12.8483
▁attendance	-12.8483
▁heartburn	-12.8483
▁ostracized	-12.8484
▁unlock	-12.8484
▁sickening	-12.8485
▁gritty	-12.8485
▁opinionated	-12.8485
▁analogy	-12.8486
▁diego	-12.8486
▁kale	-12.8486
▁endorse	-12.8487
▁restroom	-12.8487
▁ambivalen	-12.8487
▁demonstration	-12.8487
▁cyclist	-12.8488
▁ellen	-12.8489
ryl	-12.8489
▁restart	-12.8489
▁indirectly	-12.8489
▁reunited	-12.8489
▁brows	-12.849
▁asthma	-12.8491
▁compulsive	-12.8494
▁lung	-12.8496
▁overreacting	-12.8499
▁grinning	-12.85
▁steroids	-12.8502
▁cv	-12.8503
▁dire	-12.8503
▁rouse	-12.8504
▁affirmed	-12.8505
▁crim	-12.8505
▁cookbook	-12.8506
▁andrea	-12.8508
▁schoolwork	-12.851
▁fury	-12.8511
▁divorced	-12.8513
▁implant	-12.8514
▁abys	-12.8515
▁smashed	-12.8517
▁vitality	-12.8517
▁disciplined	-12.852
▁paused	-12.852
▁flushed	-12.8524
▁getaway	-12.8524
▁overboard	-12.8525
▁ventured	-12.8526
▁carrots	-12.8527
▁midwest	-12.8528
▁unde	-12.8532
▁erik	-12.8532
▁louder	-12.8532
▁brownies	-12.8533
▁chilly	-12.8533
▁celebs	-12.8533
▁sabotage	-12.8537
▁worms	-12.8541
▁legally	-12.8541
▁communicated	-12.8542
▁edited	-12.8547
▁concentrated	-12.855
▁runway	-12.8552
illion	-12.8553
▁punishing	-12.8554
▁offence	-12.8556
▁sock	-12.8557
▁grudges	-12.8558
▁critics	-12.8558
▁publishers	-12.8559
▁critically	-12.8559
▁components	-12.8561
▁resented	-12.8561
▁diva	-12.8565
▁altering	-12.8566
▁fluids	-12.8568
▁seams	-12.8574
▁lynn	-12.8575
kind	-12.8582
state	-12.8587
umi	-12.8588
▁headachey	-12.8593
aha	-12.8595
▁onset	-12.8596
▁musically	-12.8599
▁sel	-12.86
▁criminals	-12.8603
▁monkeys	-12.8603
▁goat	-12.8614
igh	-12.8615
▁coo	-12.8617
▁milestones	-12.8617
▁clips	-12.8619
▁dork	-12.8622
▁cracking	-12.8622
▁snacking	-12.8631
ele	-12.8632
▁ambitions	-12.8634
▁rainbows	-12.8634
▁sticker	-12.8641
▁junkie	-12.8643
▁agents	-12.8649
▁miler	-12.8653
▁individually	-12.866
▁bung	-12.8664
▁conceptual	-12.8664
rice	-12.8666
▁chem	-12.8669
▁sensor	-12.8669
▁editors	-12.8673
music	-12.8682
▁cer	-12.8684
dress	-12.8688
iii	-12.8688
▁jaws	-12.8693
▁earl	-12.87
titude	-12.8705
fus	-12.871
▁rated	-12.8722
▁advances	-12.873
▁dope	-12.8735
mot	-12.8736
▁advocat	-12.8736
pathy	-12.8739
▁cds	-12.874
▁toddlers	-12.8742
▁onions	-12.8744
igan	-12.8744
▁chunks	-12.8749
filed	-12.875
▁panda	-12.8755
▁masa	-12.876
misunderstanding	-12.876
▁participati	-12.8772
▁visualize	-12.8782
▁wage	-12.8784
▁iii	-12.8787
▁wayne	-12.879
▁ud	-12.879
▁hm	-12.8798
▁subscrib	-12.8801
nearest	-12.8813
▁immerse	-12.8819
void	-12.882
ife	-12.883
▁assholes	-12.8834
▁farms	-12.8835
▁brid	-12.8836
▁deb	-12.884
▁clues	-12.8841
▁gamer	-12.8845
▁tram	-12.8846
▁ethic	-12.8876
found	-12.8881
sea	-12.8882
▁cancell	-12.8889
▁jia	-12.8897
▁ruins	-12.8898
▁pear	-12.8899
▁anew	-12.8902
▁hiv	-12.8912
▁kyo	-12.8912
▁rp	-12.8914
▁tablet	-12.893
hahaha	-12.8932
bert	-12.8941
▁opi	-12.8943
care	-12.8963
▁corps	-12.8967
▁blo	-12.8968
▁crib	-12.8982
rian	-12.8983
▁flaw	-12.8992
holder	-12.8998
▁patron	-12.9008
pid	-12.9009
▁motive	-12.901
asia	-12.9016
▁jac	-12.9018
spoken	-12.9019
possibly	-12.9021
▁prof	-12.9023
bury	-12.9024
▁sweetie	-12.9026
print	-12.9028
coming	-12.9029
▁sai	-12.9036
▁scam	-12.9036
osa	-12.904
▁dangl	-12.9048
▁nudg	-12.9049
▁wretch	-12.905
▁dismay	-12.9051
▁swat	-12.9054
reads	-12.9054
▁delet	-12.9056
▁scum	-12.9061
▁erm	-12.9061
▁ethnic	-12.9068
▁pimp	-12.9068
▁sculpt	-12.9068
phobic	-12.9068
▁airplane	-12.9068
▁ambulance	-12.9068
▁antonio	-12.9068
▁assassin	-12.9068
▁bridesmaid	-12.9068
▁centuries	-12.9068
▁comparative	-12.9068
▁compensation	-12.9068
▁demotivated	-12.9068
▁dictionary	-12.9068
▁disapproval	-12.9068
▁discarded	-12.9068
▁distaste	-12.9068
▁doctrine	-12.9068
▁elephant	-12.9068
▁elusive	-12.9068
▁exaggerating	-12.9068
▁exuberance	-12.9068
▁forsaken	-12.9068
▁googling	-12.9068
▁html	-12.9068
▁inadvertent	-12.9068
▁inconsistent	-12.9068
▁inconvenient	-12.9068
▁influential	-12.9068
▁leonard	-12.9068
▁maneuver	-12.9068
▁menopaus	-12.9068
▁misguided	-12.9068
▁mumbai	-12.9068
▁oblivion	-12.9068
▁occupation	-12.9068
▁oxford	-12.9068
▁pedestrian	-12.9068
▁portuguese	-12.9068
▁proximity	-12.9068
▁removal	-12.9068
▁savvy	-12.9068
▁seventeen	-12.9068
▁signature	-12.9068
▁silhouette	-12.9068
▁spritz	-12.9068
▁triangle	-12.9068
▁tsunami	-12.9068
▁watermelon	-12.9068
▁wrath	-12.9068
▁zumba	-12.9068
▁diversion	-12.9068
▁lewis	-12.9068
▁nonstop	-12.9068
▁plummet	-12.9068
▁template	-12.9068
▁thrash	-12.9068
▁lymph	-12.9068
▁bereft	-12.9068
▁incense	-12.9068
▁natalie	-12.9068
▁snail	-12.9068
▁stoic	-12.9068
▁trifle	-12.9068
▁auction	-12.9068
▁puppies	-12.9068
▁problematic	-12.9068
▁twirl	-12.9068
▁homophobi	-12.9068
▁stimulating	-12.9068
▁withhold	-12.9068
▁chastis	-12.9068
widget	-12.9068
▁gmail	-12.9068
▁puddle	-12.9068
▁turtle	-12.9068
▁sweatpants	-12.9068
▁victorious	-12.9068
▁mattress	-12.9069
▁ninja	-12.9069
▁shunned	-12.9069
uench	-12.9069
▁musings	-12.9069
▁stimulation	-12.9069
▁intoxicat	-12.9069
▁aspirations	-12.9069
▁cosmic	-12.9069
▁nigga	-12.9069
▁kayak	-12.9069
▁femme	-12.9069
▁petrol	-12.9069
▁compress	-12.9069
▁rehab	-12.9069
▁faux	-12.9069
▁undertake	-12.9069
▁doorstep	-12.9069
▁metallic	-12.9069
▁undertone	-12.9069
▁remedie	-12.9069
▁swoon	-12.9069
▁mopey	-12.9069
▁mocha	-12.9069
▁bruce	-12.9069
▁marble	-12.9069
▁cardinal	-12.9069
▁muddle	-12.9069
▁possessive	-12.9069
▁healthcare	-12.9069
▁residue	-12.9069
▁sheepish	-12.9069
▁billboard	-12.9069
▁posing	-12.9069
▁herald	-12.9069
▁shady	-12.907
▁oppression	-12.907
▁screenplay	-12.907
▁communion	-12.907
▁vista	-12.907
▁hamstring	-12.907
▁corruption	-12.907
▁underdog	-12.907
▁cosplay	-12.907
▁leash	-12.907
▁resistant	-12.907
▁eerie	-12.907
▁cru	-12.9071
▁haiti	-12.9071
▁convo	-12.9071
▁realistically	-12.9071
▁existance	-12.9071
▁inferiority	-12.9071
▁steward	-12.9072
▁colourful	-12.9072
▁terminat	-12.9072
▁saga	-12.9073
▁spitting	-12.9073
▁filthy	-12.9073
▁mileage	-12.9073
▁misplaced	-12.9073
▁yada	-12.9073
▁evolving	-12.9074
▁throb	-12.9074
▁vase	-12.9074
▁consent	-12.9074
rudging	-12.9075
▁executed	-12.9075
▁unza	-12.9076
▁speck	-12.9076
▁hut	-12.9077
▁battery	-12.9077
▁riot	-12.9079
▁msn	-12.9081
erie	-12.9081
▁airline	-12.9081
▁acknowledgement	-12.9082
ologist	-12.9082
lippers	-12.9082
▁cassi	-12.9082
▁evolved	-12.9083
▁declared	-12.9084
▁contradiction	-12.9084
▁martini	-12.9085
▁needlessly	-12.9085
▁internaliz	-12.9085
▁advised	-12.9086
▁undo	-12.9087
▁perky	-12.9088
▁barry	-12.909
▁addresses	-12.909
▁thicker	-12.909
▁tickled	-12.9091
▁invented	-12.9091
▁snappy	-12.9091
▁hunch	-12.9092
▁maple	-12.9092
▁envi	-12.9092
▁exclusively	-12.9092
▁palin	-12.9095
venturing	-12.9095
▁cowardly	-12.9095
▁corny	-12.9097
▁compose	-12.9097
▁ripping	-12.9097
lted	-12.9098
▁teaser	-12.91
▁poisoned	-12.91
▁replaying	-12.91
idge	-12.91
▁rah	-12.91
▁chess	-12.9101
▁stud	-12.9101
▁skimm	-12.9101
▁pomp	-12.9102
▁frosting	-12.9104
▁illustrate	-12.9104
▁freshness	-12.9106
▁snot	-12.9107
▁coup	-12.911
▁royally	-12.911
▁disregarded	-12.911
▁herbal	-12.911
▁nz	-12.9111
▁reel	-12.9112
▁delusional	-12.9112
▁predicted	-12.9112
▁romantically	-12.9115
▁pies	-12.9116
▁hacking	-12.9116
▁darkest	-12.9116
▁hugh	-12.9117
▁psyched	-12.9117
▁advertisements	-12.9118
▁pier	-12.912
▁culturally	-12.9122
▁organ	-12.9124
▁strained	-12.9125
▁buses	-12.9125
▁grapes	-12.9125
▁manifesting	-12.913
▁reporters	-12.913
lev	-12.9131
natal	-12.9131
▁licking	-12.9133
▁harper	-12.9134
▁outwardly	-12.9135
▁prolif	-12.9136
▁accordingly	-12.9137
▁jade	-12.9137
woman	-12.9138
cula	-12.9139
▁lashing	-12.9142
▁awed	-12.9144
▁bp	-12.9146
▁graders	-12.9147
itative	-12.9148
▁spike	-12.9148
▁thro	-12.9148
▁rearing	-12.9152
▁shrugg	-12.9155
▁zap	-12.9155
rimp	-12.9163
teria	-12.9169
▁owen	-12.917
iah	-12.9171
▁aimless	-12.9175
▁nope	-12.9179
etroi	-12.9181
▁thereof	-12.9183
▁coins	-12.9183
▁republicans	-12.9188
▁gps	-12.9189
▁thrilling	-12.9191
▁kab	-12.9191
▁verb	-12.9194
▁vip	-12.9199
▁eagerness	-12.92
▁stinging	-12.9202
▁taper	-12.9207
▁accompanie	-12.9208
dina	-12.9218
▁zon	-12.9223
▁vampires	-12.9225
▁elders	-12.9225
▁expend	-12.9233
▁paced	-12.924
▁politically	-12.9243
▁harmed	-12.9245
lish	-12.9248
▁mastered	-12.9255
ndicated	-12.9259
▁identifying	-12.926
▁brightly	-12.9264
▁prizes	-12.9265
▁terri	-12.9268
rium	-12.9269
▁vein	-12.927
▁facilitat	-12.927
▁spiders	-12.9276
▁norms	-12.9283
shire	-12.9284
▁kl	-12.9291
know	-12.9292
▁messes	-12.9292
▁judgments	-12.9295
▁hart	-12.9299
▁solar	-12.9309
▁pho	-12.9316
▁bub	-12.9324
▁epi	-12.9326
▁stripp	-12.9328
▁mast	-12.9329
▁drape	-12.933
▁hun	-12.9332
▁matched	-12.9336
▁packages	-12.9339
▁docs	-12.934
▁nana	-12.9341
night	-12.9346
▁nee	-12.9347
▁disasters	-12.9351
position	-12.9362
▁nate	-12.9366
nson	-12.9369
▁colon	-12.9378
▁cou	-12.9378
▁refers	-12.9381
▁oppose	-12.9387
▁surg	-12.9387
▁ships	-12.9389
▁posters	-12.9398
▁rationalize	-12.9408
▁disappears	-12.9415
▁exchanges	-12.9416
▁presentations	-12.9425
▁senseless	-12.9431
▁kor	-12.9437
▁zapp	-12.9446
▁foresee	-12.9452
▁rave	-12.9463
▁socialize	-12.9466
▁joan	-12.9483
▁halo	-12.9488
hl	-12.949
▁drear	-12.9492
uz	-12.9503
▁incorporat	-12.9506
▁adams	-12.9516
lene	-12.9525
▁chipp	-12.9527
becca	-12.9531
▁rak	-12.9536
▁someway	-12.9537
▁curv	-12.954
ige	-12.9542
comm	-12.9542
▁server	-12.9545
▁commenter	-12.9545
▁glut	-12.9548
ament	-12.9554
▁yah	-12.9563
raz	-12.9568
eek	-12.9575
juan	-12.9577
held	-12.9584
scope	-12.9588
▁mira	-12.9589
▁postpon	-12.9601
▁historic	-12.9603
otic	-12.9608
▁lp	-12.9615
lai	-12.9616
▁rab	-12.962
body	-12.9628
affe	-12.9632
▁opponent	-12.9633
▁celeb	-12.9633
▁grape	-12.9634
▁hormone	-12.9635
grade	-12.9638
▁manipulat	-12.9645
▁eventual	-12.9646
foot	-12.9646
▁painter	-12.9652
gt	-12.9652
pool	-12.9653
▁counsel	-12.9658
▁uplift	-12.9666
kill	-12.9668
bank	-12.9671
▁manufactur	-12.9673
▁analyse	-12.9675
ich	-12.9679
▁implication	-12.968
▁daze	-12.9687
thora	-12.9688
▁unreasonabl	-12.9689
▁encompass	-12.9691
▁wrinkl	-12.9691
▁nin	-12.9693
uacies	-12.9693
▁adolescence	-12.9693
▁baffled	-12.9693
▁barcelona	-12.9693
▁comprehension	-12.9693
▁credibility	-12.9693
▁declaration	-12.9693
▁demographic	-12.9693
▁diablo	-12.9693
▁diligent	-12.9693
▁disempower	-12.9693
▁enormity	-12.9693
▁enthused	-12.9693
▁exfoliat	-12.9693
▁facility	-12.9693
▁fickle	-12.9693
▁fragment	-12.9693
▁hindsight	-12.9693
▁immortal	-12.9693
▁investigation	-12.9693
▁karaoke	-12.9693
▁lighthearted	-12.9693
▁linguistic	-12.9693
▁mandarin	-12.9693
▁monotonous	-12.9693
▁montreal	-12.9693
▁parliament	-12.9693
▁pedicure	-12.9693
▁penalty	-12.9693
▁premium	-12.9693
▁redundant	-12.9693
▁relieving	-12.9693
▁restoration	-12.9693
▁rhetoric	-12.9693
▁screech	-12.9693
▁scrutiny	-12.9693
▁snowflake	-12.9693
▁solidarity	-12.9693
▁spaghetti	-12.9693
▁suspension	-12.9693
▁thieves	-12.9693
▁threshold	-12.9693
▁unattainable	-12.9693
▁uncool	-12.9693
▁unscathed	-12.9693
▁webcam	-12.9693
▁adoration	-12.9693
▁alpha	-12.9693
▁glitch	-12.9693
▁patriarch	-12.9693
▁simpson	-12.9693
▁wield	-12.9693
▁correlat	-12.9693
▁gloat	-12.9693
culinary	-12.9693
▁geography	-12.9693
▁styling	-12.9693
▁trough	-12.9693
▁ineffective	-12.9693
▁cruising	-12.9693
▁alleged	-12.9693
▁detract	-12.9693
▁amendment	-12.9693
▁bulb	-12.9693
▁handicapped	-12.9693
▁aussie	-12.9693
▁inventory	-12.9693
▁toxins	-12.9693
▁sidelines	-12.9693
▁malawi	-12.9693
▁indignat	-12.9694
▁existential	-12.9694
▁sweatshirt	-12.9694
▁android	-12.9694
▁clark	-12.9694
▁modify	-12.9694
▁falter	-12.9694
▁fibro	-12.9694
▁embody	-12.9694
▁intact	-12.9694
▁stutter	-12.9694
▁empowerment	-12.9694
▁salute	-12.9694
▁homosexuality	-12.9694
▁index	-12.9694
▁hoax	-12.9694
▁holland	-12.9694
▁scarred	-12.9694
▁bawl	-12.9694
▁compact	-12.9694
▁blair	-12.9694
▁commence	-12.9694
▁batteries	-12.9694
▁banner	-12.9694
▁cooperation	-12.9694
▁zack	-12.9694
▁pacific	-12.9694
▁wildlife	-12.9694
▁delhi	-12.9695
▁marcus	-12.9695
▁innate	-12.9695
▁capitalism	-12.9695
▁consumerism	-12.9695
▁patent	-12.9695
▁pony	-12.9695
▁periodically	-12.9695
uential	-12.9695
▁wifi	-12.9695
▁erection	-12.9695
▁undress	-12.9695
▁validity	-12.9695
▁poppy	-12.9695
▁cardboard	-12.9696
robbing	-12.9696
▁boundary	-12.9696
▁descent	-12.9696
▁precede	-12.9696
▁hostage	-12.9696
▁muted	-12.9696
[...]
